[PAD]
[UNK]
[CLS]
[SEP]
[MASK]
!
"
#
$
%
&
'
(
)
*
+
,
-
.
/
0
1
2
3
4
5
6
7
8
9
:
;
<
=
>
?
@
A
B
C
D
E
F
G
H
I
J
K
L
M
N
O
P
Q
R
S
T
U
V
W
X
Y
Z
[
\
]
^
_
`
a
b
c
d
e
f
g
h
i
j
k
l
m
n
o
p
q
r
s
t
u
v
w
x
y
z
{
|
}
~
¡
¢
£
¤
¥
§
©
«
®
¯
°
±
²
³
´
µ
¶
·
¹
º
»
¼
½
¾
¿
À
Á
Â
Ä
Å
Æ
Ç
È
É
Ê
Ë
Ì
Í
Î
Ï
Ð
Ñ
Ò
Ó
Ô
Õ
Ö
×
Ø
Ù
Ú
Ü
Ý
Þ
ß
à
á
â
ã
ä
å
æ
ç
è
é
ê
ë
ì
í
î
ï
ð
ñ
ò
ó
ô
õ
ö
÷
ø
ù
ú
û
ü
ý
þ
ÿ
Ā
ā
Ă
ă
ą
Ć
ć
ĉ
Ċ
ċ
Č
č
Ď
ď
Đ
đ
Ē
ē
Ĕ
ĕ
Ė
ė
ę
Ě
ě
ğ
Ġ
ġ
Ģ
ģ
Ĥ
Ħ
ħ
ĩ
Ī
ī
ĭ
į
İ
ı
ĵ
Ķ
ķ
ĸ
ĺ
ļ
Ľ
ľ
Ł
ł
ń
ņ
ň
Ŋ
ŋ
Ō
ō
ŏ
ő
Œ
œ
Ŗ
ŗ
Ř
ř
Ś
ś
Ŝ
Ş
ş
Š
š
Ţ
ţ
ť
ŧ
ũ
Ū
ū
ŭ
ů
ű
ų
ŵ
ŷ
Ź
ź
Ż
ż
Ž
ž
ſ
ƀ
Ɔ
Ƈ
ƈ
Ɖ
ƍ
Ǝ
Ə
Ɛ
ƒ
Ɣ
ƙ
ƛ
ơ
Ƣ
ƥ
ƭ
ư
Ʋ
ƿ
ǀ
ǁ
ǂ
ǃ
ǎ
ǐ
Ǒ
ǒ
ǔ
ǚ
ǜ
ǝ
Ǣ
ǣ
Ǧ
ǧ
Ǫ
ǫ
ǭ
ǰ
ǵ
Ƿ
Ǹ
ǹ
ǽ
Ș
ș
Ț
ț
Ȝ
ȝ
ȟ
ȯ
ȳ
ȷ
ȼ
Ɉ
ɐ
ɑ
ɒ
ɓ
ɔ
ɕ
ɖ
ɗ
ɘ
ə
ɚ
ɛ
ɜ
ɞ
ɟ
ɠ
ɡ
ɢ
ɣ
ɤ
ɥ
ɦ
ɧ
ɨ
ɪ
ɫ
ɬ
ɭ
ɮ
ɯ
ɰ
ɱ
ɲ
ɳ
ɴ
ɵ
ɶ
ɷ
ɸ
ɹ
ɺ
ɻ
ɽ
ɾ
ʀ
ʁ
ʂ
ʃ
ʄ
ʇ
ʈ
ʉ
ʊ
ʋ
ʌ
ʍ
ʎ
ʏ
ʐ
ʑ
ʒ
ʔ
ʕ
ʖ
ʗ
ʘ
ʙ
ʛ
ʝ
ʟ
ʠ
ʡ
ʢ
ʰ
ʱ
ʲ
ʳ
ʷ
ʹ
ʻ
ʼ
ʽ
ʾ
ʿ
ˀ
ˁ
ˆ
ˇ
ˈ
ˌ
ː
ˑ
˔
˕
˖
˘
˚
˜
˞
ˠ
ˢ
ˣ
ˤ
˥
˦
˧
˨
˩
̀
́
̂
̃
̄
̆
̇
̈
̊
̋
̌
̍
̏
̐
̑
̖
̗
̚
̝
̞
̟
̠
̣
̤
̥
̧
̩
̪
̬
̮
̯
̰
̱
̲
̳
̺
̽
͌
͍
͘
͜
͡
΄
Ά
Έ
Ή
Ί
Ό
Ύ
ΐ
Α
Β
Γ
Δ
Ε
Ζ
Η
Θ
Ι
Κ
Λ
Μ
Ν
Ξ
Ο
Π
Ρ
Σ
Τ
Υ
Φ
Χ
Ψ
Ω
ά
έ
ή
ί
α
β
γ
δ
ε
ζ
η
θ
ι
κ
λ
μ
ν
ξ
ο
π
ρ
ς
σ
τ
υ
φ
χ
ψ
ω
ϊ
ό
ύ
ώ
ϑ
ϕ
ϝ
ϟ
ϵ
Ђ
Є
І
Ї
Ј
Љ
Ћ
А
Б
В
Г
Д
Е
Ж
З
И
Й
К
Л
М
Н
О
П
Р
С
Т
У
Ф
Х
Ц
Ч
Ш
Щ
Ъ
Ы
Ь
Э
Ю
Я
а
б
в
г
д
е
ж
з
и
й
к
л
м
н
о
п
р
с
т
у
ф
х
ц
ч
ш
щ
ъ
ы
ь
э
ю
я
ё
ђ
є
і
ї
ј
љ
њ
ћ
ѝ
ў
Ѡ
ѡ
Ѣ
ѣ
ѥ
ѧ
Ѯ
ѹ
҆
ғ
қ
ү
ҳ
ҷ
ӣ
Ө
ө
ӯ
Ӷ
ӷ
Ա
Բ
Գ
Դ
Ե
Զ
Է
Ը
Թ
Ժ
Ի
Լ
Խ
Կ
Հ
Ձ
Ղ
Ճ
Մ
Յ
Ն
Շ
Ո
Պ
Ջ
Ռ
Ս
Վ
Տ
Փ
Ք
Օ
ա
բ
գ
դ
ե
զ
է
ը
թ
ժ
ի
լ
խ
ծ
կ
հ
ձ
ղ
ճ
մ
յ
ն
շ
ո
չ
պ
ջ
ռ
ս
վ
տ
ր
ց
ւ
փ
ք
օ
և
֤
֫
ְ
ֱ
ֲ
ֳ
ִ
ֵ
ֶ
ַ
ָ
ֹ
ֻ
ּ
ֽ
ֿ
ׁ
ׂ
א
ב
ג
ד
ה
ו
ז
ח
ט
י
ך
כ
ל
ם
מ
ן
נ
ס
ע
ף
פ
ץ
צ
ק
ר
ש
ת
ױ
׳
،
ء
آ
أ
ؤ
إ
ئ
ا
ب
ة
ت
ث
ج
ح
خ
د
ذ
ر
ز
س
ش
ص
ض
ط
ظ
ع
غ
ـ
ف
ق
ك
ل
م
ن
ه
و
ى
ي
ً
ٌ
ٍ
َ
ُ
ِ
ّ
ْ
ٔ
١
٧
ٰ
پ
چ
ڈ
ڠ
ک
ڬ
گ
ں
ھ
ہ
ی
ۍ
ے
ە
ܐ
ܒ
ܔ
ܕ
ܗ
ܘ
ܙ
ܚ
ܛ
ܝ
ܠ
ܡ
ܢ
ܣ
ܥ
ܦ
ܪ
ܬ
ܲ
ܵ
ܼ
݂
ँ
ं
ः
अ
आ
इ
ई
उ
ऋ
ए
ऐ
औ
क
ख
ग
घ
ङ
च
छ
ज
ञ
ट
ठ
ड
ण
त
थ
द
ध
न
प
फ
ब
भ
म
य
र
ल
व
श
ष
स
ह
़
ऽ
ा
ि
ी
ु
ू
ृ
ॆ
े
ै
ॉ
ॊ
ो
ौ
्
ॐ
।
॥
१
२
३
ং
অ
আ
ই
এ
ক
খ
গ
ঙ
চ
জ
ট
ড
ঢ
ণ
ত
থ
দ
ন
প
ব
ভ
ম
য
র
ল
শ
ষ
স
হ
়
া
ি
ী
ু
ূ
ে
ৈ
ো
্
ৰ
ਂ
ਅ
ਉ
ਖ
ਘ
ਜ
ਝ
ਦ
ਲ
ਵ
ਸ
ਹ
਼
ਾ
ਿ
ੁ
ੇ
ੰ
ੱ
ખ
ફ
બ
ર
લ
સ
ા
ો
ପ
ର
ୀ
ୁ
ஃ
அ
ஆ
இ
ஈ
எ
ஒ
க
ங
ச
ட
ண
த
ந
ன
ப
ம
ய
ர
ற
ல
ள
ழ
வ
ஸ
ா
ி
ீ
ு
ூ
ெ
ே
ை
ோ
்
ం
క
ఖ
గ
జ
ట
ఠ
డ
త
థ
ద
న
ప
బ
భ
మ
య
ర
ల
వ
ష
స
ా
ి
ీ
ు
ై
ో
్
ಂ
ಃ
ಕ
ಖ
ಗ
ಚ
ಟ
ಠ
ಡ
ತ
ದ
ನ
ಪ
ಬ
ಭ
ಮ
ಯ
ರ
ಱ
ಲ
ಳ
ವ
ಶ
ಸ
ಹ
ಾ
ಿ
ು
ೇ
ೋ
್
ೞ
അ
ങ
ദ
ന
പ
മ
യ
ര
ള
വ
ശ
സ
ഹ
ാ
ി
്
අ
එ
ක
ග
ජ
ත
ධ
න
ප
ම
ය
ර
ල
ව
ශ
හ
ළ
්
ා
ැ
ි
ු
ේ
ෝ
ก
ข
ค
ฆ
ง
จ
ฉ
ช
ซ
ญ
ฎ
ฏ
ฐ
ฑ
ณ
ด
ต
ถ
ท
ธ
น
บ
ป
ผ
ฝ
พ
ฟ
ภ
ม
ย
ร
ฤ
ล
ว
ศ
ษ
ส
ห
ฬ
อ
ฮ
ะ
ั
า
ำ
ิ
ี
ึ
ื
ุ
ู
฿
เ
แ
โ
ใ
ไ
็
่
้
๊
์
་
༌
།
ཀ
ཁ
ག
ང
ཆ
ཇ
ཐ
ད
ན
པ
བ
མ
ཙ
ཚ
ཛ
འ
ཡ
ར
ལ
ས
ཧ
ི
ུ
ེ
ོ
ྟ
ྡ
ྣ
ྤ
ྥ
ྱ
ྲ
က
ဂ
င
စ
ဆ
န
ပ
ဗ
ဘ
မ
ယ
ရ
လ
ဝ
ဟ
ာ
ိ
ီ
ု
ူ
ဲ
း
္
်
ျ
ြ
ှ
Ⴀ
Ⴂ
Ⴃ
Ⴈ
Ⴌ
Ⴕ
Ⴟ
ა
ბ
გ
დ
ე
ვ
ზ
თ
ი
კ
ლ
მ
ნ
ო
პ
ჟ
რ
ს
ტ
უ
ფ
ქ
ღ
ყ
შ
ჩ
ც
ძ
წ
ჭ
ხ
ჯ
ჰ
ჱ
ჲ
ჳ
ჴ
ჵ
ჶ
ჷ
ჸ
ჹ
ჺ
჻
ሀ
ለ
ሐ
ሓ
ሕ
መ
ማ
ሥ
ረ
ር
ሰ
ስ
ቆ
ቈ
በ
ብ
ቲ
ታ
ት
ነ
ና
ን
ኖ
አ
ኢ
እ
ከ
ኲ
ዕ
ዘ
ዛ
የ
ያ
ይ
ዮ
ደ
ድ
ጅ
ገ
ጉ
ጵ
ፈ
ፍ
፡
Ꭰ
Ꭳ
Ꭶ
Ꭸ
Ꭹ
Ꮀ
Ꮃ
Ꮉ
Ꮝ
Ꮿ
Ᏹ
ᐊ
ᑲ
ᒡ
ᓘ
ᚢ
ᚣ
ᚦ
ᚨ
ᚩ
ᚬ
ᚱ
ᚷ
ᚹ
ᚺ
ᚻ
ᚼ
ᚾ
ᛁ
ᛃ
ᛄ
ᛇ
ᛋ
ᛏ
ᛒ
ᛗ
ᛚ
ᛝ
ᛞ
ᛟ
ᛠ
ក
ខ
គ
ង
ច
ឆ
ជ
ញ
ដ
ឋ
ណ
ត
ថ
ទ
ធ
ន
ប
ព
ភ
ម
យ
រ
ល
វ
ស
ហ
អ
ឥ
ឪ
ឫ
ឯ
឵
ា
ិ
ី
ឹ
ឺ
ុ
ូ
ួ
ៀ
េ
ែ
ៃ
ោ
ៅ
ំ
ះ
ៈ
៉
់
្
ᠠ
ᠣ
ᠨ
ᠪ
ᠮ
ᠯ
ᠰ
ᠴ
ᠵ
ᠸ
ᡝ
ᡠ
ᡥ
ᡨ
ᡳ
ᡴ
ᡵ
ᴰ
ᴷ
ᴺ
ᵀ
ᵊ
ᵑ
ᵗ
ᵘ
ᵝ
ᵻ
ᵿ
ᶑ
ᶢ
ᶦ
ᶴ
ᶷ
᷄
᷅
᷆
᷇
᷈
᷉
᷽
Ḍ
ḍ
Ḏ
ḏ
ḑ
ḕ
ḗ
Ḣ
Ḥ
ḥ
Ḩ
ḩ
Ḫ
ḫ
ḭ
ḱ
Ḳ
ḳ
ḵ
ḷ
ḹ
ḻ
ḿ
ṁ
ṃ
ṅ
ṇ
ṉ
ṓ
ṙ
Ṛ
ṛ
Ṝ
ṝ
ṟ
Ṣ
ṣ
Ṧ
Ṫ
Ṭ
ṭ
Ṯ
ṯ
ṳ
ṵ
Ṽ
ṽ
ẃ
Ẓ
ẓ
ẖ
ạ
ả
Ấ
ấ
ầ
Ẩ
ẩ
ẫ
ậ
ắ
ằ
ẵ
ặ
ẹ
ẻ
ẽ
ế
ề
ể
ễ
ệ
ỉ
ị
Ọ
ọ
ỏ
Ố
ố
ồ
ổ
ỗ
ộ
ớ
ờ
ở
ợ
Ụ
ụ
ủ
Ứ
ứ
ừ
ử
ữ
ự
ỳ
ỵ
ỹ
ἀ
ἁ
ἂ
ἃ
ἄ
ἅ
Ἀ
Ἁ
Ἄ
Ἅ
ἐ
ἑ
ἒ
ἔ
ἕ
Ἐ
Ἑ
Ἔ
Ἕ
ἠ
ἡ
ἢ
ἤ
ἥ
ἦ
ἧ
Ἠ
Ἡ
ἰ
ἱ
ἲ
ἳ
ἴ
ἵ
ἶ
ἷ
Ἰ
Ἱ
Ἶ
ὀ
ὁ
ὂ
ὃ
ὄ
ὅ
Ὁ
Ὄ
ὐ
ὑ
ὔ
ὕ
ὖ
ὗ
Ὕ
ὡ
ὣ
ὤ
ὥ
ὦ
Ὠ
Ὡ
Ὦ
ὰ
ὲ
ὴ
ὶ
ὸ
ὺ
ὼ
ᾓ
ᾰ
ᾳ
ᾶ
ᾷ
᾿
ῆ
ῇ
Ὲ
ῐ
ῑ
ῖ
Ὶ
ῠ
ῥ
ῦ
Ῥ
ῳ
ῶ
ῷ
‐
‑
‒
–
—
―
‖
‘
’
‚
‛
“
”
„
‟
†
‡
•
…
‰
′
″
※
‼
‿
⁄
⁊
⁰
⁺
ⁿ
₁
₂
₃
₄
₡
₣
₤
₦
₧
₨
₩
₫
€
₱
₴
₹
ℂ
℃
ℓ
ℕ
№
ℛ
ℝ
℞
™
ℤ
℥
ℵ
⅓
⅔
⅙
⅛
⅜
⅝
⅞
Ⅱ
←
↑
→
↓
↔
↗
↘
↦
↪
↵
⇄
⇌
⇒
⇪
∀
∂
∅
∆
∇
∈
∉
∊
∑
−
∕
∖
∗
∘
√
∝
∞
∤
∩
∪
∫
∴
∼
≈
≠
≡
≢
≤
≥
≪
≫
≲
⊂
⊕
⊗
⊙
⊞
⊢
⊣
⊥
⋅
⋆
⋯
⌊
⌋
⌘
①
②
③
④
⑤
⑥
⑦
⑧
─
█
▢
▲
▼
○
●
◦
☄
★
☆
☉
☧
☫
☭
☽
☾
♀
♂
♄
♅
♆
♇
♈
♉
♠
♣
♥
♦
♩
♪
♭
♮
♯
⚳
⚴
⚵
⛢
✡
✱
❄
❅
❆
❤
⟦
⟧
⟨
⟩
⥇
⩽
⫶
ⱱ
ⲁ
ⲛ
ⲥ
ⲧ
ⲩ
Ⲫ
ⲱ
ⴰ
ⴳ
ⴷ
ⴻ
ⴼ
ⴽ
ⵃ
ⵇ
ⵉ
ⵍ
ⵎ
ⵏ
ⵓ
ⵔ
ⵕ
ⵖ
ⵙ
ⵛ
ⵜ
ⵡ
ⵢ
ⵣ
⸨
⸩
、
。
々
〈
〉
《
》
「
」
『
』
【
】
〒
〜
あ
ぃ
い
ぅ
う
ぇ
え
ぉ
お
か
が
き
ぎ
く
ぐ
け
げ
こ
ご
さ
ざ
し
じ
す
ず
せ
ぜ
そ
ぞ
た
だ
ち
っ
つ
づ
て
で
と
ど
な
に
ぬ
ね
の
は
ば
ぱ
ひ
び
ぴ
ふ
ぶ
ぷ
へ
べ
ぺ
ほ
ぼ
ぽ
ま
み
む
め
も
ゃ
や
ゅ
ゆ
ょ
よ
ら
り
る
れ
ろ
わ
ゑ
を
ん
ァ
ア
ィ
イ
ゥ
ウ
ェ
エ
ォ
オ
カ
ガ
キ
ギ
ク
グ
ケ
ゲ
コ
ゴ
サ
ザ
シ
ジ
ス
ズ
セ
ゼ
ソ
ゾ
タ
ダ
チ
ヂ
ッ
ツ
ヅ
テ
デ
ト
ド
ナ
ニ
ヌ
ネ
ノ
ハ
バ
パ
ヒ
ビ
ピ
フ
ブ
プ
ヘ
ベ
ペ
ホ
ボ
ポ
マ
ミ
ム
メ
モ
ャ
ヤ
ュ
ユ
ョ
ヨ
ラ
リ
ル
レ
ロ
ワ
ヲ
ン
ヴ
ヶ
・
ー
一
丁
七
万
丈
三
上
下
不
与
丑
且
世
丘
丙
东
丝
丞
両
丨
个
中
丶
丸
丹
为
主
丽
丿
乃
久
么
义
之
乌
乎
乐
乘
乙
乚
乛
九
也
习
书
乩
买
乱
乳
乾
亀
亅
了
予
争
事
二
云
五
井
亚
些
亜
亞
亡
交
亦
亨
京
亮
亰
人
什
仁
仇
今
介
仔
仕
他
付
仙
代
令
以
仪
们
仮
仰
仲
件
任
份
伊
伏
伐
休
会
伝
伟
传
伪
伯
伴
伸
似
佃
但
位
住
佐
佑
体
何
余
佛
作
你
佳
併
使
來
例
侍
侗
供
依
侠
侨
侬
侯
係
促
俄
俊
保
信
俭
修
俱
俳
倉
個
們
候
借
倪
倫
倭
偃
假
偏
健
側
偵
偽
傀
傅
傑
傘
備
催
傭
傳
傷
像
僑
僕
僧
儀
億
儒
儚
儡
優
儿
允
元
充
兆
先
光
克
免
兒
兔
兜
入
內
全
兩
八
公
六
兰
共
关
兵
其
具
典
养
冀
内
円
冉
册
再
冒
写
军
冠
冥
冫
冬
冯
决
冴
冶
冷
净
准
凌
凤
処
凪
凯
凰
凱
凶
凹
出
刀
刃
分
切
刊
划
列
刘
初
判
別
利
别
到
制
刷
券
刹
刺
刻
則
前
剑
剛
剣
剧
剩
副
割
創
劃
劇
劉
劍
力
办
功
加
劣
动
助
劳
勃
勅
勇
勒
動
勘
務
勝
勞
勢
勳
勾
包
化
北
匠
匹
区
医
區
十
千
升
午
半
华
协
卐
卒
卓
協
单
卖
南
博
卜
占
卡
卢
卦
卫
印
危
即
却
卸
卿
厂
厄
历
厘
厚
原
厥
厦
厩
去
县
参
參
叉
及
友
双
反
収
发
叔
取
受
变
叛
叠
叡
叢
口
古
句
只
叫
召
可
台
史
右
叶
号
司
合
吉
同
名
后
向
吕
君
吞
吟
吧
启
吳
吴
吸
吹
吾
呂
呉
告
周
呪
味
呼
命
咆
和
咖
咙
咫
咲
咸
哀
品
哈
哉
响
員
哥
哮
哲
唄
唐
唯
唱
商
問
啓
啟
啡
善
喇
喋
喚
喜
喝
喬
嘉
嘘
噛
器
嚣
嚴
囁
囂
囃
囚
四
回
因
团
団
図
国
图
圈
國
圍
圏
園
圓
圖
土
圣
圧
在
地
圻
坂
均
坊
坑
块
坚
坝
坡
坤
坪
型
垣
城
埔
域
執
培
基
堀
堂
堅
堆
堡
堤
堯
報
場
塊
塔
塘
塚
塞
塩
填
塵
境
墓
墙
增
壁
壌
壓
壟
壤
士
壬
壮
壯
声
壱
売
壳
壷
壽
处
备
変
复
夏
夕
外
多
夜
够
夢
夤
大
天
太
夫
央
失
头
夷
奇
奈
奉
奎
奏
奐
契
奔
奥
奧
奪
女
奴
好
如
妃
妇
妍
妖
妙
妮
妹
妻
姉
姊
始
姑
委
姚
姥
姦
姫
姬
姿
威
娘
娜
婁
婆
婚
婷
嫁
嬢
嬴
子
孔
字
存
孙
孛
孝
孟
季
孤
学
孩
孫
孵
學
宁
宅
宇
守
安
宋
完
宏
宗
官
宙
定
宜
宝
实
実
客
宣
室
宫
宮
宴
宵
家
宸
容
宿
寂
寄
密
寇
富
寔
寗
寛
寝
寞
察
寧
寨
審
寬
寵
寶
寸
对
寺
寻
対
寿
封
射
将
將
尉
尊
尋
對
導
小
少
尔
尚
尧
就
尸
尹
尺
尼
尽
尾
局
居
届
屋
屍
屑
展
屠
層
屬
屯
山
屿
岐
岑
岚
岛
岡
岩
岬
岭
岳
岸
峰
島
崇
崎
崔
崖
嵐
嶋
嶺
嶼
巂
巖
川
州
巡
工
左
巨
巫
差
己
巳
巴
巻
币
市
布
帆
师
希
帕
帖
帝
帥
带
師
帮
帰
帶
常
幕
幡
幣
干
平
年
幸
幻
幽
广
庁
広
庄
庆
庇
序
库
底
庖
店
庙
庚
府
度
座
庫
庭
庵
康
廉
廊
廖
廟
廣
廬
延
廷
建
廻
廿
开
弁
式
弐
弓
弔
引
弘
弟
张
弥
弦
弧
弱
張
強
弹
强
弾
彌
当
录
彖
彙
形
彦
彩
彪
彬
彭
影
役
彼
征
径
待
律
後
徐
徒
得
從
御
復
微
徳
德
徹
徽
心
必
忍
志
忘
応
忠
快
念
怀
怎
怒
怖
思
怡
急
性
怨
怪
总
恆
恋
恐
恒
恢
恥
恩
恭
息
恵
恼
悔
悟
悠
悦
悪
悫
悲
悼
情
惑
惟
惠
惡
想
愁
愍
意
愚
愛
感
愽
慈
態
慎
慧
慰
慶
憂
憎
憑
憲
憶
應
懍
懷
戈
戊
戎
成
我
战
戦
戯
戰
戴
户
戸
房
所
扁
扇
扈
扉
手
才
打
托
扶
找
承
技
抄
抓
投
抜
択
护
报
披
抱
抵
担
拉
拍
拏
拐
拖
拘
招
拜
拟
拥
括
拳
拾
持
挂
指
挑
挥
振
据
捷
授
掛
採
探
控
掲
描
提
揚
換
援
揺
摂
摩
摸
撃
撒
撞
播
撲
操
攝
支
收
改
攻
放
政
故
敏
救
教
敢
散
敦
敬
数
敵
敷
數
文
斉
斎
斗
料
斜
斤
斩
斬
断
斯
新
方
於
施
旅
旋
族
旗
无
日
旦
旧
早
旭
时
旺
昂
昇
昌
明
昏
易
昔
星
映
春
昭
是
昼
時
晉
晋
晒
普
景
晴
晶
智
暁
暂
暖
暗
暦
暮
暴
曆
曜
曦
曲
更
書
曹
曼
曾
最
會
月
有
朋
服
朏
朔
朗
望
朝
期
朧
木
未
末
本
札
朱
朴
朵
机
朽
杀
杂
权
李
杏
材
村
杖
杜
束
条
来
杨
杯
東
杲
松
板
极
析
林
枚
果
枝
枭
枯
架
柆
柏
柔
柚
柩
柱
柳
柴
査
栄
标
栈
树
栖
栗
栞
校
株
样
核
根
格
栽
栾
桀
桂
桃
案
桎
桐
桑
桓
桜
桥
桧
梁
梅
梏
梓
條
梦
梨
梭
梯
械
梵
梶
棋
棍
棗
棘
棚
棟
森
棲
棵
棺
椅
植
椎
椒
椛
検
椰
椿
楊
楚
楠
業
楯
極
楼
楽
概
榆
榊
榔
榛
榮
榴
槐
様
槤
槻
樂
樉
樊
樓
樗
標
樛
模
権
横
樱
樸
樹
橋
橘
橚
機
橫
橿
檀
檜
檳
檻
櫓
櫻
權
欒
欠
次
欣
欲
欽
歌
歓
歡
止
正
步
武
歩
歪
歲
歳
歴
歷
歸
死
殊
残
段
殺
殻
殿
毅
母
毎
每
比
毕
毘
毛
毫
毬
氏
民
气
気
氣
水
氷
永
氾
汇
汉
汐
汗
汝
江
池
汤
汪
汰
汶
決
汽
沂
沃
沈
沉
沌
沐
沒
沖
沙
沛
没
沢
沫
河
沸
油
治
沼
沽
泉
泊
法
泗
泡
波
泣
泥
注
泰
泾
洁
洋
洛
洞
津
洪
洲
活
派
流
浅
浙
浚
浜
浦
浩
浪
浮
海
消
涙
润
涵
涼
淇
淑
淘
淡
淨
深
淳
淵
淹
添
清
渊
渚
減
渠
渡
渣
渥
渦
温
測
港
游
渾
湊
湖
湯
湾
満
源
準
溜
溢
溪
溫
溶
滅
滋
滑
滨
滿
漁
漂
漆
漏
漠
漢
漫
漳
漸
潘
潜
潤
澄
澤
澪
激
濃
濞
濟
瀛
瀬
灣
火
灯
灰
灵
灶
灼
災
灾
炎
炬
炮
炯
炷
炸
点
為
炼
烈
烏
烙
烟
烦
烧
焉
焔
無
焦
然
焼
煌
煙
煜
照
煩
煮
熊
熔
熙
熟
熱
燃
燈
燕
營
爆
爪
爭
爱
爲
爵
父
爺
爻
爽
爾
片
版
牌
牙
牛
牡
牢
牧
物
牵
特
犖
犬
犯
狀
狂
狐
狗
狛
狡
狩
独
狭
狱
狸
狼
猛
猩
猪
猫
献
猿
獄
獅
獣
獵
獻
玄
玉
王
玖
玩
玲
珂
珍
珙
珠
現
球
理
琦
琪
琬
琮
琴
瑋
瑙
瑜
瑞
瑠
瑣
瑪
瑾
璉
環
璽
瓊
瓜
瓢
瓦
瓩
瓷
甘
甜
生
產
産
用
甫
田
由
甲
申
男
町
画
甽
界
畑
留
畜
畢
略
番
畫
異
疾
病
症
痘
痛
痴
瘡
瘤
発
登
發
白
百
的
皇
皙
皮
皿
盆
盈
益
盏
盐
监
盒
盗
盘
盛
盟
監
盤
盧
目
直
相
盼
省
看
県
眞
真
眼
着
督
瞬
瞳
矢
知
矩
短
矮
矯
石
砂
砍
研
砖
砲
破
硕
硝
硨
碍
碗
碩
確
碼
磁
磅
磐
磨
磯
磲
礁
礎
礮
示
礼
社
祀
祈
祐
祖
祚
神
祠
祥
票
祭
祺
祿
禁
禄
禎
福
禦
禮
禰
禺
禾
秀
私
秋
科
秒
秘
租
秤
秦
移
程
稔
稚
種
稲
稷
穂
穌
積
穎
穗
穢
究
空
突
窓
窗
窟
竇
立
站
竜
章
童
端
竹
竺
笑
笔
笛
笠
符
笨
第
笹
筆
等
筋
筍
筐
筑
答
策
筹
箇
算
管
箪
箭
箱
節
範
篇
篋
篚
篤
簡
簿
籃
籌
籍
籠
米
籵
粁
粉
粍
粟
粥
粨
精
糊
糎
糖
糸
系
紀
約
紅
紋
納
純
紘
紙
級
素
紡
紫
細
紹
紺
終
組
絆
経
結
絡
給
統
絵
絶
綁
經
継
続
綜
綠
維
綯
綱
網
綸
綺
綾
緋
総
緑
緒
線
締
編
緩
緯
縄
縊
縣
總
繋
織
繼
續
红
级
纪
纯
纲
纵
线
组
绅
细
终
绍
经
给
统
继
绮
维
综
缽
网
罗
罠
罪
置
罰
罸
羅
羊
美
群
義
羽
翁
習
翔
翘
翠
翡
翱
翹
翻
翼
老
考
者
耆
而
耕
耳
耶
耿
聃
联
聖
聘
聚
聞
聡
聯
聰
聲
職
肃
肉
肖
肚
股
肥
肩
育
胞
胠
胡
胤
胴
胸
能
脂
脇
脈
脉
脚
脩
脱
脳
腎
腐
腰
腹
腿
膀
膺
臂
臘
臚
臣
臨
自
臭
至
致
臺
與
興
舍
舎
舞
舟
航
船
艦
良
色
艳
艶
艺
节
芒
芙
芝
芦
芬
芭
芮
芯
花
芳
芸
芹
芽
苏
苑
苗
苣
若
英
苺
茂
范
茅
茜
茶
茸
草
荊
荒
荔
荘
荥
荪
荫
药
荷
荻
荼
莉
莊
莎
莘
莞
莫
莱
莲
莴
菇
菉
菊
菜
華
菱
菲
萌
萍
萝
营
萧
萨
萬
落
葆
葉
著
葛
董
葦
葫
葵
蒙
蒭
蒲
蒼
蒿
蓀
蓑
蓝
蓮
蔡
蔭
蔵
蕃
蕉
蕨
蕩
蕭
薇
薊
薔
薙
薛
薩
薫
薯
藍
藏
藕
藝
藤
藥
藩
藻
蘄
蘅
蘇
蘑
蘭
虎
虐
虔
處
虚
虛
號
虫
虹
蛇
蛍
蛙
蛭
蜃
蜡
蝉
蝕
蝶
融
螺
蟲
蠕
蠻
血
衆
行
術
街
衙
衛
衝
衡
衢
衣
补
表
袁
袈
袖
被
裁
裂
装
裏
裔
裕
補
裟
裳
裸
製
褒
襄
襟
襲
西
要
覇
見
規
視
覚
親
観
覺
觀
观
角
解
触
觳
言
計
記
設
許
訳
証
詔
詞
詠
試
詩
話
誌
誐
誒
誓
誕
誘
語
誠
誡
誦
說
説
読
誰
課
調
談
論
諭
諷
諸
謀
謁
謎
謙
講
謝
謡
識
譚
譜
警
議
護
讀
變
讐
讓
计
让
议
许
论
讼
诉
词
诗
诚
话
语
诶
请
诺
读
课
谁
谦
谭
谷
豆
豊
豌
豐
豚
象
豪
豫
豬
豹
貓
貝
貞
負
財
貫
貴
費
賀
資
賈
賊
賓
賞
賢
賦
質
購
贝
贞
财
贤
质
贵
贺
贼
资
赤
赭
走
赵
起
超
越
趙
足
跆
跑
跖
跟
跡
路
跳
踊
踏
踢
蹴
身
車
軌
軍
軒
転
軽
載
輔
輛
輝
輪
輿
轉
车
轩
转
辆
辉
辛
辣
辭
辯
辰
農
边
辺
辽
达
辿
迄
迅
过
迈
运
近
返
这
进
远
迦
迪
述
迷
追
送
适
逆
选
這
通
造
逢
連
逯
週
進
遁
遇
遊
運
遍
過
道
達
遗
遙
遜
遠
遥
遮
選
遺
遼
避
邁
還
邊
邑
邓
那
邦
邪
邱
郁
郊
郎
郑
郛
郝
郡
部
郭
郷
都
鄧
鄭
酈
酉
酒
酔
酥
酱
酷
酸
醋
醒
醫
采
釈
釋
里
重
野
量
金
釗
釣
鈍
鈴
鉄
鉢
鉦
鉱
鉴
銀
銃
銅
銓
銖
銘
銳
鋒
鋪
鋼
錄
錡
錦
錬
録
鍋
鍵
鎖
鎧
鎮
鏡
鐘
鐵
鐸
鑒
钊
钢
钦
钱
铁
铎
铜
铭
铺
锡
键
镇
镗
镜
長
长
門
閃
開
閏
閒
間
関
閣
閨
闇
闍
闕
闘
關
门
问
闯
阁
阪
防
阳
阿
陀
附
际
陈
降
限
陛
院
陣
除
陪
陳
陵
陶
陸
険
陽
隆
隊
階
隔
隗
隠
隣
隱
隴
隸
隻
隼
雀
雁
雄
雅
集
雇
雉
雎
雕
雙
雛
雜
雞
離
難
雨
雪
雲
雳
零
雷
電
雾
需
霆
震
霊
霍
霖
霜
霞
霧
霰
露
霸
霹
靂
靈
青
靖
静
非
靠
面
革
靴
靼
鞋
鞍
鞠
韃
韋
韓
韦
韩
韭
音
韶
響
頃
項
順
須
頌
領
頭
顆
題
額
顏
顔
願
顯
项
顾
颂
颊
颖
颗
颜
風
颪
颱
飄
风
飛
飞
食
飯
飾
餅
養
餓
館
饼
馆
馒
首
香
馬
馮
駆
駐
駒
駙
駢
駿
騎
騒
験
騭
騰
騷
驁
驚
驤
马
驰
骨
骸
髀
高
髪
鬘
鬥
鬪
鬼
魂
魄
魔
魚
魯
鮑
鮫
鮮
鯖
鯵
鰐
鱀
鱼
鲁
鲤
鳥
鳩
鳳
鳴
鳶
鴉
鴣
鴨
鴻
鵡
鵩
鵬
鶍
鶴
鷓
鷹
鷺
鸚
鸟
鸡
鸭
鸿
鹅
鹹
鹼
鹽
鹿
麗
麥
麵
麻
麼
麾
黃
黄
黎
黑
黒
黙
黛
黨
鼉
鼎
鼓
鼠
鼻
齉
齊
齋
齐
龍
龙
ꜛ
ꜜ
ꜣ
ꜩ
ꜫ
ꜭ
ꞅ
ꞎ
Ʞ
ꞵ
ꦂ
ꦠ
ꦯ
ꦲ
ꦸ
ꭓ
가
간
강
개
거
건
경
계
고
공
관
광
구
국
권
귀
그
극
근
글
금
급
기
김
꺼
껐
나
날
남
났
내
너
네
념
노
놔
눈
늬
다
단
대
더
도
독
돌
동
디
딱
라
람
래
런
렌
려
렬
로
록
론
루
류
르
를
리
립
마
막
만
말
명
목
무
문
물
미
민
믿
바
박
방
백
뱅
버
범
법
별
병
보
복
봐
부
불
붉
빅
빙
빤
뿐
사
산
살
삼
삿
상
새
색
서
성
센
소
쇼
수
순
술
숫
스
시
식
신
실
쌤
아
안
알
암
앙
애
앤
야
양
어
에
엔
연
영
예
오
온
왜
용
운
울
원
위
유
은
을
음
의
이
인
일
자
장
재
적
전
점
정
제
조
종
좋
주
줄
중
지
진
집
짓
징
차
천
청
체
쳐
초
춘
충
치
커
코
킨
타
태
터
퇴
투
트
특
파
판
퍼
평
표
풍
피
하
학
한
합
해
행
향
허
헬
호
혹
홀
화
회
후
희
ﬀ
ﬁ
ﬂ
ﮭ
ﮮ
ﷲ
ﷺ
️
︠
︡
ﺒ
ﻉ
ﻋ
ﻔ
ﻴ
！
％
＆
（
）
，
－
／
１
２
３
４
６
：
＜
＝
＞
？
Ａ
Ｃ
Ｄ
Ｇ
Ｉ
Ｊ
Ｌ
Ｍ
Ｐ
Ｒ
Ｘ
［
］
｜
～
｢
｣
･
ｰ
￥
𐀁
𐀈
𐀫
𐎠
𐎢
𐎭
𐎰
𐎹
𐎺
𐎼
𐏁
𐭃
𐭉
𐭓
𐭕
𒀯
𒀳
𝕄
𝕡
🖕
##u
##n
##t
##a
##e
##l
##o
##w
##s
##h
##i
##p
##r
##m
##E
##O
##W
##d
##c
##y
##z
##b
##g
##f
##M
##A
##N
##D
##v
##P
##F
##6
##1
##7
##2
##đ
##4
##k
##j
##ć
##0
##č
##リ
##ー
##プ
##T
##3
##V
##é
##ő
##9
##5
##x
##è
##H
##C
##q
##à
##ü
##B
##J
##ā
##R
##ö
##م
##ي
##س
##U
##K
##ș
##ō
##8
##G
##þ
##S
##Y
##X
##ε
##ο
##λ
##ό
##γ
##ς
##ó
##ா
##ழ
##ç
##ū
##L
##ː
##ə
##ʒ
##ă
##ɛ
##ş
##ı
##ʃ
##ɪ
##ɒ
##ë
##β
##ρ
##ι
##â
##ź
##ʀ
##ὸ
##ð
##á
##п
##о
##с
##т
##л
##в
##َ
##ن
##ُ
##و
##æ
##а
##д
##I
##ύ
##α
##ν
##ʿ
##և
##イ
##ナ
##ミ
##ッ
##ク
##っ
##た
##ひ
##と
##り
##の
##å
##म
##ा
##त
##ृ
##क
##ṣ
##Z
##ム
##い
##ら
##な
##ɡ
##ʲ
##ä
##ա
##յ
##ս
##տ
##ն
##ի
##ì
##ァ
##ル
##フ
##ン
##タ
##ジ
##ṇ
##í
##ł
##τ
##υ
##ω
##ñ
##û
##ą
##œ
##ถ
##ว
##เ
##ต
##お
##ī
##ã
##ط
##ɔ
##ˈ
##ʷ
##е
##у
##ш
##к
##и
##н
##ǎ
##ē
##ί
##ὺ
##σ
##ち
##ご
##そ
##う
##ど
##に
##さ
##ん
##ḏ
##ḥ
##ń
##ч
##ø
##ữ
##ɾ
##ˠ
##р
##ⁿ
##ṛ
##ṭ
##ャ
##ピ
##グ
##ラ
##シ
##ュ
##ś
##ʌ
##Q
##ز
##ة
##ù
##گ
##ῦ
##χ
##ヴ
##ェ
##ト
##ú
##𐀁
##𐀫
##ᵻ
##ɽ
##ะ
##ภ
##า
##แ
##ก
##ř
##ů
##ベ
##ξ
##г
##б
##ę
##で
##ა
##ɣ
##ר
##ו
##ג
##מ
##י
##š
##ʔ
##ɑ
##ウ
##ス
##ấ
##く
##カ
##ド
##ʰ
##º
##ɨ
##ि
##δ
##ர
##ச
##ு
##エ
##ズ
##ž
##ា
##ស
##ខ
##ֹ
##ה
##ֶ
##ל
##ħ
##ß
##μ
##φ
##ğ
##ば
##ʊ
##ˀ
##і
##ь
##й
##ק
##ד
##ש
##ォ
##ア
##ﬁ
##ô
##հ
##պ
##ր
##ե
##κ
##ê
##コ
##ニ
##テ
##ィ
##ブ
##ŏ
##ם
##ဟ
##ာ
##ပ
##ိ
##န
##ل
##ع
##ɖ
##ʼ
##ɕ
##ᵝ
##방
##울
##ो
##स
##θ
##ŋ
##ј
##ὔ
##ノ
##ユ
##デ
##チ
##ョ
##կ
##ִ
##ָ
##ּ
##ׁ
##ղ
##փ
##ո
##խ
##რ
##ნ
##ვ
##ზ
##ი
##ا
##ت
##غ
##η
##ъ
##ė
##ˤ
##キ
##ʁ
##ű
##マ
##ܒ
##ヤ
##バ
##ツ
##ु
##र
##ङ
##प
##ț
##ư
##ớ
##м
##į
##π
##이
##돌
##め
##だ
##け
##ロ
##ネ
##サ
##ダ
##メ
##ر
##ร
##ม
##ห
##ณ
##ฑ
##ี
##ย
##ְ
##א
##ת
##ذ
##ζ
##ケ
##ᒡ
##ᓘ
##ᑲ
##भ
##ï
##ヒ
##パ
##レ
##ά
##ב
##ज
##ֲ
##ò
##Β
##Φ
##ὖ
##ῖ
##ب
##ý
##É
##ή
##Λ
##Η
##Ν
##ж
##մ
##ц
##х
##ส
##ิ
##ท
##ช
##อ
##ุ
##ป
##บ
##ั
##ʙ
##モ
##վ
##ը
##ǐ
##ण
##ه
##こ
##ظ
##ỏ
##э
##ج
##ṅ
##ờ
##ق
##ܠ
##ܝ
##ܐ
##ě
##Ο
##Ι
##Σ
##ḍ
##ハ
##ʾ
##ᡝ
##ᡨ
##ᡵ
##ż
##ф
##њ
##ს
##ტ
##ჱ
##よ
##я
##ʻ
##î
##з
##ַ
##ู
##ศ
##ด
##ガ
##ŭ
##ी
##घ
##व
##च
##ह
##ơ
##ិ
##ន
##ǔ
##ƿ
##ĭ
##ゼ
##ṯ
##ไ
##ล
##산
##ţ
##ộ
##є
##İ
##ջ
##ე
##ფ
##ѡ
##ˌ
##オ
##ɐ
##ў
##љ
##ی
##ゆ
##ី
##έ
##つ
##ῆ
##լ
##ɻ
##ἰ
##ʑ
##С
##Р
##Б
##Ω
##ľ
##գ
##ल
##ѝ
##ɮ
##ै
##И
##К
##Š
##き
##る
##ض
##न
##Ā
##ю
##ं
##ग
##ώ
##ɜ
##식
##회
##사
##Д
##ὴ
##د
##ծ
##ւ
##թ
##Ĕ
##פ
##נ
##ὰ
##ِ
##ّ
##ง
##ص
##ở
##င
##ז
##ן
##כ
##ɤ
##ћ
##ؤ
##ὲ
##ゲ
##ி
##ன
##ま
##ṃ
##ņ
##ヨ
##צ
##ע
##ἲ
##ូ
##ណ
##ង
##ى
##ใ
##ែ
##ម
##យ
##ف
##ψ
##ы
##Π
##Τ
##Α
##せ
##น
##ษ
##მ
##ǒ
##し
##ử
##ɳ
##ʏ
##े
##れ
##も
##ܕ
##ܡ
##ܘ
##ܪ
##ܬ
##Ψ
##ϊ
##ش
##ك
##ៃ
##ŵ
##ĕ
##ワ
##ح
##ぜ
##ビ
##ɲ
##ძ
##ṟ
##ё
##ȝ
##ļ
##ष
##द
##ヂ
##ぃ
##ġ
##ֵ
##த
##ৰ
##ণ
##ᾶ
##ื
##ῶ
##ბ
##თ
##ץ
##て
##ḻ
##ǝ
##Κ
##Ǝ
##か
##ぶ
##ब
##む
##ⵉ
##է
##ლ
##ố
##ὑ
##ソ
##ុ
##ព
##ừ
##ť
##õ
##じ
##थ
##Θ
##ゴ
##չ
##ᛁ
##ų
##ぐ
##ʂ
##Υ
##Δ
##ị
##ռ
##य
##ֱ
##へ
##セ
##え
##ボ
##ї
##ٔ
##श
##ธ
##삿
##줄
##다
##리
##기
##ゥ
##ค
##ʋ
##ギ
##२
##한
##민
##국
##ြ
##ड
##은
##노
##을
##ǹ
##ǚ
##Ε
##Ô
##ʳ
##ʕ
##จ
##ཁ
##འ
##Ѣ
##Н
##ू
##ट
##ኢ
##ት
##ዮ
##ጵ
##ያ
##ন
##া
##থ
##Ｘ
##ず
##ế
##ರ
##ে
##ֽ
##ɯ
##は
##자
##학
##ザ
##ゃ
##ろ
##ệ
##ǣ
##ث
##ئ
##ὐ
##မ
##ု
##ဘ
##ရ
##း
##က
##ီ
##ꦸ
##ꦲ
##ꦂ
##ꦠ
##Ă
##ʎ
##み
##ல
##ར
##Ü
##ふ
##Ö
##ہ
##ء
##ヘ
##ხ
##ჳ
##أ
##ḷ
##ձ
##ք
##げ
##あ
##ぼ
##ǫ
##ぺ
##ੇ
##ਵ
##շ
##ց
##ទ
##េ
##Ş
##ங
##ⵣ
##ⴻ
##ⵔ
##ⴼ
##ⴰ
##ⵏ
##ϑ
##ὡ
##ạ
##ɫ
##բ
##ň
##А
##З
##І
##М
##У
##ṓ
##ס
##Ρ
##や
##び
##ἳ
##ಶ
##삼
##성
##동
##차
##դ
##미
##ˑ
##ĩ
##す
##ǵ
##ம
##ẓ
##ἶ
##Е
##О
##Й
##혹
##의
##뱅
##ḑ
##ポ
##ผ
##ฟ
##إ
##ẻ
##ಲ
##ौ
##ॊ
##ầ
##ซ
##ข
##해
##พ
##ÿ
##ǧ
##고
##려
##Μ
##ᶴ
##ˣ
##خ
##살
##ʐ
##ח
##བ
##ྲ
##ུ
##ག
##ং
##ক
##ụ
##ぅ
##ゅ
##ắ
##ำ
##ט
##រ
##ភ
##ឹ
##ក
##ដ
##ୁ
##ର
##ୀ
##ध
##ជ
##ធ
##ប
##ត
##ᵿ
##โ
##ฆ
##ἴ
##ך
##ֻ
##ူ
##စ
##လ
##ợ
##ಡ
##ũ
##간
##문
##화
##재
##ʉ
##ぱ
##ಾ
##ಂ
##ತ
##Æ
##ⴽ
##ṳ
##უ
##ు
##ం
##డ
##మ
##ฬ
##ய
##П
##ὶ
##ⵎ
##ⵓ
##ⵛ
##ự
##ḩ
##ɵ
##ồ
##ϕ
##ɦ
##が
##Ë
##ᶷ
##ả
##ȟ
##ヅ
##양
##Л
##Я
##ⵃ
##ⵡ
##ⵕ
##ܢ
##ច
##ៅ
##វ
##ホ
##ѣ
##ܣ
##ゾ
##ょ
##Γ
##ল
##ব
##ৈ
##শ
##খ
##ী
##ʹ
##ỳ
##ү
##ᾳ
##ڠ
##ञ
##ख
##ூ
##ׂ
##ﬂ
##ŗ
##Ú
##ぽ
##დ
##ญ
##ἵ
##ṝ
##კ
##ო
##ः
##ɺ
##ⴳ
##ⵜ
##ɥ
##ѧ
##Č
##연
##ƀ
##ے
##Ѡ
##Ъ
##ဲ
##ペ
##ാ
##ര
##ങ
##ɟ
##ʈ
##ত
##щ
##만
##바
##라
##봐
##ŷ
##ھ
##ứ
##ʝ
##ḱ
##ڬ
##ổ
##𐎠
##𐎼
##𐎹
##𐎢
##𐏁
##ƒ
##ḳ
##ܚ
##ப
##զ
##ึ
##வ
##ἱ
##ੱ
##ਲ
##ਾ
##ਹ
##ף
##Ы
##ﮭ
##ﻔ
##ċ
##ȳ
##ْ
##پ
##የ
##ር
##ɬ
##남
##ϟ
##ை
##Ш
##Ī
##ḕ
##ぷ
##ⵙ
##ʱ
##Ō
##ద
##ֿ
##Ζ
##ề
##ẹ
##음
##２
##ེ
##ऽ
##қ
##ល
##ួ
##ি
##ম
##ು
##ಕ
##Ⅱ
##ჯ
##ំ
##Ц
##ោ
##ோ
##В
##복
##ṁ
##ಸ
##Χ
##ọ
##ះ
##ហ
##ಿ
##ಠ
##ಗ
##ಟ
##わ
##ማ
##ረ
##ḫ
##ỹ
##ぎ
##ˢ
##ⵍ
##ⵢ
##ឫ
##ﬀ
##태
##권
##도
##를
##용
##க
##점
##ཛ
##ི
##ན
##인
##ἥ
##হ
##내
##آ
##초
##에
##ా
##ష
##ደ
##አ
##ὼ
##ṉ
##を
##ੁ
##প
##ু
##র
##평
##전
##투
##ậ
##짓
##말
##వ
##ల
##ర
##ి
##ܗ
##ᛠ
##ᚷ
##ᚾ
##ᚩ
##ᚦ
##상
##장
##ਿ
##ੰ
##ਘ
##ៀ
##ថ
##ഹ
##ǂ
##വ
##ി
##ശ
##ሰ
##앙
##구
##소
##პ
##ள
##ỉ
##ね
##Á
##გ
##ˁ
##ً
##６
##ῇ
##ළ
##ි
##ය
##극
##ँ
##ک
##µ
##Ь
##ई
##Ｒ
##Ｐ
##Ｇ
##ো
##ঙ
##ฐ
##예
##술
##론
##ே
##ぇ
##ៈ
##Յ
##Դ
##ভ
##ূ
##ქ
##체
##불
##명
##순
##গ
##Ž
##ⵖ
##ண
##Ј
##계
##ễ
##허
##그
##ಮ
##ೇ
##물
##뿐
##ủ
##ῳ
##ķ
##წ
##색
##시
##ᛞ
##ᛚ
##ᛗ
##ದ
##ٍ
##ざ
##फ
##ە
##න
##ු
##ර
##ා
##ධ
##ප
##គ
##ܼ
##ಭ
##ང
##ཙ
##Ø
##ں
##Э
##ђ
##ῷ
##ʽ
##ම
##Ф
##ĺ
##چ
##ჲ
##네
##ժ
##జ
##ฤ
##Ξ
##ठ
##እ
##ስ
##ც
##Т
##ď
##ằ
##ॆ
##ֳ
##ể
##천
##ฎ
##Ä
##য
##ṽ
##ⴷ
##හ
##इ
##ṙ
##렌
##ျ
##ና
##ይ
##ᠠ
##ᠨ
##ᠵ
##ᡠ
##ᠰ
##ᡳ
##보
##ᠣ
##ᠯ
##ẽ
##ট
##ѹ
##ὣ
##छ
##ḗ
##ɹ
##유
##ོ
##ᶦ
##백
##실
##야
##놔
##Ē
##지
##ྤ
##ള
##Ꭶ
##Ꭸ
##Ᏹ
##ॉ
##ǽ
##람
##났
##어
##판
##Ａ
##ῑ
##భ
##ై
##ḵ
##ྥ
##ᾷ
##𒀳
##진
##호
##늬
##오
##징
##ឯ
##ో
##బ
##ḹ
##ٌ
##ဝ
##ယ
##ẩ
##ೋ
##ಬ
##행
##ྣ
##ฮ
##부
##대
##օ
##루
##하
##ሐ
##ዘ
##በ
##ฉ
##ὕ
##경
##관
##ỵ
##ለ
##ས
##ྱ
##아
##주
##타
##일
##날
##ᠴ
##ฏ
##ਸ
##ෝ
##ව
##ල
##Ꮃ
##Ꮀ
##Ꮉ
##수
##ই
##ɸ
##ɚ
##ぉ
##신
##광
##３
##ΐ
##È
##스
##글
##빙
##দ
##ನ
##Ｃ
##Ｄ
##ැ
##ほ
##ɞ
##ⵇ
##건
##ヶ
##Ά
##ᾰ
##ῐ
##ὗ
##ĉ
##Î
##ぴ
##ĵ
##ɴ
##ỗ
##ከ
##ነ
##ీ
##న
##ှ
##나
##Í
##커
##버
##Г
##ᛟ
##ᚨ
##ᚱ
##ฝ
##ɰ
##ᡥ
##Œ
##가
##쇼
##Ě
##ɓ
##목
##적
##법
##Ħ
##Ꮝ
##Ꮿ
##ྟ
##ᚢ
##ᛏ
##ᚹ
##ۍ
##ን
##ገ
##ድ
##ҷ
##ӣ
##ヌ
##Ї
##ῠ
##ặ
##퇴
##ষ
##Ｉ
##Ó
##ሀ
##ṵ
##ḭ
##ኲ
##ɭ
##ٰ
##풍
##ལ
##ģ
##٧
##ܔ
##앤
##파
##Đ
##づ
##Ċ
##ឪ
##코
##ദ
##Ḥ
##Х
##ਂ
##ਝ
##집
##무
##트
##홀
##희
##ȯ
##ஸ
##ぬ
##ᡴ
##ᠪ
##ብ
##ـ
##ɢ
##Є
##Ѯ
##범
##막
##𐭉
##𐭓
##𐭃
##𐭕
##గ
##Ս
##Հ
##표
##록
##ᵀ
##정
##స
##ө
##ਜ
##종
##합
##운
##ȷ
##너
##피
##Ｌ
##ǜ
##래
##ᛇ
##ᛋ
##ᚻ
##ྡ
##མ
##𐎺
##ぞ
##개
##센
##터
##ሥ
##ሓ
##ெ
##ட
##Â
##킨
##ﮮ
##ⲩ
##ⲥ
##ⲧ
##ⲁ
##ⲱ
##ⲛ
##청
##ẖ
##ｰ
##쳐
##서
##ճ
##ા
##ર
##ો
##ખ
##ǰ
##സ
##엔
##념
##공
##원
##ǭ
##ේ
##ශ
##로
##퍼
##런
##Å
##લ
##સ
##ሕ
##ዛ
##ዕ
##ቆ
##ἷ
##ᵊ
##Ś
##ఠ
##ீ
##독
##립
##병
##ታ
##ቲ
##ኖ
##ܲ
##ܵ
##ყ
##ꜜ
##ɘ
##ẫ
##ந
##Ḣ
##ſ
##근
##𐎰
##ẵ
##త
##স
##ජ
##ཡ
##შ
##빤
##렬
##ѥ
##థ
##위
##단
##१
##향
##he
the
##er
##in
##on
##ed
##nd
##or
##at
##es
##ar
##en
of
##an
##al
in
##ing
##it
##as
##is
and
to
##ic
##ou
##ion
##re
##om
##il
##el
##ec
##ent
th
##st
##am
##et
##ro
##ad
##ac
was
##ur
##ol
on
The
##le
##ly
##ir
for
##id
##ter
##iv
##ig
##ot
as
##ut
##ow
##im
##ith
##ay
##em
st
##ation
with
be
that
##ers
wh
re
##ts
##us
by
##ch
##ce
##th
al
##ver
is
con
##ul
at
##os
##and
##ain
19
an
##her
fr
##ag
##av
##um
##est
his
##od
##ess
##ct
he
from
##ri
com
##un
20
##ap
pro
##op
##ere
##ill
##ew
##ist
su
##igh
In
##ear
##ies
##ect
##ber
##ld
##ard
de
##if
##all
##ak
##ich
were
##oc
##ate
##ab
##pp
it
se
ex
##ong
##art
##ud
##ort
ch
or
##gh
##ated
pl
sh
##ity
##se
##ive
##ame
##ore
##ant
had
##our
##ack
St
##rou
##ip
which
##ast
##ge
##ov
##ian
pr
are
##ment
##ell
##ial
not
##ost
sp
##nt
tr
##qu
##ia
##ord
##ust
##ary
##pt
##ther
##ine
##rit
le
##ical
##ave
rec
Ch
##ight
##pl
##ie
200
##out
##cc
inc
##fter
##ould
but
fir
##ish
##ous
##ions
##ff
int
cont
ar
whe
##so
##ure
her
##og
##ue
first
##ub
cl
##wo
##per
its
##ass
their
##ign
##ok
##ork
##orm
res
##ru
##ra
##oll
##ome
##ater
en
also
ab
##00
##ond
ad
##age
##ide
##ry
He
##mer
##hed
##ire
rel
##ans
##ime
per
un
Th
one
have
sc
##du
##end
##ally
##ence
##own
##ound
18
##ile
##ance
two
##ition
##ough
who
##iz
##ree
##uring
Al
been
bec
has
ag
##ely
app
##pr
201
all
dis
##act
ser
this
##lud
##ory
##ey
##ice
year
##ations
##ember
##ach
off
##ark
after
part
comp
It
play
des
over
##ace
##land
out
they
att
##ade
##ik
##eas
##ric
other
##ib
man
##ult
##ens
im
includ
##over
##ail
##ced
##ee
##urn
##wn
would
us
up
##ind
##ang
time
##man
into
pre
##ount
##oin
##ward
him
##ite
##oy
On
Un
##ates
she
##een
ev
##ng
##ilm
##able
##ited
##nder
##amp
##ever
##ied
##ction
comm
##ors
inter
##ose
##ents
##ons
##rough
##les
##ood
##aw
##ces
more
work
Ar
##old
##ock
Fr
##form
##ings
##one
##vel
##ick
##etw
##ild
new
##eat
sec
##ft
when
##inal
film
cons
##fer
##ious
##way
##ake
Mar
##iss
##aus
##att
##reat
##round
##eg
##rop
rem
##ict
##rib
##ved
##ob
##ss
dec
car
##gan
te
##ual
during
##orth
again
##port
##ubl
most
game
fl
char
##eld
##oth
them
199
##hip
only
##ason
##ix
ear
##etween
##ollow
than
##ered
##ep
##ational
##ev
New
about
produ
cent
##tern
ret
kn
##ug
song
can
##fore
##outh
between
later
##ted
under
##orn
##ters
##eb
three
##hn
##ank
##ook
##iew
##aid
##ath
through
##orld
releas
num
acc
while
end
##meric
Americ
act
##ral
pos
##ex
sub
##ph
so
##ular
ass
where
bu
day
reg
form
second
##ener
Com
##oun
made
##ames
##ision
##ived
##te
##ve
record
def
ac
##red
000
##bum
four
##als
follow
##ton
##ating
season
##ool
bas
ep
am
##son
some
such
ind
pe
##ished
mov
##ept
before
##ained
##hes
mus
there
writ
mon
As
##ics
Jo
spec
10
##io
sy
years
team
##ode
##ike
At
##ont
This
Sh
lar
##ning
gr
album
##ected
Sp
Pr
##ily
##owever
bl
el
used
call
supp
sur
##ific
##ery
##hen
high
##ury
publ
##ection
being
epis
##anc
##ll
then
##aj
##air
An
##velop
inv
do
me
loc
br
17
against
##other
##ement
qu
##au
##ten
##ife
pres
##ower
number
After
charac
sever
show
co
add
set
##ane
##ince
became
we
air
Brit
##ause
lead
perform
no
including
sing
##ron
##ines
found
United
##erm
well
Sc
back
##gr
##ale
##ised
both
pol
15
cap
198
series
12
##ier
str
rev
##ise
##ober
war
##uc
##its
Br
Wh
##pen
##ures
##itt
She
appear
##fl
##ivers
main
##are
194
min
##iet
dr
##overn
did
##oad
##ann
##ole
##az
##led
go
##olog
War
develop
Le
##roup
met
##elf
##ities
Eng
##ert
long
##any
##ross
em
##ird
mill
John
##ful
ship
episode
##ley
mat
##ield
dire
ext
said
stud
cre
##uch
Cl
many
bro
##ative
16
rece
could
##ash
orig
contin
several
American
##iver
##though
Ind
dif
##ase
##eng
##ah
##ather
inst
##ouse
pop
##emb
##sp
##oot
known
197
##der
##ins
11
##ually
196
Aust
conc
par
##eed
##up
feat
##iam
##ident
##erson
##ks
ob
##ued
sm
return
any
began
##hy
##row
prov
design
unt
near
compl
desc
sign
Bl
##chool
##ism
##ople
est
##ange
##aking
exp
trans
##0s
##ccess
##my
##ty
##ern
run
early
##ets
art
##enn
##ized
dist
music
own
you
released
##ided
until
called
eff
##imes
##rap
US
##ull
Con
bel
##els
##ists
resp
pass
##stem
##ured
For
##ars
fin
##une
##ially
May
##ution
prev
disc
crit
col
##osed
gener
##ium
direct
sl
along
Car
million
Ger
##ax
British
Tr
offic
group
13
fam
##ession
##ajor
these
mod
imp
may
##und
Ad
open
mil
poin
##ains
land
count
sim
hist
##ments
##ently
Aug
govern
Sept
success
September
August
##amed
##ues
World
States
##ible
oper
down
attack
use
same
##wards
describ
All
people
batt
##aced
character
because
##yp
serv
##aining
14
##cept
like
##ired
arr
Ju
##ven
Is
##ended
Col
Pl
##ner
around
dep
though
##aving
195
win
gu
km
const
took
occ
##erv
##ting
Austral
Oct
##por
German
ann
Gr
##ruct
id
Nov
wee
##ove
following
six
north
193
However
system
Pro
##uss
##gg
adv
final
class
received
October
##ects
head
##ives
prom
consid
##ility
complet
##ically
support
Dec
191
ever
state
##ink
each
##ison
##res
##ret
##raft
five
aut
build
York
century
var
will
area
They
##ina
##ately
##ox
small
##oss
partic
North
##iving
##ored
start
By
##ject
June
##ians
##ording
Chr
life
mar
Har
Jan
##inc
city
##sc
##ene
contro
major
King
public
July
##ission
band
vers
November
coll
##med
##omet
Can
##urch
Comm
##ble
Will
##cl
##ute
ent
world
med
since
##ean
single
Apr
rest
##oard
April
Mc
det
##lish
fe
March
##uary
just
result
red
##enc
##ural
##hest
Ed
##ried
##aim
##gin
##ively
differ
hel
30
allow
##ilt
##ants
Or
turn
##ext
last
##idge
left
##ague
##get
large
line
##ales
South
south
Bro
Ge
During
##ified
##ke
book
school
##avy
25
December
third
Ph
incre
##par
month
##ined
due
appro
Re
played
much
event
if
##rote
another
care
192
##ention
January
included
##ench
what
##by
##ograp
based
place
II
##aged
##ient
##ony
##ped
ph
Eu
expl
government
##side
person
##ling
wrote
Fl
When
track
cr
##apan
camp
tit
old
bre
##alf
##ott
name
##ages
death
prot
report
short
##ience
Japan
won
child
larg
kill
story
##ideo
power
##ody
##oman
review
vis
##ital
home
conv
##ats
led
Be
##ps
described
requ
previous
##ides
cour
family
gun
El
progr
De
##tain
way
eng
##urr
named
##urther
Mus
now
dem
##ister
del
Gu
rep
##iven
##ilar
men
even
make
##omin
##embers
##reen
##ress
port
##iod
##iversity
attem
##oute
##aff
##ested
100
##ior
##itions
repl
##ivision
opp
leg
games
##ached
term
command
hand
##ival
poss
And
belie
dam
very
##ren
His
##ne
those
best
Par
##ged
Feb
Europ
##ract
##mp
ele
Febru
February
iss
organ
still
po
top
next
species
Christ
sk
##ences
view
##hor
There
##ances
##aken
National
##akes
##oci
original
ed
Bar
##oyal
water
addition
join
##ness
Man
infl
list
##ature
##sh
period
within
##rew
Am
##ented
members
mark
ref
deb
held
built
French
exper
release
##yl
##ched
##augh
Char
late
although
former
##oon
match
great
##ney
dest
sold
2010
##ech
21
conf
##ared
av
video
caus
##ights
storm
West
##af
##omb
init
role
##ropical
tri
William
##ipp
##hel
##eal
came
estab
tw
days
mid
##ulation
Her
stand
Air
real
polit
##uted
##ham
##ead
##ple
my
however
Min
##itary
##aster
2008
24
##ices
prop
##line
2009
##ased
##atic
few
town
wind
Geor
##ung
side
##ball
continued
often
equ
post
Des
Ear
tel
local
##eter
2011
##ator
repr
among
say
similar
##ruction
Mich
sw
hum
##omen
claim
##urs
##estern
No
##alk
##pite
##elt
England
##ying
##orts
##gy
##read
##reet
different
further
22
##ense
##ops
Rec
beh
##ology
##ese
typ
sent
Dav
level
fre
##na
considered
take
law
One
tot
2007
career
##app
week
production
Ex
##press
##lex
ant
cover
##ards
Park
half
##ler
City
having
##ampions
##ves
##arm
##con
Acc
Ang
English
##ea
mag
cor
road
east
moved
##ittle
enter
every
without
west
Although
##rodu
Cal
Cent
plan
player
2012
position
become
##ones
history
version
##ford
23
##ondon
see
Count
elect
influ
arm
##ize
London
house
star
sound
Su
##yle
commun
Batt
##ck
club
sugg
##ests
cast
##atter
strong
invol
Sw
##self
##uck
##eder
written
attempt
tem
190
With
You
stat
less
##etter
announ
##me
River
##ai
foot
##ington
##iqu
##irc
##ising
order
##ript
refer
##ape
##isc
##iety
##ald
##craft
Canad
aff
prof
point
##sequ
produc
given
rad
low
trad
##int
hig
##aul
want
Gener
University
gave
Pol
##iend
pat
never
While
##ailed
chang
##ories
returned
soc
##ration
Dr
##aly
##ett
comb
repres
##urric
vict
total
##ches
fact
##ots
High
good
##roy
En
##aun
control
##amb
company
country
went
capt
friend
##ours
fire
import
##ges
published
##evision
Ab
Sm
produced
##ably
find
sol
reported
origin
young
2006
lost
stated
##aign
common
program
particular
ord
Co
##echn
Sy
##aur
adm
##ency
include
According
##oom
##hing
##aised
compet
recorded
##eth
##iter
##ief
##ama
building
press
##vers
27
need
bus
forces
28
##raw
##cess
nort
ships
should
50
using
##used
eight
gl
performance
##iment
##iness
popular
service
##ength
father
##ploy
These
times
##ef
making
##ned
ten
aircraft
himself
fun
##osp
2013
author
##atch
military
##lear
Australia
right
Sec
##earch
anim
Ass
##let
##ampionship
Jack
lim
##ae
songs
somet
read
##outher
##ither
Pres
##play
critic
##ensive
##ords
surv
development
##ional
26
how
Af
General
Cor
40
##itive
inf
##quad
State
cross
##outhern
James
189
ground
##acy
ins
ft
light
Gl
remained
##astern
characters
Army
national
months
suff
present
get
gen
ne
died
##oo
##ries
ter
##ublic
developed
title
sum
bar
##fic
##ille
##ument
campaign
##ream
##urricane
##ering
force
##utes
League
##ael
##alt
children
field
introdu
trav
tour
##itted
##isted
##field
son
##lands
signific
##eep
across
Mor
away
##hern
relations
Reg
##dom
histor
##yn
official
Division
We
fav
felt
effect
America
##ope
Comp
##lege
Sim
noted
fac
##rick
announced
reached
Russ
intern
promot
Mad
che
created
County
areas
destroy
battle
##ows
television
2005
Road
Japanese
Em
sit
station
successful
rock
29
##imately
val
super
various
political
Street
seen
followed
##ements
##iber
##duc
Mon
##iting
too
enc
rank
aver
performed
front
Rober
cult
##ization
East
##most
served
2014
players
George
cond
full
##reg
prim
decl
##elling
black
##ination
begin
put
Ser
earl
obs
##olution
Per
##abor
##ays
cost
##idence
Phil
Hen
style
non
bo
cy
div
look
circ
vol
seven
aud
##ana
killed
sel
help
##lished
night
Bill
throughout
coun
taken
##urg
tropical
able
##enth
agre
##ecut
little
becom
fem
age
significant
meet
Sch
Thom
ident
##irl
##ways
techn
special
cop
##ius
##oice
writing
struct
##leet
thought
established
broad
body
##enced
mm
David
##aval
appeared
process
does
ball
entire
Australian
##epend
##rict
points
miles
award
##ought
impro
Rich
route
member
##odes
Med
##ask
tro
##umb
women
activ
range
##blem
##ivil
Qu
caused
##hys
##iers
started
decided
features
general
My
Afric
##day
pain
Part
##aves
##idd
eventually
##ators
##ament
##iec
##cil
##conom
##ground
##cent
##ogn
##eated
Royal
arch
race
##emy
##itar
coast
Act
To
grow
##here
manag
feet
ve
Hist
##board
toget
together
added
House
tre
##alth
cut
##bert
hold
nov
188
##ivid
##arr
31
white
once
##ample
arg
formed
##men
located
stri
##reek
conn
modern
curr
Black
##ades
##off
instead
##ush
spe
##head
fight
##rought
##omm
cert
##aces
round
esc
Hol
mix
##hic
Intern
Rep
important
pri
##uk
crew
saw
##less
##ani
action
completed
##eam
playing
Cr
Indian
##ells
Other
##ara
##ata
2004
hon
##ring
inj
insp
##pression
mater
population
mot
Michael
voc
ask
rather
opened
stage
##aps
behind
others
186
fall
cas
guns
##ceed
brother
##ger
##igned
comment
lik
##wood
born
##stit
##lin
fif
2015
site
live
works
##rated
bomb
loss
France
worked
##ficult
heavy
hit
miss
pred
School
qual
##ster
discover
subsequ
lack
party
problem
##medi
difficult
close
Nor
##iol
Wash
construction
Some
##ending
##anch
relationship
##istic
host
weeks
project
far
originally
separ
##ky
reb
associ
upon
pract
Fir
##ica
Henry
##uel
leading
appoin
vill
almost
San
mer
Port
Robert
##duct
peak
damage
##ming
Europe
scored
chart
fourth
##osition
inform
sett
provided
##ividual
reve
Vir
##yr
Best
case
clos
Music
interv
engine
creat
Red
500
dev
mi
invest
Paul
scene
##oring
human
##angu
##ological
brought
##ino
free
187
fell
Battle
mother
featured
vot
Ag
##ential
President
king
##ula
least
working
allowed
laun
##ened
##aut
##lement
average
Cap
mult
towards
wanted
Cour
indust
Mil
##unk
tradition
region
business
Washington
Que
##azine
quick
troops
placed
either
##ids
redu
respect
Res
office
critics
Play
avail
##cast
Bel
##antic
reach
example
material
runs
econom
recogn
##enes
Angel
sex
wife
sour
##chie
neg
##rey
estim
army
foc
##ule
##iction
Hall
Despite
2003
Rev
Pe
interest
Follow
##urb
generally
mass
Hill
joined
dou
rail
##quadron
proper
35
accept
##omp
bill
individual
##lt
##iff
Mal
##ourn
##iding
##ena
represent
events
believed
Ham
Game
##itch
particip
Cup
fig
Following
First
Mary
##inn
wid
Cro
##spec
##oor
Don
know
victory
replaced
Great
Lou
##artment
##emor
designed
mph
rul
mount
soon
nomin
##asing
island
fund
##erous
exc
##ving
hours
Two
European
employ
president
room
##ification
involved
##aper
ren
surf
finished
##merc
Ev
stru
Ant
Championship
##ki
##inist
##asion
##fall
Mart
##west
break
dro
##ico
Star
hor
##ago
saying
Roman
unc
court
shot
threat
##ander
opening
regular
Ir
##cher
##icated
Met
##BC
director
Me
length
2000
Mac
ill
Scott
occur
largest
hom
contrib
possible
##ecutive
minutes
highway
Route
southern
##ishing
Ber
hy
highest
remov
2001
earlier
Rock
Atl
Sl
test
initially
Sing
personal
available
particularly
percent
hard
##antry
##anned
##to
sequ
training
Republic
##for
forced
must
exist
Wil
Mag
grad
##hib
Val
conduct
##co
##pts
Kingdom
Charles
Navy
##ography
##uit
park
wall
##uff
##ems
##ateg
From
quar
##anish
respons
ended
##go
##rian
McC
Bo
Off
##now
Thomas
##ises
turned
social
International
##ayed
##rupt
##mb
##uture
But
##ios
studio
##rest
goal
Pal
Ac
##iforn
contract
change
langu
##ocr
Virgin
praised
passed
priv
##atural
piec
increased
Brown
educ
hurricane
regard
##ze
northern
##ude
##iation
##heast
##asy
2002
phys
White
central
novel
##itor
Church
##bor
relig
Sen
Canada
speed
appearance
Californ
units
##ership
past
##anks
Bay
##rem
##ections
stop
church
immedi
##ston
##sel
##ship
Smith
disp
##ctor
meas
##aker
ordered
##aughter
##ville
##ilities
treat
prob
taking
Sam
##ference
Richard
##apt
##ittee
independ
Alex
##eption
love
signed
##anding
move
##den
##agon
##oul
##ique
California
achie
##oph
Mer
##etwork
better
##pped
pers
Union
##itz
Mill
##pper
God
lear
Govern
##ecess
##arily
winds
Island
commerc
Flor
enough
wat
##hem
positive
##nel
##ears
Court
inn
according
hous
spent
going
pot
Mo
reveal
above
outside
##ida
##essional
films
defeat
Vict
feel
Cong
clear
45
##uter
told
football
Award
ap
previously
##uation
states
quest
recording
##elled
pur
mean
##berg
Associ
Art
nine
##mar
##ume
##het
##usion
failed
##ands
##atin
assist
contr
come
Ne
Company
required
##osing
elements
ey
##quare
##isl
viol
cru
Stud
India
Mark
Germany
lower
##alion
Mount
reviews
interview
phot
parts
Tom
Peter
Gold
pay
itself
Christian
##eck
sil
directed
base
60
express
ur
##ibility
despite
cred
185
NY
That
rain
debut
abs
Times
Pat
##oke
##erved
##ready
##jects
Up
##aint
Cast
keep
beginning
##ams
##ability
##ris
groups
College
##nes
##amer
cycl
##onna
Sov
section
UK
##oid
##hester
poor
whose
##airs
##ma
claimed
ly
rap
Western
international
cou
Mex
asked
lines
transfer
Dem
Soviet
screen
give
##onse
##rief
##ania
Frank
key
32
additional
Film
future
league
bi
whom
##edy
Hot
beg
op
fort
La
gold
##igan
Awards
##oles
Grand
introduced
travel
don
##ully
evidence
##val
prem
##gar
##ites
##urt
idea
quickly
##vir
sea
emb
##onst
##ump
Im
##atory
already
Soc
center
Mont
cal
bridge
frequ
Day
Force
##usp
Most
##unt
election
occup
pil
except
Coun
##eum
deal
##ores
##anded
bur
usually
musical
##specially
western
arrived
Rob
block
##back
score
radio
##ift
##asons
Britain
civil
##liam
##aring
appl
##ults
money
female
sometimes
##lying
study
food
response
decision
Pac
magazine
especially
access
issue
Du
Later
prepar
##liament
Victor
lab
Franc
surface
liter
flood
might
guitar
carried
shows
community
estimated
##ective
##tr
Ben
remain
think
Cont
##aries
1999
remaining
eastern
minor
36
defeated
determ
Super
##ha
##gen
Early
Virginia
approx
larger
becoming
##ulf
Over
wood
construct
complete
##ror
slow
##irth
tar
police
suggested
##porary
media
pressure
entered
Chic
##erve
Los
teams
##asc
##han
Just
commercial
pen
doc
##sy
latter
lyric
##NA
market
consider
students
surround
investig
##inent
brief
##bs
concern
Second
##irt
##enty
If
prison
acqu
discuss
Tex
Jackson
effects
hop
certain
appointed
##igg
##alled
der
summer
episodes
prior
##ederal
##incip
##acing
sat
##change
emer
staff
Oly
size
##ecting
Louis
changes
##ulated
commission
##ridge
##imate
winning
limited
scenes
Olymp
75
river
leaving
destroyed
fleet
##ector
draw
##viron
Club
Dep
den
##iser
board
Spanish
300
##oes
##iles
##ties
rights
##ournal
lo
provide
writer
##igade
Green
polic
##idents
fail
##II
ste
##ension
date
trib
territ
Stev
girl
proposed
##eleb
influence
Party
##ein
184
overall
diss
tax
##inct
arrang
kil
structure
react
Ter
di
division
self
##ication
##inese
Association
##iral
80
##ronic
anti
agreed
type
intended
jud
##rd
bow
Edward
running
##ease
Pri
Chicago
daughter
wide
Ital
purch
nearly
supported
Many
deep
##che
##atives
##AF
Adm
##tained
research
##omer
##imum
establish
helped
married
1998
movement
Chinese
awarded
##aded
multip
Song
lay
Council
Oper
##ys
##atively
create
favor
##que
intens
Do
##leg
display
bird
Enter
dark
susp
33
tex
##owers
##ari
Sal
##dle
stars
longer
Kn
language
##uing
higher
cat
##icted
planned
compared
captured
Serv
increasing
fans
conclud
course
changed
Johnson
Ot
##ounds
experience
approximately
related
##ees
##selves
feature
fifth
living
themselves
done
##abit
History
producer
##oms
tracks
##ault
##bers
temper
mostly
Pacific
##isions
withd
ens
App
Billboard
Inter
space
Back
imm
##ij
##olic
##essed
Not
thus
Kore
woman
dead
##umn
operations
Inf
remains
bring
quarter
##thing
##itting
natural
##oint
our
##imin
whether
opt
ult
let
##can
shoot
current
weap
##bour
Final
##andon
Scot
37
probably
##ergy
soldiers
Under
##raz
##hers
copies
Sun
##ny
buildings
leader
voice
1997
boy
face
extended
Since
lyrics
##rown
portr
forward
##ibr
complex
##gn
Str
Atlantic
battles
issued
chall
##riage
really
countries
heav
##ospital
##uth
suffered
transport
Lake
cm
##iant
goals
Florida
Fort
includes
attract
Sever
Love
immediately
deg
Both
cur
##oe
70
##hood
breed
capital
manager
mixed
private
Jim
cann
Jew
officers
broadcast
likely
Old
##etic
distrib
##hold
##ili
mach
##vert
Queen
##rol
00
removed
Texas
plant
##mpire
celeb
initial
##bury
increase
script
Sea
Town
health
Mr
subsequently
Dist
Tor
leave
plans
Law
always
focus
Ol
coin
network
##ros
##ria
services
via
status
compan
Trans
China
visit
location
##rial
##order
Another
##jected
##rison
##ette
##ka
flag
problems
Camp
Lord
depart
##ograph
How
##ously
uns
Earth
offered
instr
confl
canc
Gre
model
##aily
##tainment
norm
terms
Del
Const
colon
approach
mur
something
village
Carol
administ
tons
##burg
carry
Pet
Boy
Wood
##ills
tor
tow
majority
##vironment
183
professional
##orning
counter
Je
##uf
Canadian
Its
sch
##adium
Rail
Big
Step
got
Sir
Africa
consist
cause
##aches
##uries
inters
damaged
##hod
meeting
##anced
ran
job
##ging
appears
confir
adop
minute
##rate
ranked
Mel
Center
composed
revealed
Squadron
Highway
##ify
34
Bur
flight
attacks
##olk
Russian
##ends
##itect
##imb
plot
raised
discovered
Rel
Rad
##reak
##umed
##lor
##esh
financ
respectively
III
makes
Kent
Martin
contem
Central
38
##arch
numerous
1995
Kr
Lu
##aging
thr
associated
altern
takes
domin
Angeles
inspired
account
rout
Dis
needed
anc
lived
yet
launched
##ails
##aught
##ription
cand
amb
nature
coach
occurred
contains
DV
vehic
##estival
Congress
shown
sales
attempted
hour
##cy
attacked
##uments
moving
Bu
Year
conditions
##aud
TV
aw
##ken
##down
##iest
accomp
Miss
##joy
Tour
Group
fore
2016
ang
1996
##win
refl
issues
birth
##mon
whole
Tur
exam
information
##izing
farm
yards
Empire
sal
slight
upper
Out
##cean
incor
box
subject
##urity
Kar
mom
referred
critical
##kin
##rect
prec
19th
##enant
##reme
Penn
scient
numbers
finally
smaller
##ogue
##eather
elected
resulted
selected
##quar
##ellow
Rh
sen
bad
Gar
grant
experi
Jose
cer
active
##zz
grand
princip
singer
90
Bow
standard
secret
##itation
##uated
Italian
mission
##ases
1994
industry
Tel
largely
##well
operation
##eek
sem
##ality
##ortun
assigned
saf
analy
Arm
##oud
web
##lo
legisl
earned
commented
Team
##itude
expected
DVD
Corps
listed
Cons
audience
suggest
pair
Crit
artic
covered
purp
So
##ider
hot
unable
gre
sched
indic
traditional
education
underst
trade
artist
friends
Viet
closed
attention
refused
plat
Er
newsp
method
pit
##ounts
primary
double
##ighter
sister
kind
royal
prevent
Michigan
##aped
reason
letter
##ipped
male
officer
und
below
Wales
enjoy
dig
##isk
ability
depression
meant
Mass
49
performances
##ims
declared
Nort
##anes
blood
##iled
Cath
giving
repor
concept
word
##undred
180
fighting
commander
religious
books
theat
max
middle
Pre
##ples
rate
##ady
Ox
Arch
##thlet
amount
##ona
##com
Long
records
Acad
Democr
matches
constit
##aine
mor
names
##tered
Bec
##oses
Test
impact
produce
question
Fer
recover
Wal
41
##antasy
competition
unit
centre
##utch
serious
Sar
##ien
##odies
disapp
touch
vocals
Minister
Leg
Major
Several
Zeal
mention
1992
##ounded
##uct
Midd
abandon
Matt
##road
rapid
energy
necess
text
##enge
##rid
Fox
##overs
har
##ening
train
Se
Kenn
kilomet
##echan
dut
##ervation
constructed
traff
##ban
theme
##use
1st
##rier
##ado
Sum
Time
pick
##ishop
nearby
highly
Dar
separate
Zealand
sev
##ether
continue
400
annual
heart
##be
chief
drum
effort
presented
Mexico
Haw
##osh
##ender
positions
combat
African
reduced
##oper
##rug
##ibly
controvers
##ining
##ansion
directly
55
Four
Tre
##ieut
##ingu
Chris
##work
levels
Wall
means
neigh
object
notes
attended
Ann
practice
tried
compos
##emorial
Hung
nuc
edition
fast
##ita
twenty
Bob
metal
1993
##vement
##onic
Madonna
accepted
watch
architect
20th
stating
1991
movie
cle
##shire
##ires
##osen
candid
##isation
##lled
concert
##track
Scotland
Kh
##awn
179
##stitute
Jones
##aph
direction
##house
39
Tw
##ersey
seem
lif
dism
Their
schools
legal
rein
##eway
##ux
thick
Av
Manc
Cross
##icip
asp
horse
oil
recomm
marriage
##illery
Greek
Department
intell
efforts
managed
college
42
##ya
purs
draft
##eath
Dou
##wide
wing
##utions
ending
resulting
48
##irit
##ieutenant
Arab
spl
Three
showed
##band
182
dropped
Go
##ican
responsible
Post
overs
##MS
Infantry
##arian
nation
inside
##like
##illed
kept
##arrow
cases
Coll
Foot
cust
environment
Bost
culture
meaning
dom
cyclone
rat
incorpor
##olf
begins
##inem
variety
##sw
##ceeded
morning
##cing
subst
cerem
houses
product
forms
Stone
championship
Service
words
##gl
vo
yard
schol
##peror
perm
##aise
Williams
Creek
Records
##ini
Secret
marked
##cend
inches
favour
du
181
Hel
continues
science
BC
Che
symb
##ils
##iated
bank
Parliament
uses
economic
Sol
##writ
source
Cle
Games
##cle
##thel
##ylv
Stan
Tri
##sis
quality
##kn
##gypt
##ulations
hundred
##ols
starting
conducted
Book
##thur
specific
strugg
allowing
Egypt
##light
Society
Ro
beat
1942
##bed
presence
sides
Ap
Jer
##ada
viewers
Oh
##wh
Sur
Win
dance
##ait
metres
chap
##ications
##sych
univers
Sil
suppl
47
exhib
rule
Prince
Southern
distinct
Clark
Sat
transferred
Stephen
65
raid
potential
Fin
##teen
Committee
foreign
Georg
Beat
Latin
Oxford
##inet
##mark
peaked
Spec
##itiz
enemy
ple
your
mel
##of
Hal
captain
becomes
traffic
advance
owned
things
founded
Ver
greater
Bas
Joseph
Like
big
vocal
Admiral
attend
News
concluded
portion
Brad
##very
scoring
castle
respond
stories
property
##iance
attempts
Camb
encoun
Boston
ded
relatively
mess
Harrison
Chief
Manchester
appar
primarily
demonst
Jeff
52
federal
financial
Class
Form
##rawn
##fect
Because
actually
Before
animals
46
Captain
Swed
observed
Hurricane
tourn
collection
opportun
Dire
multiple
Vietn
titled
##udd
##istics
Tim
featuring
Sk
writers
contact
Bat
Dev
write
Pan
1944
ge
inch
journal
43
Bridge
strength
Def
wor
Ott
##stein
mechan
weaken
situation
##umber
spot
paid
##we
distance
premi
parents
Commission
Battalion
independent
Ke
44
64
passeng
figure
Max
actor
acting
companies
tur
progress
Columb
divided
Carl
##ih
Paris
mind
onto
##mas
##iced
Van
collabor
link
Luc
##ental
##anna
target
slightly
function
piece
share
Series
Mod
reform
selling
##perial
##ricket
powerful
torped
concent
rating
innings
##chest
##rel
plays
##eball
Ma
##astic
era
BBC
##istry
lot
today
##osaur
broke
Pop
##uge
cho
##annel
##oration
1990
walk
Croat
actions
waters
##de
ultimately
##ply
rough
trial
Histor
##sen
maximum
##aga
##acts
log
##venue
pilot
Hor
bound
Mic
Life
Adv
##mond
completely
Academy
blue
sought
policy
1945
scale
interp
society
Line
behav
Young
##illa
hus
##ota
Museum
Saint
mainly
ess
designated
1941
Den
Way
150
officials
struck
bene
transl
##hips
##king
influenced
suc
activity
combined
wear
square
##olved
corn
##iano
search
sn
##AS
Entertainment
Little
vess
Italy
##omy
thous
calling
contrast
alongside
elev
northeast
seconds
batter
Brigade
sout
Wind
##while
Americans
winter
Lee
sources
##right
Ell
seg
background
##adel
webs
More
ice
theory
##ube
Tod
recent
mem
crow
gained
nominated
##za
##TV
conver
platform
electric
##HL
Aut
Ire
artists
encour
Regiment
widely
naval
##quarters
Add
weather
systems
promoted
confirmed
Spr
Ireland
reaching
proved
results
Avenue
##edd
passing
##pson
##ibrary
albums
Good
Fleet
explained
subsequent
greatest
conflict
news
feed
2nd
wick
content
invasion
Ray
1989
coming
charge
peace
resist
##ips
sixth
compr
##ias
##ala
##aven
51
Bus
northwest
##essions
county
Orig
adj
shortly
1943
##iring
versions
path
serve
causing
says
sust
##ipment
expressed
reception
Ry
##iro
Victoria
Sant
##ero
##itness
##known
Work
Sub
Catholic
##itan
residents
emot
Norm
border
Charl
##ić
Tropical
deliv
soundtrack
chem
stay
Valley
cities
poll
##ancy
##inson
seasons
green
##bon
talk
##arn
##ategory
appearances
sense
##ugh
sexual
Light
pun
##oof
##ufact
hospital
require
##AA
Di
physical
Dani
hands
identified
older
##ighth
Roll
Live
er
Ram
Though
Dun
document
true
tells
offer
Liber
kg
##unction
Commun
iron
##arden
artillery
##ram
Conf
represented
##ms
Show
Vol
hors
##isher
weapons
Fre
gas
eas
Football
ahead
Through
##icient
negot
##ylvania
fle
Tay
Jul
Week
heavily
Bey
pal
laws
Upon
##och
##abeth
1980s
Hear
1940
avoid
Dutch
Ill
defense
student
alone
image
spread
studies
officially
Eliz
husband
compar
district
executive
Albert
instit
bit
Tem
debuted
wild
entr
##emic
prominent
capture
pack
appeal
consisted
send
injury
Top
Bre
fired
Mat
##lers
organization
equipment
##load
Rog
resc
##ockey
stone
pattern
##pool
defend
instrument
argued
aired
figures
Bond
Gal
surpr
Dam
exped
eth
growth
Civil
##acity
##rical
Homer
pict
ring
doing
magn
returning
suit
tun
doub
contemporary
##ushed
poet
ox
weight
1970s
600
hers
##lam
##bur
habit
laid
step
##amber
earth
leaders
floor
affected
Northern
matter
Hard
pieces
##lines
##appen
##ayer
##hew
tal
propos
Storm
Jon
pan
maintained
1960s
here
rang
occasion
shell
##ifying
visited
##ym
hyd
Jud
termin
stra
comes
speech
crowd
##acher
criticized
chair
activities
hall
Carolina
##pass
exec
Conn
Rom
##acement
citiz
53
##duction
##ners
tournament
##rain
Ros
reign
Field
emph
toward
##ocked
singles
drug
##uls
##isco
Men
reference
##intend
Scottish
couple
senior
formation
##elve
adapt
1987
setting
Marsh
medical
##ivity
worldwide
bud
System
territory
trying
Government
##stone
Holly
1988
surre
trees
stations
dog
roll
birds
Writ
Fantasy
Colon
85
god
##amm
doll
Operation
Rod
Background
##eller
machine
Governor
murder
##embly
claims
District
##anger
##agn
cell
Home
historian
Guard
risk
rainfall
##orne
accident
Penns
fully
load
##uled
value
##rie
therefore
Duke
chosen
treatment
university
guest
##rael
Short
##eman
##velopment
bott
sens
twice
Studios
##illy
##ote
frequently
Girl
ut
##tle
##omers
##aved
##ordin
Polish
Lew
reports
Castle
##stitution
leaves
governor
##irty
paper
remark
Senate
address
##uous
##ampion
dyn
##izes
Eastern
label
##ading
color
faced
MD
##ledge
opin
Hon
fear
walls
Corn
follows
Sel
operated
billion
##ici
grew
##antine
##ano
surrounding
Mean
planet
##ucky
Andrew
##azz
54
##antly
manufact
Bart
contained
##onents
condition
degree
observ
##resp
herself
##aming
Christmas
##ety
##bit
##ns
Mur
accompan
wounded
typically
##ager
visual
Allied
impress
passes
challeng
master
simply
Wilson
Os
fuel
brown
Night
escape
##isters
##utation
fair
railway
Inst
element
sle
Taylor
95
reinfor
editor
lives
phil
1986
orders
56
ir
##add
arms
Elizabeth
97
##fully
##pton
nothing
serving
Hum
mis
camer
Alexander
authority
chose
##ancing
opposed
workers
moment
vote
consecutive
cannot
##ricult
Each
Jac
newly
hun
##anda
##gend
fan
native
burn
unknown
Pers
Joe
participated
Far
growing
casual
website
Chart
Cy
emphas
psych
attrib
Of
bass
##war
producers
##andy
newspaper
extra
benef
Det
losing
Festival
advanced
adopted
##ilies
filming
##imens
coal
##ype
##St
Sound
heard
Ret
spirit
severe
Pennsylvania
offensive
opposition
fiction
##rich
What
Bru
##rong
177
lin
##ables
guard
##rane
##iot
capacity
##ola
basis
Islands
council
sequence
Pen
actors
Wat
Card
WW
Hy
Gall
ends
horses
ast
##room
Reception
Mike
##TC
weak
##cel
##orter
Blue
squadron
##isers
##eds
Middle
Land
prin
advant
Ocean
abandoned
##onc
Irish
Further
SS
Tech
rival
##under
Bab
kick
honor
##min
##uses
syn
flying
steam
Alb
##estic
##imet
Harry
bey
Fam
creating
##ocated
Jersey
##ura
##iel
sports
Spain
launch
filmed
Turk
Ly
regarded
happen
homes
##BA
normal
expansion
Us
criticism
individuals
##oma
1990s
beyond
76
178
##engt
agreement
Cat
##onn
incident
##ella
##apers
spect
sym
##FA
spring
failure
liber
##enture
Square
##la
shar
evac
deploy
dismiss
narr
famous
Lind
sail
Coast
integ
measure
1939
eye
Are
possibly
boat
##etts
historical
negative
CD
bodies
##igr
Wild
Mu
mob
achieved
parall
##ima
##ifications
believe
silver
Public
##rog
##inger
roles
End
Mul
narrow
Production
##iny
killing
##imal
retired
Broad
Dan
ideas
Israel
strike
fellow
Institute
61
rid
hair
##iana
supply
drive
##onent
disease
##mosp
Arthur
##more
torpedo
imag
66
diam
Mid
briefly
Revolution
##kins
prompt
1968
1985
task
Board
##aith
##gent
effective
armed
tree
Germ
Ash
tower
##edom
Cub
##amin
budget
receive
administration
repeated
granted
necessary
personnel
roads
pet
Mir
Meanwhile
rejected
##ocks
Sund
athlet
##asts
unf
perman
Person
twelve
conce
Republican
Due
Les
kilometres
inh
Doctor
gross
##ga
improved
Head
Album
leadership
column
interchange
##avalry
extensive
Pu
trou
1970
data
Ohio
##iments
##ourney
turns
straight
lands
plants
infantry
purpose
interact
management
defin
Att
seat
landing
describes
split
expanded
Prot
Ep
yellow
##mit
Secretary
solo
franch
Braz
choice
successfully
Lar
mile
broken
##adelph
##lusion
Lo
crossing
didn
animal
intellig
1984
surrender
##uate
explos
Philadelph
800
fought
chor
excl
convention
##stream
##iday
##oured
RA
organized
caught
types
Ni
vehicles
commissioned
##iate
suggests
Harv
Sher
##oln
glob
Even
Liver
acquired
##haps
##erc
##etball
places
committee
57
##isf
drama
Georgia
IS
creation
Mov
Cambridge
##akers
##appy
##inth
ancient
##set
Hit
gives
Philadelphia
article
comedy
##gress
seventh
prefer
nuclear
rom
soft
wave
##iable
120
SR
##rot
##iations
##gu
authorities
roof
contain
headquarters
assault
Mah
Also
##ava
1967
centuries
commonly
determined
islands
genus
rear
62
Addition
mentioned
Russia
##ii
##umes
recently
looking
controlled
gather
beaut
Tra
Burn
##restling
Never
Common
1980
Belg
Ur
sets
##ipl
families
Among
household
Sup
aim
security
experiment
Liverpool
upgr
##ping
convers
finds
street
advert
decre
Nintend
acad
standing
Linc
##acks
##ishes
##outs
illust
Nintendo
##cer
Chap
singing
Bor
withdraw
##hol
##fort
Earl
Hay
fish
bal
dial
battalion
Jenn
Prime
Columbia
unique
sac
##itled
##agement
##orship
containing
height
cultural
entirely
Pot
orchest
58
protect
mol
rob
finish
##ao
touchdown
mist
Asia
contributed
Singap
themes
Korean
Development
##agan
younger
74
provides
deck
Lieutenant
flooding
Brazil
1983
extr
Ven
atmosp
##iences
Child
awards
titles
##ulate
purchased
Kel
Jewish
powers
##inity
arrival
Dark
##eless
scheduled
defensive
Francisco
Bad
##respond
##icial
resemb
thing
accompanied
Singapore
ceremony
unus
quite
1964
Lincoln
worth
perfect
expedition
formula
People
Six
fat
72
wa
##zer
1969
##illing
locations
Wars
existing
##essor
try
advantage
performing
Carey
philos
Office
computer
dedicated
Lis
Gil
Disney
##water
extrem
##hens
request
##wall
Key
##laim
intensity
##Station
occupied
1914
why
Mot
squad
1918
PlayStation
Kir
fresh
##pe
HMS
Order
mounted
##usc
##iger
##ashion
nob
tail
cry
1982
Brook
##ker
##roll
fix
##ompl
Turn
1971
mouth
##fri
Balt
recru
cricket
firm
##yph
closely
59
Brian
consists
store
currently
Lewis
Miller
Steve
lic
session
1966
Norw
Byz
Anderson
mic
##rons
1972
Radio
Conference
##yles
tim
Press
1979
egg
industrial
Die
Ka
##mouth
elimin
Prov
simple
piano
Once
facilities
cold
##ilton
supporting
survey
drawn
Grant
##omot
alt
Olympic
Ball
Serb
rot
trains
##ega
rated
graph
belong
protection
boats
99
Gro
rise
Daniel
##mann
unsu
defined
selection
Var
harm
##ption
Barb
1965
Tam
regions
submar
protected
Railway
pros
calls
drop
NHL
##oster
Emperor
comic
motion
throw
trail
structures
##awa
##osa
aid
shark
lap
labor
##ware
focused
opportunity
1975
engaged
receiving
##iration
correspond
shooting
analysis
citizens
motor
##rom
strengt
Gulf
notable
3rd
Inc
adap
vert
eyes
Jr
Ob
Sev
##ctions
flow
##enue
Summer
Water
experienced
dry
Germans
Hollywood
##ua
mut
providing
##eet
conference
holding
Walter
##oh
Bell
mountain
Only
1974
resident
18th
Davis
southeast
hired
sport
charts
Lab
##unior
##zen
viewed
merch
63
##FL
branch
##burgh
##heim
##ifically
##olt
rapidly
recognized
1973
volume
vac
la
transform
Gib
77
Democratic
73
hero
Review
scholars
sites
Fall
gain
Jean
##iat
Special
casualties
teach
Bul
hyp
shared
concer
UN
Between
publication
##yer
cart
temperature
digital
1976
moder
economy
Bank
Rome
developing
steel
reaction
edge
##ownt
##standing
Lady
Princ
cool
Hun
symbol
rare
intersection
rac
approved
##oncé
secondary
chance
##ographic
Gord
Nap
von
Sand
##omew
losses
myth
contest
prepared
forest
belief
substant
Mas
Daily
##eral
enl
Musl
##iful
letters
##ologist
250
Women
significantly
witness
bands
sort
##rations
##onder
card
save
Naz
exact
##rif
Syd
67
Te
knew
##avel
goes
literature
Beyoncé
Gen
unsuccess
portray
heads
Mos
##achus
southwest
actress
technology
##ador
descend
roughly
##eel
##igation
##ographer
urban
##istan
##asty
Sa
##ules
cab
Command
semi
##vin
Fair
##theless
lb
##worth
painting
adult
anything
pitch
##unte
projects
##sey
Indust
Colonel
Abb
brothers
gameplay
resistance
Point
shape
Bern
Nick
equal
##orters
unp
sand
storyline
cars
Supreme
IV
ver
##box
reasons
rules
Ten
tank
##iminal
employed
##ropri
##break
96
Kentucky
daily
Station
shall
1946
injured
##ete
franchise
watched
##aka
1981
agent
shaped
##onym
##ali
68
popularity
##oir
##ko
composition
Philipp
core
82
##icts
isol
perhaps
adding
enjoyed
renamed
opinion
##osl
Independ
1950s
getting
##omic
calc
dram
##rec
declined
Ross
##ato
Norway
lov
reputation
nor
##án
Main
##atures
Prem
##ients
Theat
estate
connected
Gra
Ha
retire
undert
museum
drew
tend
1917
poem
regarding
Olympics
views
stages
converted
##ulpt
##rett
##istol
Golden
Massachus
87
##onia
##inking
hydro
Ron
##iform
agricult
sun
##bound
allows
nick
distingu
alternative
Massachusetts
Elect
##rets
headed
journey
Sus
depth
Dream
missing
cited
160
increasingly
##osis
stadium
approached
##evin
turning
Airport
##kes
table
responded
exerc
planning
knowledge
easily
1948
ign
wealth
##ba
overl
cells
700
##ira
##ilding
parallel
Walk
fashion
escort
About
1960
tall
collected
succeeded
##psons
constitution
Han
##erse
##ora
flu
instruct
Hart
Whit
safety
Ken
trip
rebu
existence
##itors
##unicip
69
Run
##put
introduction
##ignment
pul
Simpsons
91
occas
models
learned
##apped
auth
Init
sustained
##ader
promotion
operating
colle
rhy
##ati
alle
##oted
1978
##uration
##eased
##wise
baseball
McG
carrying
Cas
limit
appoint
Songs
exchange
showing
youth
78
Imperial
buried
Vietnam
Est
humans
defence
subm
credited
##iling
##come
##hr
##iants
bed
##inary
##era
arranged
Ottoman
improve
impl
seems
Jay
weakened
1915
Cape
designs
bul
##entions
Shortly
joint
ton
##icks
paint
producing
94
proceed
Poland
Sydney
1977
freeway
Ut
earliest
Maryland
prote
flat
Who
landfall
lasted
Id
settlement
Pict
note
Roy
description
Bra
##oz
retained
acres
Stew
Moore
1950
##aising
Rem
Naval
MTV
AD
##ivalent
Int
genre
hol
98
programs
consc
assistant
##ources
playoff
replace
81
Ari
impr
install
Laur
reserve
##issance
Jes
synt
statement
virt
applied
catch
root
trust
1963
Spring
Pass
violence
Arts
neut
scientific
domestic
coastal
##othes
entrance
##iege
##insula
hits
Inv
##rell
maintain
consequ
Greg
unl
Bowl
exclus
sculpt
battery
items
##eler
candidate
##owntown
indicated
towns
gradually
distribution
1916
politics
Plan
delivered
##leton
##taining
stopped
71
filled
independence
tact
##izations
sections
details
IG
Confeder
Mulder
van
thin
cinem
##eton
combination
89
##lan
supplies
ways
glass
eld
##emies
parties
stream
engines
##math
##ushing
prisoners
camera
Gordon
AC
Stadium
1919
register
Rhodes
campus
##apes
1962
Well
##gency
##ario
acts
extremely
entitled
secure
Band
##reets
##time
##hi
pret
##greg
finding
##urring
88
##itage
Univers
##iques
online
decade
Bir
##ras
##AT
Staff
##ela
##poration
##inois
##ropol
Prof
##idden
Theatre
Down
##acter
winner
arc
##iversary
repair
tick
evening
Cop
1938
investigation
Kim
threatened
Here
bought
message
Vill
##okes
adapted
Bol
somew
survived
knots
et
consum
bask
Anth
studied
Iv
proposal
writes
##ashed
religion
deaths
Justice
##uzz
routes
Bon
regiment
Moon
download
ruled
Instead
relief
males
reduce
##ja
voted
##BS
##ighters
##ieval
79
revolution
Fire
spons
specifically
crown
##athan
##aked
phase
duty
Age
Bal
fict
kingdom
##ansas
##yphoon
recalled
Od
portrayed
soul
implement
Ast
Gill
##ealth
controversy
Memorial
##aug
##wick
##hat
causes
##bourne
Circ
##BN
##ervative
ble
everything
Tony
1956
breeding
ban
Nel
sell
175
references
stret
intention
ago
bottom
capable
wides
convin
importance
##opher
##aki
entry
meters
McK
Singles
offers
Kong
Pear
Power
tanks
##ads
##senal
1930s
Ok
Director
Seas
il
##entially
owner
internal
##ician
arrested
opera
Adams
92
admitted
bor
nomination
corner
emp
Jord
Alan
##encies
1936
##ront
lit
FA
##ipping
crossed
climb
products
Dougl
##eston
##after
Critical
installed
equipped
medal
Beach
IGN
##po
##know
preced
concerns
mort
84
Hamilton
Alf
Simon
invited
Maria
Engine
VII
din
acid
130
Adam
convoy
ones
conqu
interested
starts
crime
principal
recommended
Your
fly
tell
##eline
shel
##ranean
##ek
##ructure
remainder
Plot
Jane
##pread
shut
actual
Kennedy
Lev
##cement
retreat
UTC
stock
1920
commit
charged
##chers
Bos
solid
apart
objects
funds
Cart
Fle
door
1961
##osaurus
Imp
gall
##ilation
composer
Sav
females
##hedral
consisting
Video
##owed
promote
Death
page
##har
##met
milit
##erted
price
93
NBA
Indones
considerable
Found
dates
pow
##ibb
1953
Nether
##ingly
snow
typical
Marc
grounds
skin
hear
Gun
Today
duties
extension
Eric
evolution
someone
##bro
Transport
##rete
rural
##esc
penal
Military
Sunday
eighth
##vements
##BI
spin
Indiana
Bry
hotel
Howard
decades
##osite
images
driving
reading
Norweg
Hou
identity
Pit
Scully
zone
##iller
##ubb
1930
occurs
##hetic
##bar
manner
Hitler
subs
challenge
Leon
lane
remix
##icate
correct
aspects
permanent
17th
frag
aer
brigade
1947
vir
ham
volcan
dated
Cult
1958
86
Five
Ele
colour
Portug
Yank
noting
restaur
##icit
##iley
speak
Ryan
supporters
##ucks
WWE
slowly
clean
Nic
##ophy
posted
##ensus
1957
##isis
##ivals
Science
describing
Research
##veland
involving
vessels
##ooth
##ione
entering
1937
enemies
Hug
dress
Assembly
equivalent
classes
Argent
##aware
debate
settled
parliament
obtained
department
Constitution
##regon
accur
armor
Magazine
Rolling
Mountain
songwrit
basic
##erto
##agues
purchase
Kat
##ige
Disc
folk
##omatic
Rose
patrol
nest
oldest
Cleveland
faith
Lenn
concerned
departure
widespread
decline
formal
connection
Illinois
Pier
income
##iy
##alog
attached
disturb
Gram
recognition
Now
ll
##otic
Douglas
memorial
spr
certified
outer
Throughout
##heastern
accused
deleg
sequel
##orney
##iously
derived
Weekly
##err
decor
mode
Stand
Andy
Low
wearing
assumed
##western
1959
Jordan
4th
Oregon
acknow
Stanley
torn
Freder
110
##ommod
Arsenal
acclaim
##ertain
Feder
committed
foss
##ez
Media
hosted
##RA
Third
returns
##nic
Forest
valley
segment
Roger
sessions
populations
##agonist
fine
##ruption
denied
Mediter
Family
Treat
##wan
Recording
##rates
temple
Bet
champion
##ta
Beatles
flo
charges
Tenn
literary
Bruce
Kevin
terminus
regional
1954
thousands
Norwegian
Ca
demand
transition
1955
Project
Mediterranean
##achel
circum
supposed
Educ
##key
##iva
warm
Bristol
wickets
##emed
inher
##abb
Ira
shots
Conc
ISBN
Rain
hang
strongly
Philip
Ak
Finn
circulation
ec
intelligence
##heme
sailed
possibility
generation
passengers
hope
##IA
Ba
fictional
##ocal
##eph
animated
##pres
##oli
Az
##friend
thirty
##rophy
freedom
downtown
Channel
Mexican
answ
##lee
Federal
administr
##eget
Bush
hill
##ipe
Sky
rich
minister
behavior
cloud
##opes
Tar
##uan
##mes
brain
##CA
assistance
Let
replacement
begun
hip
fruit
commanded
Web
destruction
##atinum
moves
##onto
criminal
missed
missions
exception
costs
Dig
##state
crash
highlight
bringing
rar
Master
Pur
tied
Row
##isms
##anth
speaking
Korea
Within
feeling
Ho
##organ
##ategy
Bah
##ami
##elsh
Additionally
unusual
Space
Lisa
83
Fame
garr
finishing
alleged
demol
##urray
properties
incorporated
stayed
opposite
attributed
shop
1952
Phill
swim
volunte
recovered
##borne
Color
breaking
sons
emerged
serves
##roc
atmosphere
strateg
dipl
Morris
Norman
chorus
##enses
theatre
occasionally
driven
##umin
##othing
Scient
##ca
Robinson
Prior
dang
Sn
##riers
classic
##gers
ready
effectively
regularly
cavalry
##aza
Es
Ow
establishment
prey
courts
methods
Raj
176
1933
sounds
vary
Television
Hawai
divers
Morgan
Similar
mo
superv
Around
completion
strengthen
##oslav
ru
Unlike
materials
CE
Rick
##uting
dream
Construction
Lanc
Ever
responsibility
dissip
warning
USA
accommod
heat
surviving
fields
attracted
province
persu
Nelson
Iron
##ersed
global
##nold
##va
##sew
##rupted
Nich
Francis
quant
classified
differences
Premier
Budd
DE
Mit
divisions
technical
Sweden
interpret
1935
Ford
Der
Techn
##don
1910
cruiser
passage
##inton
##abled
aboard
##uty
none
##oyd
PA
Hell
##aft
clubs
stood
association
##weight
Bou
intercept
ratings
eleven
neither
Patrick
collect
musicians
1949
1951
rooms
sam
desire
gal
Dor
separated
Toronto
Welsh
climate
##agle
ancest
Dog
Dick
Nations
shif
outbreak
Sports
classification
vehicle
Byzantine
reality
predecess
seemed
##idges
chemical
##burn
votes
picture
Cab
##pping
Allen
##teenth
battleships
rose
3D
13th
memory
##eness
##ogen
hoped
movements
Open
requested
##ji
Netherlands
Journal
16th
Matthew
Every
raise
historians
basketball
nav
difficulty
illeg
##ito
##reck
Whe
##inder
expect
##sewhere
Po
vide
##abil
##ón
communities
##thm
restored
Dean
##hire
teen
##uts
##ece
remember
obl
Gri
programme
kid
Jews
Conv
premiere
fal
delayed
Jacob
Ult
Sax
relative
inspiration
discovery
otherwise
##anny
greatly
USS
anniversary
injuries
Design
Again
neighbor
Temple
Ts
fit
accounts
satisf
funding
surrounded
flank
Domin
praise
depict
penalty
spoke
Bull
batting
needs
Wy
inner
1900
Iraq
dens
Gh
##ran
partner
crop
##ureau
massive
weapon
Marine
Oak
Bishop
claiming
7th
suburb
assemb
astron
tries
forming
strategy
wrong
Front
Anne
lat
consult
##real
legend
accompl
documentary
Glob
##nings
Armen
fled
crosses
worst
architecture
Croatian
stands
##gets
Thompson
temporary
girls
determine
hal
Russell
dismissed
ash
Islam
involvement
Jam
Hop
category
bombard
Kelly
06
Trib
##rating
5th
Last
plane
shr
Centre
Mars
remn
adaptation
##yard
enth
##onds
ensure
convinced
NC
NFL
Holy
Puerto
cul
resources
somewhat
reserv
Carter
pure
interests
Winter
turb
displ
##aya
scheme
medieval
immediate
sale
Hend
streets
##agre
presidential
Modern
library
carbon
absor
consp
Cooper
##body
die
##iggest
##itzer
ow
falling
ori
colonial
##ais
scrap
Along
ray
##ester
##icide
techniques
##going
##enz
classical
fighter
ninth
sed
Gard
appropri
throne
eggs
Brother
starred
academic
Bang
Free
Network
races
bright
##rig
Pak
adults
bull
commemor
##emet
photograph
passenger
##action
##elsen
surviv
loyal
Hungarian
Fore
6th
Nob
meets
lake
Meg
##dden
##uro
##night
reviewer
alien
Thus
1913
premiered
submarine
##lyn
Labor
Wright
absence
##wealth
##bell
seeing
superior
renew
##edding
Cry
fitted
else
##osure
interior
credit
favorite
##acent
Parker
engineer
##arsh
dub
##PA
airport
Batman
Tok
partn
##uv
##oral
deemed
attacking
Harris
##aling
appearing
conclusion
visible
1926
dating
synthes
depend
##ivan
characteristics
romantic
leads
elections
rum
pin
operate
facility
encouraged
12th
1927
municip
Library
afterwards
Heart
retirement
900
DNA
colony
landed
Murray
convection
temperatures
1921
everyone
AI
doct
suffering
1934
bat
sight
legislation
Bi
holds
fer
modified
08
lies
Education
Late
##iac
od
painted
controversial
wings
##eor
Tal
##roit
gone
Knight
##ossible
Houston
san
believes
##ixon
distributed
##urches
##bo
##oen
Commander
attempting
Spe
Police
Berlin
Palace
Deb
standards
looked
rescue
authors
que
##book
secured
1912
##scape
##chang
monarch
depicted
buy
dominated
##apping
FI
##itable
##char
##uster
Ey
##agu
battleship
grass
habitat
anyone
Yug
##apse
continuing
##coming
judge
Hospital
longest
Story
Thor
Santa
gar
biggest
trained
union
Swedish
Commonwealth
unsuccessful
graphics
chairman
pound
Li
neck
##atically
Simpson
Roberts
bet
wins
sudden
##aws
1932
##ultane
##inals
jump
arrangement
carrier
##aska
##owa
##rait
##prise
railroad
Indians
Get
##ache
acknowled
map
##igration
nickn
Mort
Seat
informed
measures
apparent
09
Cook
Silver
RAAF
##uther
belt
##eenth
##bl
representing
##emetery
Cru
releases
Corporation
achieve
Social
##ture
outl
Warner
NBC
##olph
##ternal
Merc
sees
garrison
Yugoslav
##rum
formerly
grade
Jason
generated
styles
closer
deployed
emergency
Anthony
cancer
bats
##li
alleg
##tenance
##elle
questions
moderate
Supp
historic
Nev
gets
veter
##fare
trials
festival
ster
cycle
molec
siege
influential
Obs
emotional
##aire
Croatia
Detroit
##otype
##una
owners
novels
RAF
ha
successor
influences
narrative
Gaga
Track
1929
Dal
##aints
Chamber
stead
1911
eat
##iens
mathem
journalist
Author
excess
assass
childhood
Gilbert
##yo
constant
experiences
##mate
enfor
veget
pregn
defended
discussed
Princess
Fri
apparently
alco
Samuel
instruments
Shar
Spears
140
victims
treated
##ois
Lyn
PC
giant
render
##using
environmental
##isen
executed
##mun
##arked
Asian
detail
1931
coins
##imore
Dom
1922
depos
squ
offices
Sull
##aled
factors
bes
mine
legs
Jesus
bab
bear
##usted
##eeper
row
enters
##achment
hunting
Somers
wooden
Melbourne
settle
Evans
Atlant
Nielsen
##obi
Pope
##noon
Anton
##ching
ride
channel
hundreds
Vice
resigned
##iliar
ocean
Guy
Xbox
gay
Clinton
05
uniform
##itter
##ods
skills
##alo
Express
Nar
reveals
##br
##aste
Nevertheless
chapter
Category
pointed
ridge
clim
##rence
##ES
bon
##orous
Wing
watching
Stewart
Ku
prevented
##utt
Mun
Organ
Muslim
pull
preferred
pushed
##usic
##lie
##rees
##icians
locomot
Real
Hin
footage
languages
flew
Heavy
difference
opponents
disappear
happened
Tower
formally
thereafter
check
drums
Bulgar
reportedly
Benn
##isp
facing
resign
relationships
Origin
deliver
chain
intense
thousand
Turkish
handed
theor
##onies
device
notably
##oto
animation
Sarah
lem
Rey
##ogether
Aud
firing
Lennon
Ru
vision
inhabit
##wich
##rad
existed
visitors
Bird
employees
learn
170
Greece
Baltimore
Bed
Austria
accompany
##20
Queens
##MA
boil
Albums
Hans
Ark
departed
linked
##mad
##stic
hearing
exposed
participate
##ares
poetry
dialogue
##hatt
fil
##ila
Stock
format
extent
archae
Cam
detailed
arrest
Colorado
##aria
substantial
Raw
learning
beach
Edd
audio
instance
universe
Cz
##phy
##ropolitan
rebell
cruisers
residential
##aver
##igen
##unes
Writing
impressed
##jo
##entures
##oys
Marshall
vul
##bridge
##atus
##endment
periods
Initially
##orage
subt
Foundation
huge
mart
shore
util
Malays
Lane
15th
avo
Sullivan
Dave
easy
taught
Beg
Fal
Chronic
afternoon
tempor
##ologists
stem
Frederick
Horn
##anz
territories
erect
fur
driver
testing
reviewers
Ern
imprison
enthus
##ribed
videos
hat
1928
Wrestling
##orial
##opter
happy
upd
Sab
tests
Banks
Having
##iami
stable
Horse
##ectic
teeth
liqu
feud
reprodu
understand
sympt
Anna
diameter
isolated
##ogan
surg
negotiations
vessel
Somerset
Mario
agents
sleep
picked
Jess
10th
##rant
1925
bridges
goods
encountered
##otes
dangerous
##present
junior
withdrew
Release
diagn
lob
simultane
##asure
aged
founder
code
Call
Lim
Ty
reun
Desc
Anglo
behavi
factor
normally
upgraded
Giants
##igs
transm
keeping
tie
Ban
Miami
specimens
pounds
##etime
##idae
Seattle
medium
satell
relie
frequent
Lin
1924
##olis
sure
collaps
ethnic
diet
mir
toll
partly
Player
Championships
##sea
lowest
##borough
prohib
##olas
resear
crisis
window
engineering
Trek
##eu
apprec
Soon
vic
##col
Alab
traveled
Op
ax
##icine
whereas
organizations
ped
proced
prep
Human
##away
designer
##helm
Athlet
##zy
rarely
lose
tone
refers
07
##amese
Bri
doesn
turrets
##ygen
##ée
1920s
technique
##iece
insc
weekend
Treaty
Iowa
Ext
vice
orb
Margar
spending
finale
underw
criticised
Hand
advice
permission
##tar
maintenance
ML
platinum
##ennis
persp
difficulties
partially
restric
policies
Alabama
phen
plate
bypass
personality
Then
agree
mainstream
verse
##adow
##oked
Forces
compete
ranking
indicate
excell
##ibbean
proport
recordings
##inction
##ilst
Caribbean
comments
seek
##gressive
##FC
##rod
remove
##raph
anticip
finals
Napole
mamm
##gram
refuge
Buff
Lawrence
Mississ
##urance
##lev
##uda
chronic
##attered
concerts
1923
windows
Tro
bron
Canal
strip
jur
seats
14th
restrict
moral
Charlie
monument
symp
km2
##chell
Buck
rates
extreme
honour
falls
fighters
Minnes
Mach
unn
pitched
Reb
##icy
phr
##isd
representative
covers
divor
Crown
alter
McD
Senator
9th
##iner
brand
Nat
tenth
Bros
Ah
Holl
truth
prompted
Burg
##power
forcing
describe
protest
CR
hockey
Ian
##ses
tub
Ministry
sufficient
Ll
cod
##mates
##udes
reconst
shear
destroyers
minimum
MP
##esses
Cur
Garden
Township
hull
churches
friendly
boys
neighborhood
Grammy
bases
examples
USD
Hungary
01
##anium
Health
Blood
Lock
drawing
Country
##usal
Polit
Nazi
Kal
travelled
Benj
bombers
inaug
doctor
Shakes
dynasty
Dance
adjacent
mand
approval
housing
displayed
Hamp
Return
rej
Michel
perce
Australians
##encing
Belgium
creator
credits
forec
##oken
grown
collapse
joining
listing
copy
tribute
aware
Diego
partnership
protagonist
Shakesp
Cold
fung
Event
Rand
##ogy
explo
Medal
Shakespear
moments
acted
Christopher
changing
creative
##ski
##alions
##aser
designation
powered
##ugby
instrumental
DC
Camer
Hu
Much
##velt
refere
trend
##onnaissance
asks
Dead
arts
##ecraft
radar
Children
canal
sky
uncertain
storms
villages
Hud
##sex
1905
Cred
possession
1908
appointment
advis
dollars
##imeter
treaty
scientists
1909
Nik
##ounced
rounds
Khan
##chen
##otten
wheel
Record
Guardian
Represent
victories
survive
##sk
Dur
grav
Legacy
eliminated
paintings
Benjamin
##pan
covering
minimal
precip
##raf
Roose
Hockey
elsewhere
Vietnamese
telling
Hills
newspapers
innov
surprise
loan
AR
##ivated
##active
03
seeking
arriving
micro
helping
occupation
rhythm
suicide
Minnesota
##ouri
purposes
Alfred
##eted
unlike
11th
values
dispute
##eing
##iders
twin
occasions
gard
##rim
smooth
Hind
pool
21st
tomb
Div
Manhatt
Son
Tun
04
##rm
benefit
Born
##roid
option
Manhattan
Kurt
manusc
105
soil
##ographical
Aff
Franklin
fishing
Interstate
struggle
Walker
Om
##ds
125
marry
cryst
poly
##uman
murd
Roosevelt
balance
Administ
Anim
degrees
##TA
teacher
preserved
Trust
schedule
Gab
flash
Perform
Comb
helic
1907
categ
Flight
cooper
circumst
Shel
publicly
spiritual
##fire
Peninsula
neutral
##ascar
Beck
##atherine
Hong
Ren
164
violent
candidates
resumed
##orph
emperor
Kansas
wedding
competed
pilots
Fried
Si
survivors
##incial
##munition
Rang
dies
abilities
Industry
procl
discip
Bh
Nash
##eland
##acle
Dw
deter
cook
##ulating
Satur
##nik
##icity
beautiful
Lith
##oking
Mississipp
impossible
Portland
coordin
intensified
Know
alignment
##agen
multi
teaching
advoc
argument
custom
grey
assisted
poison
defeating
simpl
electronic
##obile
concrete
lists
prosp
Hotel
Brun
Cyr
nations
##ls
##sters
Ra
overt
165
serial
rivers
##ensions
absol
Building
Ward
Wolf
VI
##uits
Digital
##ika
assists
elabor
foundation
danc
opponent
interesting
agricultural
businesses
Ice
Kl
Nag
backing
concurr
oxygen
suitable
multipl
mines
signing
Rap
fifteen
tunnel
submitted
Lad
understanding
scholar
Cob
encounter
symptoms
Blues
##iveness
##itated
citing
waves
##odore
behalf
Alexand
Halo
orbit
Wol
sank
sunk
percentage
Native
##icer
parish
Hem
##ilty
forests
Area
Hindu
Sym
Tenness
ninet
forty
##elli
situated
##ifer
signs
##dale
closing
subjects
Campbell
Vinc
##SP
##onymous
ammunition
voiced
Kings
nom
usual
illness
##gate
autom
Tag
tra
repairs
Hero
affair
##alities
resolution
corpor
Box
Ple
##ships
Steven
Lucas
##sky
##osm
imperial
Dest
wrest
asking
Non
disaster
##enson
functions
collaboration
Vis
attendance
restaurant
controll
evil
Apple
lieutenant
Egyptian
Margaret
audiences
feelings
underground
##adi
deliber
junction
flights
##amic
Surv
Joh
affairs
suspended
skull
Tennessee
##reation
exit
Mississippi
Jos
Josh
##odge
pron
##amps
willing
##asters
targets
Louisiana
cargo
360
earthqu
Race
1906
Mack
##lah
funeral
Montreal
##rix
prol
Micro
abol
operational
McL
##estone
##ques
##unc
##ante
Labour
lect
Fred
poorly
measured
##lec
1904
compilation
Palest
documents
Historic
string
professor
mountains
Missouri
filed
aimed
registered
##uable
adopt
anch
circuit
Sin
##atics
Depression
initi
Dragon
Philippines
##emen
statue
##ocking
favorable
##ishment
elder
liked
##CC
##andal
Mitchell
##mers
##father
##inea
recognised
explosion
Billy
jazz
##ateur
entertainment
represents
Harvey
Lov
##agg
##rac
temporarily
wet
##cho
Cher
sector
Magn
Kirk
Cow
delay
Small
sequences
Critics
replacing
fifty
##idel
Lam
##bec
##overe
offering
overw
shells
cyl
margin
artwork
Ring
Independent
Graham
wore
residence
preparation
interpre
Grey
##species
##face
Business
##vis
Warren
Czech
Near
##issions
restoration
reflected
nucle
##equ
##orders
##ception
##orer
prime
reluct
alliance
directors
Care
##ctic
expensive
Fem
##irteen
Mes
##unch
##ello
terror
UE
##ori
touring
meat
##ylan
##inental
alcohol
completing
amongst
thinking
Mess
##ancell
infr
suggesting
bay
##artney
horror
115
Ariz
Maur
banks
assess
dimens
##bishop
ing
cancelled
gang
##rine
Seven
rebuilt
coverage
tribes
recommend
Snow
Cuba
pulled
##DS
decides
escaped
mal
span
Guide
wasn
amounts
##iary
Chand
Mik
cous
Ped
lacked
craft
racing
##rous
##ova
dramatic
##rage
##quir
##athy
familiar
Phoen
communication
clearly
Tamil
Files
garden
##ele
predomin
patterns
##urally
engagement
rit
ownership
ide
argues
wel
frig
##enues
marks
Persian
173
safe
tru
Arizona
saved
Indies
armored
perspective
Sony
colonies
wicket
drove
101
Saturday
contributions
merchant
solution
print
Bureau
Dylan
net
fastest
Cycl
playoffs
sup
artistic
administrative
seed
remnants
Scout
##ieties
keyboard
tag
execut
characterized
false
##idency
Marie
See
boundary
##ucing
rising
militia
kings
Edge
##orious
severely
ben
armament
crews
institutions
ca
obv
disappoin
badly
EP
retail
depending
ideal
Confederate
earning
bulk
##enger
genetic
distinctive
##oga
bowling
##rome
##inces
explains
notice
recip
174
##omber
fallen
excav
Oklah
restricted
bronze
##olid
##ripts
ranks
spend
context
frust
comparison
threw
Liz
demonstrated
explain
condem
ranging
quiet
##cements
##Ar
##uations
inland
poems
controls
err
inhabitants
arrive
Switzer
Wilhelm
flagship
Murphy
riders
Amy
sisters
##life
##fish
##roke
##anches
practices
loop
kW
8th
mental
wants
Mrs
Such
vel
electron
Econom
faster
##hu
conservative
Broadway
ABC
##ivia
##phony
wider
Switzerland
shield
maneu
synd
revol
gap
##oven
##formation
plus
Barry
surge
exclud
spotted
##otton
stores
confront
acceler
1901
vulner
reaches
distinguished
northward
evolved
application
exhibition
Rat
##inian
##anton
earn
##erk
##acc
##acon
gate
Oklahoma
##pet
##EC
millimet
Austrian
02
155
quarterback
nominations
pace
agency
##roph
##pha
protein
subspecies
Federation
frame
##rik
satellite
kit
##uma
Original
##lings
##SA
##exp
autobi
##upp
dominant
households
prepare
##inations
##eled
predicted
palace
scr
Delaware
wreck
1903
storage
slaves
Bomb
##urer
##acked
##sequently
obtain
1902
Shakespeare
abund
vs
thor
##storm
##etta
intellect
Pil
articles
printed
vast
carriers
##bre
attained
Perry
repeatedly
Lex
pup
##azing
fixed
predecessor
##agh
allies
Leslie
vertical
surgery
strict
signal
Baby
peaking
##imen
philosophy
rub
yield
##tha
phenomen
adventure
blocks
excellent
boss
##lus
##uki
disagre
striking
Originally
Rih
##oned
parent
Karl
pretty
illegal
Ald
##abs
##riptions
bombs
Tokyo
DS
##iph
perceived
Mother
seriously
choose
Denmark
Less
Rico
##isons
comfort
apartment
Jonathan
remarked
Pow
tight
##oa
Program
westward
useful
waiting
##shore
circumstances
Chel
##aughters
Baseball
Bernard
##lecru
Players
Atlanta
Rihanna
Ont
icon
sket
coinc
meetings
drugs
Ridge
battalions
sick
dollar
##yler
Hann
Abbey
Johnny
institution
Nixon
##eley
phone
breat
##AR
##rose
civilian
layer
Wor
Brig
168
Territ
##rist
armour
readers
Hur
whilst
Inn
Ay
gust
Ton
##rift
chamber
matters
casting
tiss
##apolis
Juan
strengthened
##ports
visiting
planets
horn
Campaign
reconnaissance
Lang
##onomy
Cra
retain
similarly
Pitts
Edwards
simultaneously
##oons
##mingham
Arnold
legacy
##low
alternate
Maj
clock
demanded
typhoon
##LC
Opp
ju
empt
Ral
##TW
justice
enlisted
alive
insisted
Railroad
##rity
##din
##reated
McM
Jimmy
backed
hook
##rov
##estyle
shipping
Madag
Keith
subsid
Rub
##hyl
tack
##aro
##attle
revenue
promised
bombing
extend
demands
Sem
om
##entle
Shaw
Prize
##jan
##atern
Internet
personally
lanes
forg
neighb
athletes
Rachel
console
propag
definition
mainland
drivers
struggled
looks
conscious
portions
Pars
pione
continu
audition
orchestra
behaviour
Cost
sung
##ugg
roots
##ghan
democr
Bach
diver
Gray
##lain
##acre
166
artific
guilty
guitarist
Yankees
##otyp
blow
select
##rin
Tracy
jobs
ritual
Fel
marketing
109
armies
##da
##odox
surpass
Birmingham
demolished
Fat
dancing
##pent
##ray
##bird
Lost
##yt
starring
Furthermore
Mans
ruling
Vik
##inding
feels
panel
Obama
Nine
Steel
Hugh
##aks
compens
##azines
increases
profile
factory
Constant
Eventually
##avery
##inning
essential
ports
mining
heading
Canter
triple
Universal
theater
163
counties
organisation
pages
expression
obst
Enterprise
##ouver
Stat
McCartney
pursue
discont
believing
##folk
discovers
affect
##arant
patron
delivery
bonus
##ti
##umps
Buddh
Baker
upr
Phoenix
salt
##AC
aggreg
clothing
stick
heir
succeed
Hudson
Publ
Sig
Wag
mobile
punk
rif
##10
orn
Bobby
Wayne
elevation
acou
kiss
Iran
Todd
Girls
##cles
Connectic
Impact
Patt
##ultan
Pearl
horiz
secretary
doubt
Madagascar
sq
accum
engage
##opol
Works
Connecticut
Peace
Sak
##arth
Na
chest
##annon
Bosn
bid
mayor
altered
Morrison
overseas
##fe
Rights
baby
Hold
deterior
Jup
listen
Ontario
expand
defences
##aux
Tol
renov
Potter
erected
##warf
Diam
voy
##irts
compounds
Friday
152
settlers
Canterbury
cup
musician
Tit
##wa
##pert
Goth
Farm
Vi
legislature
Spart
Leonard
pale
objective
Community
##OS
raising
##osy
decisions
highways
aerial
liquid
disl
conversion
Allies
solar
aftermath
Defence
concentration
##aration
##ensively
campaigns
Mol
sitting
scen
indicating
conspir
happ
##ulous
##ifies
exactly
NAS
hidden
prove
Foreign
##stan
organised
wealthy
acknowledged
danger
##aments
Pruss
permitted
wrestling
##mund
radical
Napoleon
ski
improvements
dissipated
Griff
##opp
realized
graduated
dressed
Windows
Amb
Boys
appropriate
anth
soldier
Pok
execution
##atropical
Stein
meter
UEFA
##itis
observations
mac
raids
Jar
Legend
##uese
profit
Outstanding
encl
removal
interpretation
fewer
travels
Bath
venue
celebrated
Gary
Unt
Vanc
aggressive
publications
initiated
sharp
brick
##Sp
172
turret
##inister
theatrical
chapel
Dall
publishing
requires
Season
Lat
##ocation
evacuated
jurisd
Lion
##ivation
Vancouver
Fe
##itudes
debt
Mint
founding
origins
originated
##amental
tort
##itals
##town
Abd
stationed
cannon
##enna
explan
connect
brill
Edin
Jupiter
defending
establishing
##hous
retro
Tan
mush
considering
rebellion
Mem
##adier
##irm
##ags
shorter
announcement
arrangements
bones
##osex
Pakistan
##urd
Champions
cutting
Mountains
steps
fantasy
guarant
Lor
##uction
Drive
##itively
comed
TNA
##asm
##ista
magic
##autical
aspect
##OT
##icle
##aja
magazines
connecting
Cov
Gate
##hard
Champion
approaching
memor
Æthel
hosts
donated
Bradman
walking
extratropical
Our
##DI
##eto
placing
104
##ennium
strategic
spac
insects
Portuguese
Soul
lying
##ioc
Administration
##osexual
##asa
##pled
ongoing
##otte
discussion
##grad
##hears
gray
##rows
funny
talent
colleagues
cub
edited
youngest
##idal
glac
Alice
predict
closest
qualified
gathered
hypothes
forth
battlecru
tubes
Trophy
decide
Tak
volumes
##ecution
putting
supplied
##adal
landscape
rede
coup
indicates
watershed
switch
strongest
neighbour
withdrawal
Dwight
1893
##anner
angle
caps
rig
Marvel
Anc
markets
identify
Lib
circle
les
##bow
tox
exposure
Roc
fill
merely
trouble
Fleming
##arc
##imented
desert
specimen
collapsed
1896
Joy
Len
Pap
partial
challenged
Convention
Stu
Reserve
Honor
Ches
##uz
beam
density
Base
Say
Hampshire
cock
##angel
NCAA
Mission
Triple
Edinburgh
Dod
shift
Stri
visits
limits
hydrogen
dubbed
##case
affili
Oliver
feeding
Da
Isa
provision
Bak
##mi
Those
Las
clin
350
Meteor
educational
Celt
Mick
Neg
##lock
##angle
Afghan
Flying
Somet
sad
##bn
seized
duo
Dub
Ko
Years
bearing
##ensis
Scar
annually
Tob
gro
topped
##iper
corps
concentrated
##otal
exha
membership
Mosc
champions
attending
1898
assembly
parody
reflect
List
bacter
##irates
endors
111
Charts
ranges
conventional
dogs
plain
Natural
Type
offense
navy
Gor
Pink
furn
Princip
emphasis
Rab
##aders
##igenous
Ax
sole
weekly
##imm
cruc
productions
exercise
tab
unless
legit
talking
##ieth
investigate
##ür
##igible
trough
anime
basin
grave
Finally
Ralph
promotional
Prop
Jun
bond
##olve
##terior
Victorian
Bron
bone
Personal
prize
Democrats
127
fortress
Beng
jury
portrayal
ceased
Yorkshire
flooded
Mand
##owski
advertising
regime
Argentina
conservation
uncle
birthday
ticket
Lloyd
Kap
##onica
coff
employment
persons
Neil
output
queen
Where
##iffs
Christianity
sending
Deep
attitude
experimental
Village
photographs
bishop
##boy
eval
software
1940s
Brothers
hitting
questioned
Haz
##fers
ballad
Jerry
##rolled
##ović
brig
guide
Overall
##hl
Shak
provincial
Chronicle
Lt
scattered
drinking
translation
outd
unclear
underwent
Pa
##roying
mature
Fund
##hammad
1899
overwhel
AS
Sud
replied
Andre
assembled
##feld
cousin
Ent
##pler
Collins
Books
Apoll
Mong
cens
papers
##és
representatives
liberal
coat
lawyer
swimming
Craig
Ale
cad
##ashes
Marge
Prim
bell
thirteen
external
commentary
##ologies
proclaim
NO
Finland
imagery
empire
Kam
wire
##oming
stere
monaster
Maya
wait
##ayan
##assador
108
comprom
loved
vent
terrain
exclusive
acoustic
Sex
Ta
drag
slave
pictures
Ye
duration
electricity
streak
daughters
movies
Carn
Turner
Eug
sang
##race
devast
Wii
expert
accompanying
branches
friendship
surrendered
Pam
arrives
tenure
##atever
##ensed
stronger
identical
burial
Hardy
##soft
169
succession
Howe
Similarly
dread
beats
##riors
Norfolk
Queensland
components
charter
reverse
Protest
Jama
##amas
Heritage
Professor
prices
reducing
Boat
Sign
##ellation
reinforcements
##place
Burton
Hawaii
Pin
##iar
trading
penet
Belgian
Nicholas
puzz
##esty
##illes
spaces
destroying
failing
mechanical
Beaut
competing
isot
recall
exclusively
Bennett
repeat
Communist
Dyn
publisher
##erg
component
quad
Glen
stops
atomic
Rangers
worship
myst
Cricket
rend
##eyer
##olen
unw
Services
slavery
Emmy
precipitation
Gw
dict
##riev
##oca
Thunder
developers
##igrants
Vincent
Dak
##ricts
devices
fossil
##ibilities
polar
governments
traded
##hell
##onian
Credits
Catherine
Living
reward
Swift
consistent
Liberal
Local
banned
##ye
##uras
centers
Medical
Ul
wish
##haw
obsc
varied
Rud
tip
flowers
artificial
Curt
Lem
Yellow
push
##atched
virus
Malt
tube
extract
radiation
Hughes
Hob
considers
redes
platforms
Transportation
Look
CO
Din
##MI
Davies
Donald
contribution
##car
thunder
disb
electrical
earthquake
Tax
##ethel
Training
Guitar
##itarian
##astructure
skel
lyr
ment
##egas
1897
burned
Must
Sle
Prix
humor
architectural
talks
songwriter
reviewed
ecc
fourteen
106
Next
bath
##acles
proceeded
profession
Peters
boilers
##IV
advised
understood
##onald
frequency
Harvard
##rh
handled
##enesis
intersects
Oslo
Trail
##run
destroyer
improvement
Nav
lie
Bald
amateur
copper
Saxon
Darwin
texts
##ishers
requirements
Market
Swiss
conceived
samples
##uating
Antonio
Chen
Ker
##itely
167
Cameron
##rams
investment
Kate
Blu
sixteen
Angl
referring
reduction
phrase
Moscow
Tig
shares
Pic
##ulty
users
charity
airfield
154
Gallery
Pittsburgh
worn
##ffield
certainly
##iciency
##mith
##rehens
weigh
intellectual
##axy
Harbor
voting
Indonesia
waste
113
respective
cleared
##umble
praising
soph
Geoff
parks
labour
Craw
Fif
Phys
constitutional
therap
##agger
exceed
photography
gear
lock
##ön
##strong
flows
connections
tactics
grossing
spoken
toured
153
##ipper
qualifying
##razy
nit
recon
blind
survival
MS
sweet
##etheless
AM
##tery
autumn
shoulder
Terry
##pike
##avor
Report
##onium
Ali
continuous
ruler
Ori
stuff
reorgan
Alaska
commenced
commanding
nautical
##avia
Mond
Mason
fold
patients
confidence
taxes
legislative
tonnes
unlik
AP
opportunities
fasc
exists
attorney
Yam
transported
Wallace
ol
##ashi
Kane
##ettes
##icing
signature
communist
Upper
competitive
AT
Mall
Mayor
camps
uranium
Microsoft
Got
##hum
relocated
translated
nat
melody
JTW
##oria
Still
JTWC
Osc
lights
Stef
lad
tested
indeed
induct
rocks
minority
##otan
Syria
reinforced
fulf
Aftermath
traveling
##achers
##andom
##ookie
Clay
fairly
moon
sovere
##illo
revised
revolt
commanders
pairs
##ambers
1890
Emer
Ste
noble
Past
impression
cartoon
RP
Hav
manga
explicit
Israeli
##expected
Rest
uncon
Eff
withdrawn
crops
Set
Stars
Sheffield
summ
accord
blues
programming
Hey
confron
##urricanes
Fu
Pad
dischar
extending
Larry
##beat
##rooms
displaced
Som
171
experiments
Security
1895
HD
Kan
principles
voices
pap
##egraph
extinct
promin
Officer
Cass
hole
##where
provinces
Sid
##inge
Grace
representation
learns
magnitude
Broadcast
##asks
##isive
##seud
characteristic
##ussion
prisoner
export
distant
Jefferson
clar
Bryan
Herald
culmin
Crow
Luke
Pictures
Dallas
Poll
sample
wonder
abuse
flower
marine
Daw
Ec
Half
##umph
##adesh
interpreted
nerv
##rost
102
Johnston
Together
Vel
warfare
Clarke
Cyrus
Cad
relatives
##aching
skill
##bes
##utton
compound
practical
Stevens
sevent
##atra
approaches
rivalry
Austin
convey
Quest
MI
Mix
supplement
Guinea
victim
cuts
Malaysia
Performance
##uto
stress
airing
displays
Defense
burning
Wells
##brid
##cester
Trav
Orange
traditions
judg
proposals
shifted
carries
lighting
biographer
Owen
rehears
warnings
Woman
##eding
chore
##uez
121
blocked
multiplayer
fee
sings
##roud
medicine
restore
myster
graduate
Parsons
FBI
Nord
participation
Official
Greater
rebels
Eight
absent
preparing
transportation
scores
Falls
Priv
Chelsea
Kin
Liter
conven
march
Tai
Danish
steal
##umped
valuable
interviews
salv
releg
##aha
protests
cyclones
Formation
brilliant
Sac
riding
wished
##point
##anted
salary
Classic
##cott
filmm
grandfather
Armstrong
passion
intervention
Description
162
Brazilian
unlikely
Aer
Sega
pier
##ingham
Orle
recovery
McKin
Ze
##view
##berry
cabinet
Cole
##ocity
##merce
maintaining
Quebec
hem
##ortion
districts
Beginning
Studio
reforms
Cathedral
troub
Room
Rena
Greatest
cinema
Rio
fest
##bal
creek
garn
##oda
##uests
arguing
estimates
##auc
##aze
courses
drummer
Fourth
Kaiser
racial
Berk
Salt
aft
recurring
beneath
Actor
##ucker
Spirit
significance
petition
vulnerable
eating
kills
towers
Gay
upset
advertis
accurate
Eve
##alks
##ource
Ferr
Eth
Vl
diverse
Sweet
valid
Authority
##kh
communications
statistics
Direct
Constantin
Et
paras
Agency
sponsored
Reich
##ationally
Plant
applications
hind
##gom
##onge
##rus
##uri
env
Susan
Orleans
clothes
##fr
158
##pense
exem
##imp
shock
##irect
##umented
##anche
numbered
Utah
unexpected
##achute
airline
Harold
Cultural
ro
Junior
toler
##abilities
##orted
teleph
Serbian
Globe
sacrif
decorated
CBS
cathedral
morph
shallow
##gence
##atical
##itate
inclusion
lasting
##ometric
faces
essentially
answer
gender
pm
##TS
##utor
iP
mate
tale
161
FIFA
CS
##erver
consolid
1861
surprised
##ME
Bes
Fisher
trick
Exp
charted
##ATO
mood
Ins
Richmond
1889
emotion
mini
Panzer
liner
Muhammad
##ando
Il
##aiden
##OC
deeply
Mend
Chile
Newton
beaten
jet
theories
##eases
invent
squadrons
##asha
1894
ratio
fate
pel
merged
Province
##dess
##landers
manage
potentially
Constantine
Leb
enact
congreg
##iko
##affe
drafted
##itious
Republicans
screenplay
suspic
Pant
Tyler
##lon
summit
Ric
tours
processes
Scientology
##levard
dual
1000
Minor
swit
1891
proportion
crimes
##oker
descent
Stuart
##aman
##ampton
sentence
merc
dancers
##aping
demo
beating
YouT
funded
civilians
segments
persuaded
Fighter
cant
dense
decay
156
negl
beauty
heritage
implemented
Apollo
hills
Orchest
Exper
GameSp
accommodate
YouTube
reactions
altitude
Picture
Symphony
XII
boot
Sout
Full
manip
colors
##hin
##eeps
1800
administer
presentation
golden
agriculture
Indonesian
##Arthur
wine
135
##castle
Buffalo
pip
complained
Amendment
structural
##istent
1892
feared
proof
devoted
evident
112
columns
southeastern
addressed
Cardiff
Aar
nurs
requiring
sailing
dwarf
rejoin
oriented
Sultan
##ín
depress
##onsin
McN
breaks
Days
Sug
Conservation
Hunter
fame
240
observation
AA
Kyle
PS
Wisc
jack
error
Electric
tribe
Brooks
voyage
Wonder
##enos
Without
Ground
conj
##heric
recept
outf
knee
followers
mythology
kidn
Sox
cards
Register
interaction
pregnant
Johann
Danny
fisher
confusion
judges
Had
researchers
rect
quarters
Burns
##usalem
jurisdiction
Section
amph
##ospel
holiday
Cavalry
Ruth
Tang
Walt
gene
##ulus
##rific
Aber
Nas
Nature
sugar
intermedi
operates
oblig
Islamic
##othy
suddenly
categories
Side
Tu
diplomatic
Until
writings
superst
commenting
opens
##minster
girlfriend
##osaurs
Fitz
sor
##nels
##izer
##arks
Actress
embarked
##urst
Ivan
tension
##assed
Metropolitan
physics
advancing
1870
sculpture
highlighted
liv
sized
extensively
Airlines
Vo
##yg
Jerusalem
fert
hung
##master
##hent
thrown
##iga
bears
##avan
##quest
assum
similarities
Justin
principle
Wisconsin
Bible
Father
Gang
gaining
##dy
ages
desp
studying
Boeing
challenges
Abu
Schum
mud
##NC
tooth
manif
Executive
Sean
pink
##olly
styl
Trade
Edition
drown
Montgom
gardens
Montgomery
Start
truck
2000s
harbour
lifetime
##pine
##vet
equally
sentenced
statements
Typhoon
knocked
Legisl
infrastructure
m2
orange
educated
constitu
gift
rivals
locally
Barnes
universal
disturbance
Crus
Bud
##thodox
Pierre
divorce
Based
##cha
predators
Mind
Ship
##enton
##aco
traditionally
dealing
boundaries
nep
##osph
Grade
variation
priest
Ener
ties
Hope
Vers
##lington
Independence
Stra
sword
overlook
##ancellor
gh
Miles
documented
Rear
dim
##edia
explaining
empty
resolved
Baron
Saturn
##iciently
UC
1888
Turkey
Attorney
##rafts
stretch
forecast
Wes
ce
##én
spawn
receives
Patri
Rogers
rings
##enburg
Century
villain
enabled
scre
settlements
Bask
##ulsion
recruited
##piece
##angular
Scots
discontin
garnered
forb
##unning
explore
travelling
1885
MacArthur
considerably
Link
naming
tape
##inter
commercially
benefits
Cemetery
helps
supern
tickets
Fact
lift
rescued
flex
hostile
##backs
options
Icel
seas
smoke
crashed
substitute
Leaf
ashore
Meth
Winn
##aple
involves
weakening
Toy
disorder
batted
Christians
Pul
dimin
##hill
guy
tasked
proteins
Ages
Bert
##agers
##anne
concerning
dying
##cut
##je
##ocket
housed
Movie
escorted
doors
detect
CP
##akh
assert
Curr
Has
grap
wars
##ovak
complement
depicts
Bear
##iast
##ellar
vig
inning
Spider
circular
elaborate
obvious
epic
##yram
innoc
pursuit
Baltic
borrow
volunteers
Iceland
##lights
Judge
gods
manuscript
Draft
dinner
navig
imprisoned
Gi
Ted
inhib
145
Management
Fish
nut
##edge
reass
org
Thames
warships
collections
authorized
Romney
Hom
NS
Neb
editions
competitions
conflicts
Fern
Tourn
teammate
Hearts
Fil
##ardo
pursued
Tru
##ía
Athens
tempo
1865
Barbara
pill
revival
Heb
159
978
ramp
##lane
Compl
Reagan
eventual
favourite
117
politicians
Evil
beliefs
##wright
##HS
##parts
Sherman
virtually
drain
opposing
Comedy
urged
chemistry
NATO
homosexual
manufacturing
Against
renewed
Hunt
Zone
##urred
abroad
Branch
handling
Regional
veteran
Representatives
Mang
##chi
chase
Fight
Nancy
census
handle
##elta
mixture
Cre
portrait
velocity
cable
stones
examination
suspected
universities
Sonic
##eff
Any
medals
stolen
##cliff
participants
rushing
##isition
unve
##ublin
laps
##born
Tribune
##erts
##onation
analog
Quar
trailer
Face
colours
Nova
Beh
promoting
remembered
rendered
cattle
proc
thereby
organisms
450
sharks
inherited
Reed
Saf
##inery
Chad
pitcher
cow
taste
##izz
apply
interven
Sor
##gus
comics
114
118
##ints
##ipher
offs
Newcastle
Portugal
Sau
##itic
capturing
Invest
Ernest
##anim
trapped
decreased
loud
prox
positively
tracked
costume
bombardment
tissue
Cer
##gow
metric
Constantinople
vital
hopes
compositions
accidentally
inhab
sav
##uters
Glas
invaded
celebration
Magic
confirm
##eta
prototype
blend
##icking
##ilda
##oba
juven
Control
##ridor
Personnel
occasional
warned
Charlotte
maps
Shah
links
tornado
##quer
promise
##ni
Thr
Heavyweight
##limin
##hall
##isan
Merced
hoping
Liberty
José
cam
rains
##icken
variations
1864
anticipated
Joint
Youth
##igious
upcoming
Environment
genu
Chapel
Laboratory
Affairs
Sey
Titan
##idia
##ovic
##rible
Cornwall
AL
Saw
rib
##occ
Others
Agu
##hm
Pete
Voice
bomber
laugh
##oil
scandal
separation
batteries
Cryst
dust
##rogen
dozen
Bright
provisions
Isab
marking
accessible
laboratory
Pel
drift
sinking
rever
Freedom
impressive
##colm
Cinem
RO
guests
dependent
horizont
Kon
Sic
##fly
##ulum
Beth
##rior
drink
biological
easier
Gabri
Mi
Filming
nickname
ho
##asant
fires
##restrial
Sport
nose
therm
Pas
supports
politician
Gon
random
##agles
parliamentary
Friends
Chester
Term
##iah
indigenous
threats
avoided
afford
consumption
Bapt
lighter
##ER
##orf
Leices
Armenian
Bark
cu
##held
##artime
Marines
possess
progressed
Kenneth
Cand
Duch
fed
deputy
wors
##hart
biography
restrictions
Oscar
DJ
Members
Vick
volcanic
corporate
Cinc
Skin
XX
Chair
##ailing
Malcolm
Metro
##hou
Winds
##amics
imposed
Support
truly
Protestant
LP
Peng
Tree
cash
Antar
Meteorological
Mult
trunk
mixing
##heimer
Energy
Bears
rugby
thro
usage
suppress
occurring
particles
##atsu
Krist
Chamberlain
Orchestra
fles
spokes
photo
choir
Boulevard
murdered
Pedro
Cena
produces
Isaac
noticed
evacuation
license
enh
Than
customers
##changed
dreadn
##gett
wound
contracts
defenders
Dublin
MV
##acht
acre
131
ERA
exile
##oples
##alling
Zero
107
1862
Action
da
lawsuit
Lamb
tu
##mans
##earing
prest
relation
Athletic
intent
Break
wake
Career
Cyclone
##sts
speculation
killer
Guild
ordinary
##eno
abb
Slav
timber
nephew
fault
##asp
##rah
debris
engineers
hence
##gé
plates
Ord
angry
Take
Bradley
depicting
disappointed
Watch
##ieg
Altern
Eddie
Glee
##bach
aside
eastward
fab
##amount
developments
broadc
threatening
Pay
##encer
kilog
ignored
conquest
Dale
##emble
220
industries
Continental
encounters
decrease
Tournament
Esc
##eals
lyrical
##inated
##alg
##overed
##ahl
territorial
Archbishop
throwing
remin
complicated
132
Traff
ward
scar
157
Clar
Serbia
##no
Luft
mechanism
undertaken
revolutionary
thunderstorm
mit
##racks
##inz
Alberta
Cincinn
Tir
stern
distract
##umbered
vicinity
Fly
Future
mounts
convicted
Springfield
##itol
elite
strikes
humanity
touchdowns
Villa
mos
##opic
breast
confident
Tommy
championships
exhibit
conversation
Micha
##rosion
##entieth
##roe
##uka
focuses
Collection
Gates
Lower
Mann
penn
##onial
mammals
inaugural
Joan
lacking
contacted
Tint
gif
sheep
103
Shep
realistic
suspension
##lem
preserve
boost
farmers
##itime
##olia
Place
facil
boyfriend
Gibral
Kit
arose
constantly
Muslims
Uk
bol
metre
##ennial
helicopter
stim
##iked
posts
Studies
diamond
ferry
##etary
infection
Yugoslavia
tools
congr
patri
infer
McCl
Marshal
##ellers
voters
##liminary
Chet
##ocol
Speed
feathers
collaborated
predominantly
Malta
##amine
steep
asserted
##ischer
Friedrich
thorough
Wagner
RI
desper
##hanced
Jake
LS
##rection
centered
Gibraltar
Maine
Brand
##oirs
absorbed
Hood
Kaz
Rus
##tains
Shiva
releasing
castles
##quiry
Ga
Hull
holes
##iture
user
##uche
removing
Kid
grows
Waters
Cincinnati
Round
Comics
126
Parks
Robin
Taiwan
illustrated
Angelou
apolog
explanation
Ancient
##Hg
##LA
knows
speeds
peninsula
sustain
##ubble
##assy
resid
compiled
antib
##regular
bowl
Maced
##WA
breeds
canceled
Normandy
pig
isn
##sson
situations
Cort
mad
tune
chrom
independently
VIII
relieved
enorm
##auge
1887
Aub
Lords
119
##issioned
##rieved
Poké
Vegas
roadway
Hubb
Seb
lover
##ritic
Kill
##asury
Shield
pleased
Afghanistan
Alliance
offshore
Twitter
##aters
clergy
marched
Madison
layers
Olivia
aest
##aku
Edmund
1880
1863
##rels
locomotives
##music
outstanding
viewing
Conservative
prosper
##ulates
arena
couldn
1886
Salv
Lud
blast
genres
paying
Eld
expanding
Technology
closure
varying
##gary
backst
colored
Gregory
Rush
mild
butter
##overty
Leeds
Fun
mask
##omon
##ishn
##ré
sentiment
Burke
Former
##umberland
disappeared
Schumacher
##ellig
Brooklyn
bapt
asc
##izard
Revolutionary
perc
regulations
reporting
hybrid
suggestion
JNA
fant
lib
##ewell
##ribution
Orton
celebrate
Julian
##aneous
armoured
Mercury
Cond
##inus
##imony
Serge
fungus
Hus
##jection
Alt
conspiracy
inducted
Cut
Soph
##found
faculty
Princeton
Dennis
##var
##acular
anthem
attraction
122
McKinley
Nation
Sad
devot
reporter
romance
##zes
##inted
spir
flour
nevertheless
dropping
Browns
companion
Helen
eagle
conced
##eeping
witnesses
##sa
##rupp
blamed
Isle
Tigers
Cou
tent
submer
swept
oxid
Organization
Vern
##icles
##ework
fundamental
MLB
Cool
Ran
pseud
remote
##flu
Leo
publicity
organic
stored
atop
Chang
positioned
Historical
submarines
Chem
whatever
Stal
parking
aqu
mail
Musical
Coal
Ghost
EC
##gon
retreated
annex
Month
1884
##ught
ost
sulf
stability
Arc
verses
Barcel
Tab
lung
fortifications
fract
##usters
focusing
progressive
targeted
##onnie
shelter
condemned
inHg
Hubbard
Equ
NASA
gentle
wrap
trigg
Beau
swing
irregular
Glasgow
##wing
monit
noise
24th
patient
flown
Canucks
Opera
corresponding
crest
terminal
Kil
Tests
pole
drunk
resignation
disbanded
Devil
recruit
fossils
Political
Nass
Pick
detected
##DA
convince
confused
cruise
Solar
winners
melod
torpedoes
magnetic
challenging
verteb
telephone
SA
##hend
preceding
Herm
roster
Smack
rebounds
mentions
Product
Barn
machines
brings
quoted
Phillies
Fifth
rice
##eda
Inside
##ogg
Montana
Insp
regiments
studios
insurance
worse
ecl
Herbert
calculated
Oil
##30
##agi
directing
solely
tourist
concepts
diversity
##mont
##ema
cha
triumph
creature
##auded
BCE
bore
##icism
Tintin
Rou
Millennium
Rav
por
Theodore
unre
thanks
138
darker
Celtic
Morning
##eper
##iki
Westminster
judicial
Bour
nice
indu
230
1877
Strong
##enberg
##ishops
historically
hide
##onso
116
favored
Adventure
Nad
##mat
CEO
Dud
examined
Epis
scholarship
Mercedes
jersey
tap
##sch
##avian
##overy
Poe
##eries
Austro
Manuel
1876
Denver
rotation
zero
myself
Nam
Yard
themed
config
Basketball
Cox
##ht
##iors
##opy
##ewise
Expl
fragment
cotton
##zed
Athen
battlefield
Monte
##inguished
Albany
Occ
##abad
##ampa
prompting
steadily
wartime
##umi
134
Glou
balls
acclaimed
reconstruction
##arded
sharing
Sche
129
trio
messages
rounded
walked
##ör
Theater
Percy
measuring
Ronald
monastery
Sri
Ve
##iche
##acking
spacecraft
ghost
elevated
linear
Hir
##acer
##actic
##flow
Additional
Bulgarian
Gothic
screens
Cany
##arians
eligible
Syn
troop
connects
Aqu
Hok
Rivers
agencies
guards
agrees
oct
##atisf
Steam
##works
Ottawa
gusts
Verm
##gie
##elin
decisive
distinction
refuses
postp
radius
curved
routing
commitment
##reeks
##anka
presents
motif
Carlos
Nevada
cosm
##lined
exterior
Chuck
accomplished
Brien
kids
##opard
opined
clouds
Tow
cemetery
##alia
stall
##izers
revenge
arguments
conducting
Berm
echo
tough
##omical
incidents
Squad
hosp
walks
##aba
Paraly
poster
physically
Pokémon
Mak
Abra
Territory
proclaimed
Barcelona
##Music
creatures
kilometers
Caes
masc
##vik
##istical
Fran
##aults
encomp
participating
integrated
consequence
ty
##iffer
spell
peas
indirect
efficient
Prev
finest
1875
Bod
Mega
venues
##rians
recre
centimet
canon
rebel
Milan
width
Cardinals
Wis
##unge
loose
Michaels
runner
Enix
Pack
##instein
chann
Metac
theaters
##cont
scout
complimented
Body
demographic
lesser
properly
ceremonies
Tas
lakes
##atar
touc
##omed
##ectors
spots
enhanced
reminisc
Wel
mansion
ov
##itars
##ighed
prince
extends
Colin
Drake
contribute
Churchill
borough
deliberately
##iability
##ubs
telesc
Parkway
bowled
##arthy
Foster
intr
Unit
peoples
Raymond
martial
RBI
##yan
##rium
##season
varies
insuff
1883
Romanian
contrad
preparations
##cell
##ju
##odium
remake
Contem
heavier
Derby
Brid
southwestern
Wings
harsh
##asia
Emma
weakness
instructions
intermediate
ministers
Operations
##ho
onwards
Computer
transformed
Circle
##Down
possessed
1881
hurt
##abe
relev
playable
coaches
continental
Blair
Berg
optim
updated
Carr
achievements
RNA
##ding
##icus
Middles
SmackDown
Voy
Weather
##GM
##elia
Sciences
151
##ashire
Belle
sensitive
initiative
Wa
yd
airborne
logo
Dj
rider
##lake
Alam
outcome
marg
Diamond
Total
aided
pupp
Belie
Venice
transmission
propaganda
##HC
allied
critically
Northwest
Rosen
leaf
Richardson
consideration
Jamaica
##anus
unh
variable
##appa
orchestral
moist
consciousness
Paralymp
Bass
disabled
Marl
honey
1869
vegetation
autobiography
Powell
bin
##oric
monster
128
Calgary
tourists
emerging
##vironments
deposits
Talk
landmark
depiction
Composition
estimate
Duncan
exercises
Lancashire
Observ
Eisen
ris
##ido
spite
Arena
grid
Ferdin
migr
unanim
worker
Shin
1866
punishment
permanently
Henderson
##RS
reh
Schol
consistently
routine
municipal
Delta
##arus
Floyd
northeastern
comprising
borders
epit
presidency
##atorial
latest
doctrine
##iating
ascend
Isles
amphib
Psych
##core
##bu
staged
202
damaging
750
assassination
Mull
XI
dock
##chw
environments
performers
summon
managing
achievement
journalists
searching
delegates
subtropical
##riages
payment
sailors
##omys
authent
honors
belonging
##RC
##areness
witnessed
input
Frances
Mills
revealing
Planet
mysterious
##rent
Conserv
Ellen
encourage
psychiat
Using
Crawford
marsh
##IS
##cht
Cloud
odd
archaeological
confer
seal
priority
Springs
Rodrig
enlar
reluctant
Canyon
##hening
Holland
phenomenon
Range
gates
##iang
124
silent
preventing
dispatched
unsuccessfully
Leicester
##zig
anarch
venture
shaft
actively
argue
##lets
##imer
versus
belonged
hypothesis
mant
Marqu
lengths
coaching
Veronica
surprising
switched
Food
Crystal
Fischer
Vic
awareness
Grove
Palestine
gest
poverty
##isations
##rip
plum
strange
finance
corruption
eighteen
frigate
Fa
Starr
listening
disputed
curve
distinguish
executives
ceiling
SH
Tucker
Produc
1882
scientist
Fur
Ky
##asses
introduce
##ijing
Kem
sin
vamp
##immer
abst
directions
Region
contributing
mechanics
Headquarters
dimensional
##enh
##eches
Anat
exploration
##rews
Assist
1871
1873
expectations
rational
##ét
##osc
Films
Telegraph
adjust
boom
phosph
procedure
##gor
##Tunes
whales
metals
internationally
CA
fier
##anas
##usive
##lude
carved
formations
Kepler
molecular
Flanders
Mut
Ply
sib
##usty
surpassed
naturally
bench
mbar
1867
objectives
##inqu
##stown
##istocr
leagues
guitars
advocated
improving
Intellig
mystery
Hamb
Pine
Punk
UB
saving
##BO
##asaki
##eward
##assing
sheet
Truman
tribut
Hass
desired
privile
Nak
shipped
accus
True
Adri
Commons
reop
unrel
137
submerged
##ulture
processing
discussing
abundant
cubic
Dudley
convert
##istle
remind
requirement
overwhelming
##ierra
eleph
1878
staying
Standard
tasks
Desert
temples
acceptance
Masters
##ère
##ouch
##olan
reson
Why
associate
crucial
dive
##itty
milk
horsepower
Watson
Bott
##amation
##nty
Commerc
Beijing
Deputy
Hil
##waffe
partners
##angered
##erness
Exped
genes
Malay
Byzant
Led
Adela
explored
McCarthy
Chan
estates
blockade
comprised
Vlad
Raid
haz
pump
speculated
refugees
nervous
Mail
##assic
cameo
Robb
composers
opinions
Gibson
channels
Newman
Trinity
collecting
navigation
jaw
memb
adequ
Urban
resemble
fragments
##GB
Colomb
Archae
loaded
Rif
##vest
##utely
suffer
averaged
femin
undertook
Cu
iTunes
##isting
##amped
Clif
##verse
immigrants
Eagle
dil
##ilogy
##oting
##utter
Alpha
##heads
genera
Guadal
republic
hyper
habitats
Professional
Culture
turbines
percussion
Meyer
manufactured
seeds
posthum
compromise
rushed
stair
ants
##avil
complaints
faction
##rehensive
Aaron
##omes
##rae
assets
Monster
bars
gauge
##iden
##oves
metall
discour
homeless
##iggins
networks
Mobile
sic
repet
consequences
lesb
Luther
##CO
manages
underwater
##arma
Metacritic
##iastic
##employ
coastline
Appro
Wellington
Angle
summar
dissolved
ensuing
psychological
absolute
Method
Baptist
fabric
U2
eruption
##PS
buff
symbols
##di
##enne
contempor
goddess
honorary
##otypes
Luftwaffe
Want
ineff
##ographed
improv
Bermuda
##orig
consensus
lengthy
Timber
Shelley
##unar
relied
1860
ultimate
cave
variant
lemurs
Aguil
sear
upl
##mother
aristocr
brut
adds
loyalty
MC
fears
singers
##otto
diplom
Hat
##igo
signals
Riley
fraud
##ovsky
intact
##ugs
123
landings
qualities
Woods
reserves
RPG
unveiled
1868
1872
disappoint
eldest
Machine
CM
teachers
Otto
Selena
reconstruct
assessment
##lend
##through
Henri
Aguilera
Rah
##olith
##ikes
##ounted
##alysis
Notable
flesh
weld
stom
Marx
defenses
ambassador
interactions
doctors
##aren
amid
Shan
millions
Engineering
battlecruisers
emotions
spectators
##pit
##AL
##isch
chlor
Choice
delight
literally
printing
grossed
Various
comparing
tradem
pounder
Wolver
Ost
##rance
##kee
weighed
twentieth
songwriting
owing
##etical
clip
costumes
lifted
Ellis
enthusias
gam
##hang
##alid
##stad
Flames
##auna
Money
Female
enormous
##imity
Monroe
Cabinet
##icular
stabil
##ums
Hond
##ocy
Stage
engaging
intelligent
explosive
bacteria
Dakota
rally
##edar
Mk
cats
raw
dealt
subd
revived
Leigh
trips
##aurus
batsman
Nept
Wrest
##cock
##igrated
ups
##issa
25th
politically
##monton
appealed
instructed
patrols
Renaissance
Genesis
##dam
strings
essay
Expedition
deals
rocket
Knights
MVP
hier
tensions
##orge
relating
Newport
telev
reader
instrumentation
horizontal
##rob
stroke
enrolled
##grade
Soviets
Phillips
Chandler
Adelaide
suited
diseases
digit
Maxwell
bitter
WWF
graphic
subordin
hurricanes
anx
##bery
Curtis
Hanc
Sans
incompl
Heaven
gran
vocalist
extraordin
prospect
Geoffrey
clan
##endar
Barrett
referee
slower
Butler
Ferdinand
##neath
##hand
termed
Surrey
chapters
mushroom
reminiscent
Fab
Schw
intersections
exhibited
Abraham
##utonium
##odon
declaration
missile
etc
allegations
Winc
incred
##ologically
Therefore
wishes
##ulu
counsel
Essex
perf
overcome
Spencer
involve
mistake
discipline
##atem
Madrid
tactical
mathematics
Plymouth
Right
Prison
Capital
1850
gallery
disliked
Wald
shirt
cultures
Metal
Romans
Burger
Combat
sacrifice
GameSpot
Gonz
hunt
Chin
Heath
interference
modest
joins
quantities
Lie
Tall
##ED
Movement
Keat
##ulk
Screen
transit
widow
thickness
Lac
NL
frog
##odied
expense
proceeds
Code
resur
syndrome
Come
finger
Resident
Marcus
fights
##tic
Adrian
circles
caliber
nicknamed
Bosnia
A3
Py
##star
assign
supporter
Aviation
bankrupt
Contemporary
migration
##wind
##urers
imported
machinery
rifle
Hancock
Gaz
Kerr
View
spores
interviewed
Contin
Relations
##kinson
panels
locomotive
nomine
Brigadier
##pin
fatal
repaired
gaming
washed
Flood
Garc
Fergus
Daniels
fluid
Brew
Tales
hect
continent
##opsis
Florence
##iti
##agons
commentators
custody
##anto
shopping
Nobel
molecules
Ports
joke
##stand
Heat
Publishing
proximity
##eded
Spit
Reading
Agricult
Baldwin
Tasman
beer
Jeremy
##otilla
Hergé
currency
Admiralty
Usher
fluor
redesign
Mom
Pall
##athetic
##arted
Lead
Norse
Twenty
Laf
mim
##cious
##ichi
curves
Arkansas
pronounced
Vienna
Pont
lip
whale
Preston
Manning
Romania
acquire
Architect
Jennifer
Kub
hatch
##nut
##aston
allocated
Ltd
##asse
##enders
##ikh
aviation
Article
Motor
Leban
contested
undergo
successive
separately
knowing
rulers
floors
Banksia
CC
Num
Put
tong
##vor
##xide
##itects
##eli
##imir
##osity
##umar
Stories
unaware
demanding
woods
memories
##achelor
Buch
reef
Shadow
McDonald
JG
af
##eria
##elfth
populated
1879
##wig
##orus
disgu
maneuver
preliminary
discussions
gathering
keen
##ungle
Lear
Sep
##tage
publish
northwestern
comparable
Idol
##pat
interrupted
Newfound
Minogue
Make
zones
##rez
ally
##ogs
regardless
Electronic
scrapped
Lithuan
Pent
dawn
##yd
McCain
cylind
cylinder
Bengal
Cos
Sib
golf
##olo
Chase
141
Capitol
bills
screening
farms
Skinner
Mile
Ree
##lu
##ourt
Allmusic
Orthodox
Character
Bowie
demonstrate
editorial
advances
discontinued
Esp
##entric
chord
subsc
damages
editing
tourism
massacre
installation
Hawaiian
146
Edmonton
dynamic
nineteenth
Hous
paved
##qual
Sponge
Industrial
Hors
##iri
Perth
##ellan
Spin
Lancaster
halted
##istence
unrest
Suff
Single
sporting
Sr
##urse
270
Newfoundland
sew
regained
licensed
gravity
proud
grain
Senior
seemingly
uprising
neighbouring
therapy
administered
Jur
erupt
liver
##cr
##atha
busy
Turks
harbor
crowned
gamb
##nders
projected
instruction
opted
functional
##list
##nda
##tees
protecting
contracted
disputes
citizen
Trou
##oning
##olves
perpet
regist
creates
lessons
descended
Hoff
nights
##opal
openly
deployment
Beautiful
barely
masses
descendants
Circuit
joy
honest
privately
orient
cooperation
##oi
Senators
symmet
accomplish
##yramid
ion
muzz
totally
captivity
CN
Logan
lux
##how
##irk
deeper
coloured
generals
corridor
Prepar
Maxim
northwestward
steady
Chop
quit
collision
planes
volcano
jumping
Buddhist
ibn
Shank
atmospheric
Janet
Mounted
Caroline
ambitious
farming
outdoor
Jen
Tiger
nam
chess
rapper
Motion
##isphere
##plex
Louise
necessarily
delegation
invented
delays
lacks
Adventures
roller
coalition
FM
Roth
Task
nests
Protection
mutual
reiss
cream
Generation
Nashville
oak
##mel
##estion
conting
##ugu
Myst
jokes
Blake
149
Kens
Rams
Sierra
##oat
##aceous
presum
developer
Online
##inae
Glass
fatalities
Survey
Productions
Aur
##drop
##iev
tracking
declaring
excessive
Lynch
Gene
Store
Trip
file
greet
trophy
##vy
##Pa
##oded
Trad
AllMusic
advent
Harper
Palmer
##sby
##houses
IC
##cons
teammates
Gran
Commissioner
Cann
Gust
rer
##nal
metap
Plaza
##ficial
Emily
copyr
prohibited
Pra
lava
##oan
shops
Airborne
calm
gains
##ão
##hero
Chall
##raid
unemploy
divine
Moz
Apart
Dh
Hait
Yet
operator
Parachute
struggling
kitchen
##graduate
Kes
##iots
Consequently
sixty
210
recognize
athletic
##otus
##ovich
Paramount
honours
Busch
pregnancy
aggregate
##zac
##isans
unst
Bloom
realizes
Drama
Garfield
Devon
Damage
cabin
Maurice
EU
Nothing
##tt
##yers
##etus
generate
eliminate
tum
##OR
hur
##etcher
1848
ironcl
##ocene
backup
storylines
edges
Chairman
Pi
dug
##HA
##itches
minim
##elfare
operas
findings
merchants
##nolds
Bast
auction
clay
reserved
Quinn
draws
attractive
pine
##achi
acquisition
incomplete
##hurst
##ibl
secular
soap
param
##enches
Regard
Soft
unusually
1874
surfaces
Griffin
memorable
Chancellor
Arctic
decomm
remarkable
ridic
Sold
reversed
##ashing
transc
experts
##rosse
Panama
package
##ymn
##holm
proceedings
streams
caution
sketch
conjunction
dors
##anan
##ushes
princ
freed
Franco
adaptations
unpop
scenario
grants
##legiate
Large
perfectly
Pon
chances
disrupt
Spy
substance
ruins
pedest
##mill
##istically
144
restaurants
Finnish
keeps
tennis
##ilia
overd
metropolitan
electro
sufficiently
Booth
##ophical
Starting
##eting
Ref
Reform
Holmes
Valent
motorway
insufficient
SpongeB
Junction
Tyr
shed
##owing
outs
Armenia
lobby
Michelle
##birds
Windsor
Dian
HM
Number
fox
detached
Phant
lifestyle
worried
Lindwall
allegedly
veterans
Cec
resort
assessed
modes
Serbs
Doug
Jacques
emphasized
floating
##igger
progression
tunnels
Tunnel
diving
hiding
topic
Solomon
Formula
unpre
festivals
Cant
Yok
##lies
##dan
Drum
Koreans
Arabic
demonstration
##rolling
manifest
Too
erosion
##agic
overth
Edwin
incorporates
loading
Squ
ber
##rozen
Spiel
##isle
##oland
Guatem
##uxili
Stanford
climbing
plutonium
trap
butt
Claire
speeches
muzzle
Randy
Sue
coc
monitor
##ooter
Superman
Hyd
##brook
Monday
Berkeley
Lut
Nab
##ivic
attachment
280
escal
floods
Illust
synth
Wool
rays
##nell
##olades
Gerald
crust
Kiss
##bus
Presley
puts
amendment
internet
Legion
mobil
prosecut
diagnosed
errors
tended
##ci
##adows
##ictions
centres
metab
investigated
Luis
pleasure
ranged
upgrade
appreciated
Martha
warrant
modifications
Guards
flee
haul
##ovo
introducing
counteratt
Fac
naked
##igon
consent
##ographers
merger
Anti
immun
Cuban
Viol
ease
##atri
##oline
incons
133
##official
cameras
Pierce
inhabited
Ober
generations
lineup
Mam
phyl
turt
##imination
##erek
notion
securing
Jennings
comfortable
##penter
##raine
##VA
item
monkey
goalk
Manor
Connor
Soundtrack
Rhodesia
Bulgaria
Ib
bonds
nearest
Augustus
thoughts
confined
##lessly
qualify
Irving
thrust
hamlet
Broadcasting
Pun
##pus
stance
depl
enable
1851
Finals
Delhi
strengthening
Gabriel
Commercial
##si
##isor
ampl
Chapman
organs
Ess
pushing
revel
muscle
Price
maintains
Warwick
artif
electoral
reads
Kot
cere
Sword
Mirror
Turnpike
Gas
soci
depr
Lay
##post
##rock
##igar
##apa
##eason
stripped
##force
##overning
waterline
doubles
colleges
##ocaust
##avour
spur
148
Glenn
speaker
embarr
Hayes
SpongeBob
Wake
##mm
##DP
monks
##veloped
McA
elderly
##imid
Plat
restr
graduating
grandson
Hopkins
Fear
Need
sus
Sunder
flags
Jeffrey
Subsequently
CG
Fan
witch
##engers
Berry
ensemble
enthusiastic
sty
##ripp
Things
##osystem
AF
Bog
##hower
tool
retriev
sacred
Global
SN
preval
successes
filter
legitimate
Easter
compact
carn
Suz
Borough
vit
##vent
##odia
##opters
##ountain
Edgar
carefully
applic
exhaust
brigades
ESP
136
Fletcher
courage
barrier
stepped
Spielberg
Hess
rent
rookie
knock
entertaining
escapes
laying
layout
eleventh
monthly
Manager
infected
Crime
sexually
incorporate
Reviews
Laura
mes
exceeded
Brandon
Southampton
##osphere
darkness
Kenny
compensation
Saints
wounds
arbit
frontier
honored
satir
Bangl
Cave
##esters
##isb
##oints
interfer
promising
readily
##ophone
healthy
Bolton
genuine
Pirates
142
defeats
definitely
Venus
Patton
Bee
##opl
drives
pressed
mistaken
##rified
consequently
##erals
##ibal
invitation
monarchy
fusion
##andin
tram
rely
Hammer
Artillery
##umni
370
NOK
##zing
Truth
Pros
midnight
Basin
maneuvers
Doc
anger
##abet
missiles
slowed
sophistic
spawned
##icon
leather
aggr
thirds
Hispan
Artist
diary
Hendrix
Principal
##net
locate
concludes
reflects
Goeb
Gardens
pupils
unpopular
Porter
##elic
Leader
convinc
profits
identification
Crane
employee
Rocky
disappointment
Member
Rugby
##onom
scor
demon
##oshi
negotiated
Sebast
Fol
##alus
##lew
bend
destination
magical
blacks
measurements
inscription
Kas
Ming
m3
##neum
competitors
exciting
Lightning
retrosp
coffee
Lakes
##RT
cong
heroes
computers
northbound
refit
celebrity
Treasury
traits
tide
mirror
controlling
Eisenhower
Kor
Wals
##nor
consumed
assume
Argentine
Stefani
Hip
Pool
Was
assignment
smart
affecting
Nebr
##olics
##osely
colonel
Nathan
Yu
##alogue
posed
automatic
midfield
physician
Warsaw
Powers
lined
##ndum
deciding
Cla
testimony
##canal
Lucy
accuracy
Ny
Sed
dorm
freight
choosing
predecessors
AIDS
neighboring
Gone
IU
Mead
Sz
fo
jail
lion
##jud
##atum
forts
Britney
distances
Flag
duet
struggles
evolutionary
stomach
Ferguson
Dy
Fant
psy
##len
Almost
capabilities
Euro
Sussex
procedures
Bav
##inite
##tershire
Willis
topics
antiqu
260
Peg
##PC
Rhode
arcade
unnamed
##lass
abd
realize
Castro
drainage
Hast
##ayette
oral
wouldn
##shi
Columbus
Morton
relevant
Guadalcanal
Hutch
Tib
##cepts
herald
Spect
besie
Reynolds
Hank
Ned
Vas
##uates
##chy
##essa
seiz
##adequ
regret
momentum
preceded
suburban
##uchess
SE
rush
Franz
tribal
Variety
##nam
##inate
spare
acids
##archy
##writer
Universe
volunteer
Citiz
Kle
Mumb
Municip
##uania
##dict
##aru
requests
hardware
choices
illustrations
##changes
##rimination
##ente
##ishi
blown
respected
trem
Rice
bold
##arts
bread
feminist
settings
Annie
kicked
Munich
Site
##cence
Places
##ylum
Russians
nobility
advocate
Hig
warriors
speakers
burst
Beyond
limitations
Lithuania
dimensions
Nebraska
Greeks
sou
incorrect
##beit
teenage
Batter
Hanna
aug
governing
toss
Stop
twelfth
Popular
bassist
abolished
tea
anywhere
suspect
crystal
Dre
Style
lease
painter
resembles
enforcement
underneath
proven
wanting
Crom
absolutely
endorsed
##ainted
##uchi
conquered
skeleton
Dry
Dawn
##RI
Calvin
Quarter
Intelligence
Balk
Eighth
Ster
Vul
##iott
##berger
Herz
##marine
thriller
precise
nationally
comprises
nickel
Lithuanian
##ression
##isbury
Britt
Boyd
lemur
accordance
congregation
Page
##itating
##oton
##ocese
shadow
prayer
Hammond
Ultimately
municipality
Doll
Gam
Lav
##auer
ware
Eugene
extraordinary
namely
Gross
Pred
##lance
inex
##roft
underlying
maturity
secretly
NA
Pand
Va
commerce
##soon
renown
Distinguished
Catholics
Derek
Rather
##mitt
revers
fortified
imprisonment
rod
##vae
anat
Kath
Rhys
Wed
##bing
extant
diff
fees
1859
plastic
##ipel
Comic
specialized
safely
Lois
rumors
innovative
dorsal
Lag
pian
seize
extinction
1880s
coupled
deriv
negotiate
judgment
Southeast
Kos
fever
jam
locked
##kle
##él
spher
customs
substantially
Ultimate
Diet
Pend
##aque
##elest
totaled
genius
Roads
Remix
Robertson
keyboards
Raf
Woll
Wander
##pling
united
scales
Shir
limestone
barb
catalog
enacted
Shack
preview
139
nationalist
specialist
Model
gifts
##lides
##irmed
albeit
scope
Convers
Associated
Dart
Gav
Mine
##ilis
atoms
##quet
retaining
1200
Canber
conviction
unders
hanging
eaten
millimetres
subsidiary
BM
chains
Blaine
efficiency
##iji
trademark
copyright
Loc
fart
mall
rewrit
Chi
presc
hospitals
Wrestle
##bage
##abling
runway
societies
pige
dragon
pointing
Swan
Brah
Taxonomy
fitting
##uin
##inely
##arse
Hein
Alban
1845
Sunderland
Kay
inadequ
##oub
##ilian
##adic
sphere
Fraser
Outside
Joyce
throat
##cat
##ecca
Joel
preservation
realm
embr
investigations
crowds
reinforce
merchand
murders
welcom
riot
##ctive
comprehensive
deceased
designers
southbound
factions
divide
volunt
Reds
##agonists
Nu
Gameplay
Metall
Salisbury
summary
Hamburg
fib
fake
##wer
##outed
perception
guided
occupy
garage
axis
Scouting
Brighton
bout
meg
##rand
stunt
cliff
infant
introduces
achieving
thinks
Stalin
Bun
Willie
##urrence
Amaz
Double
sexuality
intercepted
helicopters
Kom
adher
##otta
inflicted
facts
domain
Linda
Jenna
confronted
##fold
relax
blank
Train
Myc
Holocaust
hym
contrary
Arms
freshman
Lesser
##zi
##RO
servants
realised
breakdown
Whitney
Timberlake
Azer
HIV
rape
##oni
inquiry
##mented
##anga
147
vacc
toxic
seventeen
RIAA
HV
Lan
tender
##IC
resolve
gram
highlights
Torres
mouse
alert
monsters
Promot
##agonal
permit
athlete
tendency
Dominican
Coul
Racing
fut
##ér
scorer
Norton
Arabian
Axis
##sburg
Shawn
protective
Anders
##aniel
Buenos
prosecution
pitching
Block
##ometry
effectiveness
availability
excited
Portsmouth
decommissioned
contents
solutions
ballot
Pitt
cement
dome
overh
substit
Sha
grace
blog
matched
admired
##iggs
Scotia
Karen
rolling
synthesis
Feat
##acco
Singh
drawings
referendum
lesbian
basement
amino
Monument
Resp
Dayton
Snake
Petersburg
Kann
sid
activated
ancestors
ram
monuments
Forbes
collective
Gat
Kur
oz
##asi
amazing
Aircraft
Ré
Elliott
irre
adoption
##part
##ovan
spont
Scandin
depends
careers
insect
Nonetheless
Cock
botan
Information
placement
endangered
performer
suburbs
anthrop
Besides
Sicily
py
##ław
alumin
##osal
cler
engr
homage
Galile
citizenship
skiing
Ferrari
mere
##py
##ignty
##ithm
##aceae
Ana
##audi
Bailey
Webber
Durham
ESPN
Mü
##itory
gren
stopping
denomin
concluding
##cliffe
Hiro
SMS
rode
underm
regulation
meteor
barracks
##ommun
Humph
mathematical
Omaha
FC
Lodge
##DT
##child
Arn
Economic
Aj
IX
##rina
Chal
reliable
annoy
varieties
##nae
motivated
favoured
visuals
##iatus
Engineers
##rav
reject
##elda
ears
Austen
runners
Hugo
Till
cit
mast
##rang
Strait
worlds
countryside
Gardner
Birth
Tell
Wend
bishops
dign
##oids
##onde
commended
worksh
##retion
departments
semif
Historian
dinosaurs
McMah
reconcil
Caesar
binding
jew
##alan
Imm
goalkeeper
Osw
Wang
XV
##armed
##adoes
organisations
colleague
unhappy
##uxiliary
Lope
Ruther
##ride
millimeter
solve
funk
Jazz
Smy
hipp
seasonal
receiver
slot
watches
Maple
Nem
##kar
governed
ambig
reflecting
Philippine
satisfied
democracy
puzzles
Mumbai
Duchess
Wick
lingu
##acker
##hyd
cheap
fortune
Priest
dominance
Moreover
installment
Bahamas
Wilm
##uity
##gun
stuck
specified
MacL
Democrat
accelerated
rehabil
Assistant
AU
##rington
##estock
phases
terrestrial
talked
inherit
eccentric
Canberra
Hers
tyr
##jord
##hey
##ishna
schem
guid
Monica
1854
woodland
fails
correspondence
diagnosis
Prussia
Wid
##lip
##jar
##IN
exagger
averaging
observers
borrowed
Pix
##etically
##sover
goalt
eleg
Angela
1840
incorporating
explicitly
Giant
Wu
pocket
relay
##pring
maritime
##ealous
persisted
1857
##unciation
isotopes
Rovers
##oop
thir
##phan
distress
downed
Gren
activist
silence
clever
Concord
Lopez
Wong
##tz
##stock
##uba
businessman
siblings
lod
##pa
##zym
##front
mineral
Syrian
Cruz
frustrated
juvenile
NME
leaked
cluster
Newark
performs
exhibits
Aw
Diana
Eagles
##throp
Compar
Plate
detachment
charting
photos
boarding
ensured
Distribution
precurs
remarks
Pearson
na
rav
##omorph
##ported
##agedy
Aires
valued
configuration
Cert
Rid
tier
##lay
##oufl
shortened
Recreation
conductor
Palm
morale
ecosystem
sanct
Oppen
Falk
Lions
fus
##enary
##avity
presenting
orbits
Creat
sounded
Bened
##ET
##idity
##imo
Stark
##aunton
buses
anchor
disagreed
##iblical
Yang
##eros
trilogy
intentions
avoiding
AN
Fell
Og
Tampa
##riet
variants
Emb
##boro
Joshua
##ệm
##isa
aliens
unity
expelled
slopes
median
oversee
Engineer
Concert
##ovakia
sau
develops
descriptions
Beast
immigration
northeastward
Volume
Jesse
ven
##arin
##rove
stip
trump
Playing
Diệm
reunited
poisoning
Kang
bicy
née
##had
lowered
determination
immune
orbital
Holden
##horn
##oro
##artz
Compton
##grim
Claud
superhero
320
steering
portrays
Franç
Mig
vibr
afterward
regain
strain
143
Neither
cinemat
outlets
##wald
accent
Adult
screened
Ble
dy
pir
rises
##rush
##etics
scripts
##iker
foundations
organize
persuade
Crew
Jag
RS
saves
##itational
retiring
##aird
depot
##enez
McE
doubled
Destiny
prominence
##mons
##aland
Ard
larvae
Trin
cheer
responsibilities
bowler
Rhine
Eb
SC
dish
inev
inability
chambers
plag
lean
##ailand
primitive
##swick
attributes
drops
shelters
frigates
continuously
Environmental
overhaul
dio
##oqu
adventures
dreams
Hannah
Adriatic
Laz
tailed
##zel
imper
freely
Philos
bigger
Savage
Nan
OC
##zens
##atoes
pray
Armed
##pressed
##aunt
Immedi
symbolic
narrowly
Ashley
Knowles
bag
##ifax
overtime
entertain
Hallow
judged
550
peaceful
fairy
Ivy
welcome
cord
misc
##Mania
##idi
tract
##lesiast
smallest
Bangladesh
Gy
ot
wool
##iman
impair
##lining
Butter
##ighthouse
Tank
tales
##ede
##ogical
Schools
breakthrough
graduation
silk
linking
Writers
roofs
enlarged
Dover
Gaza
Ja
hes
Allan
accommodation
manuscripts
Hollow
pneum
trails
subtle
acute
Kingston
deton
Singer
1858
Dodgers
Have
Jin
SAS
Teen
##atab
##arte
Brock
Retrieved
abolition
Tradition
Bj
hell
veto
##oj
abrupt
responses
loves
excluded
Antarctic
tongue
Lich
bred
##elage
commands
accepting
330
financially
spectrum
Moving
Alexandria
Data
##pow
revenues
Written
transformation
isolation
ba
##vas
Left
##alford
legally
patch
##rawl
Bahrain
##GS
##rep
##omfort
##pered
##unker
Chapter
Birds
Costa
sovereignty
centimetres
Name
##chester
Spot
Guerr
McMahon
Rever
##icia
##amous
##ovina
shortage
expressing
launching
Betty
quantity
kidney
relegated
##avilion
Fiction
##uke
##CN
##emics
conform
Travel
oversaw
1812
convoys
galaxy
Limited
Celeb
Drew
µm
##vo
##ometown
priests
Presidential
segreg
deteriorated
unwilling
contemporaries
welcomed
Sag
blame
counted
entries
activists
Crash
clearing
enthusiasm
##aton
##ingers
reapp
Minne
swall
Indianapolis
Capcom
economics
Danube
Observer
fierce
Rutherford
Away
Given
Hod
Sah
gig
tables
##aline
##opus
##oths
##etti
technologies
XIII
rejoined
Sergeant
Dana
Gand
##ked
frames
shocked
##oya
bullet
sympathetic
accumulated
Kra
Male
saint
Avon
polls
Dum
Faith
Liv
pp
##atters
alarm
Johns
Reid
1849
grandmother
tournaments
climax
Neptune
Tibet
Crazy
Lans
Lomb
##stead
anonymous
##ieu
shipments
medley
1856
Hutton
dull
duck
fratern
managers
worthy
recommendation
nitrogen
phylogen
Dob
Ful
reel
Fringe
Afterwards
array
Underground
Julia
##original
televised
Winchester
##ptic
conserv
subjected
##kien
uncons
Halifax
evacuate
Astron
Rip
##essing
##ibe
telescope
Dock
##itative
alk
##avo
Thailand
propeller
lawyers
Compan
physic
favourable
beds
hab
##raits
1890s
casem
pollution
narrator
nucleus
confrontation
Prussian
Dynasty
wonderful
aster
intrig
disk
Coch
neu
platoon
pursuing
theoretical
Hebrew
Cod
##entry
manor
harvest
Wheeler
displacement
##olithic
Bever
##atible
##icz
beings
heating
conclus
investigating
encouraging
superstructure
Dex
OS
welfare
whit
incomp
contacts
scream
manual
##eva
accidents
##clop
catches
Discovery
Middlesex
Lil
Nig
Um
vow
##iya
##EF
recapt
##ensing
##graded
Barber
meanwhile
meantime
imagination
Gould
showc
Bradford
comparisons
altogether
wrestlers
prolong
Kend
cott
epid
admits
ARIA
recreational
Gö
Haven
brass
criteria
averages
##oeuv
dramatically
inferior
Ses
stake
##arta
newer
undergraduate
reviewing
postponed
BL
gills
lauded
##igging
Stafford
affiliated
hometown
tired
vin
shale
preference
expenses
refusal
captive
trout
Norwich
##ropolis
Trafford
##world
deer
plug
##actical
Angels
observe
Interior
Primary
Sebastian
renowned
Pitch
Sul
sax
tends
##12
trace
##ikk
##oyle
viewer
declining
Medicine
Donna
rebuilding
Jessica
Sugar
Lafayette
Jak
Tina
Vince
##aises
##idad
sued
Evening
Java
Rare
lunch
##mo
peripher
ordering
##imentary
Freeway
automatically
WrestleMania
Ps
##cor
##ouk
lev
parade
everybody
terrible
moderately
Cly
##opold
Marcel
photographer
calendar
ceremonial
sends
Stewie
Rot
Vaugh
##cip
##atas
Level
Byrd
socialist
planted
dedication
manufacturer
supposedly
advertisement
thunderstorms
triggered
wages
##woman
interrog
Commodore
##alties
disturbed
Rochester
monitoring
Ley
loses
mock
##ilus
##avi
implementation
purely
Erie
Log
dolph
##nery
##ormal
##roduction
admission
Literary
Happy
curric
fins
seam
trucks
##rup
Weber
recommendations
Cai
libr
##anor
stun
##redited
discrimination
Coach
##ohl
happens
drowned
degener
kinds
reasonable
exempl
Rank
sink
##amework
##egu
marble
Hawk
concentrate
Damasc
Hunting
Gloucester
Kol
Zoo
##oner
##amo
##herd
freestyle
Jets
Tong
Wade
gospel
wond
##dish
smoking
Canadiens
Advance
Brunswick
Private
Rama
cater
nost
##rative
##idian
##oved
spear
buying
passages
Friend
Behind
thermal
CIA
Moor
nurse
rows
##ovny
Thurs
Grad
Being
confisc
civilization
rectangular
tear
##oping
apprent
650
Cornell
timing
mortality
Wyatt
neighborhoods
exhausted
Shakira
Duchovny
lor
##Far
##agara
discl
1852
nationwide
Forever
Sharon
controller
guidance
Oppenheimer
bureau
tiny
##hot
##van
Individual
destruct
portraying
democratic
Nim
sided
coaster
Richards
Mahar
tornadoes
Thorpe
batsmen
Folk
Miy
##the
##hal
##izable
Shore
publishers
nesting
unnecess
dent
##bai
##quin
Guest
capability
objected
promises
detective
##asterly
affection
Basil
Heming
Joker
##atz
##arre
insurg
Moh
boards
induced
Better
dys
heter
##matic
##OL
##IT
##omo
##ifier
##flies
statute
Cohen
Metroid
Student
1847
Yankovic
Shen
Ved
##haus
##eca
Peru
amounted
labeled
Dame
Pike
communicate
philosophical
Hindi
enclosed
Current
Episode
Kun
parad
patent
Volunte
utter
Iraqi
Visual
iconic
Elder
adequate
nas
##plane
instances
Myster
radioactive
celebrations
accounting
Fow
Niger
lady
##oux
##ocate
##astrop
sparrow
skept
skilled
Milton
1855
demolition
torture
Hern
##ucc
##idan
client
invested
operators
Reilly
##unta
Louisville
complexity
farmland
Karn
##emia
filmmakers
Lebanon
wr
generic
swift
bedroom
Immediately
##fast
interface
slip
Darren
recipient
abstract
sophisticated
Miguel
Clement
Venez
##irable
Harbour
helium
qualification
testified
harder
1846
cancellation
1830
manufacture
sandstone
virtual
culminated
aesthetic
Rhy
reper
shirts
##ordination
crus
concurrent
Did
Path
##iem
##bone
regards
skirm
Eye
innocent
Damascus
##irs
##ribe
violation
##guard
ACC
Rhodesian
Hastings
Mits
Vocal
##fires
##ów
##elly
clerk
Archer
Virt
discharge
##ipelago
Humphrey
Saudi
##isure
##send
##chev
broadcasting
divorced
conceded
Sansk
Feel
Hundred
hollow
assured
purple
##eddy
ancestor
Euras
Paper
nu
##comb
##urated
donations
##holders
Juliet
dissipating
Rupert
psyched
Zelda
##éd
##omi
##apor
Alonso
flaw
Aside
coached
possessions
1832
rubber
tackle
Gwen
camoufl
convincing
Pale
peers
premise
Georgian
consumer
Jamie
horns
Siege
Influ
Arist
categor
ingred
Lexington
desperate
Cret
Nolan
Sit
fog
sting
##elles
regener
##ounce
##umbering
Doggett
Chetnik
Azerbai
halt
sits
##yon
##kney
##imson
##ourse
##rys
perimeter
Glac
Annual
ruined
Fen
Kiel
Mater
lots
##elong
##entin
herb
disrupted
offspring
dioxide
Case
Langu
##assium
submit
guys
devised
oxide
mirr
Hispanic
Gret
Gael
cogn
oath
##iology
##aca
clusters
##atories
Julie
Initial
rendition
sovereign
diminished
Safety
kilograms
Cay
Mered
Pos
Tomb
##eur
heated
defender
reddish
declare
architects
investors
##zyme
Tonight
Loch
dining
##bred
Thirty
##elyn
Brisb
parallels
Fuller
Kön
Por
ore
##WR
##inos
##ilight
##manuel
flies
##ebe
corners
Stockholm
accusations
Approx
nerve
##cu
##gae
##amy
presumed
##ommon
Neigh
mortar
Buckingham
Mansfield
Bess
Pret
Stern
Twin
Wess
##uj
##cul
##asma
##eback
Decl
acceptable
Cubs
livestock
Minneapolis
Clear
Alien
##athon
Warriors
23rd
starter
opener
companions
viral
##alore
##eways
##quel
Eyes
Worcester
plumage
Meredith
Brisbane
Carpenter
landsc
eighteenth
remnant
sleeping
relieve
abbey
EMI
LC
hate
trop
Shear
particle
Orland
payments
strictly
posthumously
Bent
Kamp
cros
lord
sacked
##oque
backdrop
persona
victorious
exceptional
colonists
boxes
manoeuv
Indeed
premier
##raints
microsc
inadequate
Halloween
Hipp
Lanka
Miz
Wimb
aims
##amus
beaches
205
##ibles
##ensen
Patric
feedback
philosopher
throws
Scientific
Methodist
Sanskrit
numer
Adolf
ballet
archbishop
MacD
dissatisf
##addy
commemorate
mosque
manned
defining
Leip
Flash
limbs
Wildlife
cooler
schemes
Spl
##wy
profound
cataly
Beatty
Origins
beside
orientation
Bund
##ados
##unct
knight
announcing
combine
1853
Auto
cooking
Core
bra
hiatus
tet
##arck
characterised
guerr
Northumb
altar
Cherry
presumably
Wey
fu
##lide
##zon
clause
##ledon
corporation
##sequent
Grande
penalties
Shackleton
Bard
##thouse
##union
unofficial
slope
Rein
breach
Keys
Supporting
##girl
thread
sparked
##raught
##cestershire
##ificate
Leopold
André
Species
Carte
Animation
Sinc
##eville
Colbert
makeup
Moroc
counts
broader
instructor
Yale
relat
monsoon
##erves
humour
27th
uncertainty
Wednes
lith
tears
##iop
##ivided
##afe
Hampton
packed
diesel
Orlando
Aval
Bf
Exam
infilt
nonetheless
Subsequent
wrestler
Seym
fals
spans
##cedented
##tingham
conventions
portraits
railways
Casting
observing
collectively
Kapoor
Aberd
hub
##evo
define
debated
Greene
wildlife
sharply
lectures
forgotten
outfit
wears
##ivier
spark
formats
##byter
senator
concentrations
Persians
Wheel
Approximately
Cul
zinc
##icating
conning
Chambers
button
Thanks
antagonist
Palestinian
Sleep
Dexter
Seymour
Lak
foul
##pop
cloth
##aho
keys
taxon
reflection
Corner
Cum
rabb
chron
enabling
retal
Shane
differs
Georget
fundra
1841
kilometre
mechanisms
speaks
Lynn
clinical
advertisements
Wesley
Bord
##inks
traced
##uclear
Parad
refusing
Galv
Persona
nominee
Hoffman
unprecedented
je
lords
##hist
##rator
fright
framework
servant
Quint
Knox
listeners
fantastic
##mass
##utors
##illon
Cha
triangle
Crisis
Bergen
Neill
emerge
Krishna
reporters
Complete
Gem
pard
##adar
Albion
Welles
Viking
Panthers
Troy
additions
courty
resemblance
climbed
Fey
filling
pac
vault
tob
##ulent
seated
amp
elimination
landown
##rescent
Belarus
hyph
Victory
purchasing
routed
Horror
Coalition
Dund
##ña
##lyph
reclaim
remaster
whereby
Carroll
southward
everyday
Jackie
ridges
stretched
Technical
Sometimes
Hokies
Mechan
##inas
##agne
##rities
resource
disco
Belgrade
1844
motorcy
pulling
##idelines
comedian
prominently
Made
Self
##ioned
##vern
statues
Cardinal
Oakland
Sinatra
Pilot
spirits
hectares
Numerous
Sales
eager
##itus
sealed
##ancement
Animal
dozens
Students
Winston
Working
powder
Cinema
Dixon
Ves
##bul
##uru
##actory
##anni
similarity
##umbent
currents
teenager
Hemingway
Garr
Seth
porn
##lair
composing
muscles
angles
guaranteed
Dors
Kw
Qual
unin
Alc
steals
Kahn
ancestry
Cecil
Venezuel
MA
lav
onset
interim
weird
realism
22nd
hotels
Ferry
uniforms
boiler
Bé
Own
Unf
soccer
frontal
Harding
devastated
Mau
Vishn
mating
##nant
##rimin
shipyard
entity
electrons
sitcom
associates
undef
expeditions
patronage
skelet
##lesiastical
Dew
Vij
cigar
##DOT
##usk
chim
enzyme
##ooting
deadline
shoots
Campus
counterpart
Surviv
pioneer
Dawson
Achie
Jet
pub
##aic
##vous
##itia
exchanged
overnight
accepts
maybe
Guam
contempl
integration
##hrer
Getty
overturn
##continental
MGM
stup
##chair
seating
spy
##ević
smugg
transports
deleted
practiced
Transit
1836
spreading
Systems
guarantee
Very
##11
##actions
invention
Eleanor
crazy
##elman
##sten
Pradesh
biology
recovering
reinst
Barton
beta
Anglican
chaos
Wisden
summoned
Kids
fond
jealous
##lett
##olving
wheels
broadly
hosting
magnet
elementary
supervision
reopened
Claude
unconscious
Bret
ES
##kward
##erman
##ithe
enzym
##anca
crack
sometime
utilized
abundance
##ifferent
Bism
Typ
##enstein
##omans
prose
deity
gravel
poets
Battles
##ortunately
geographical
jointly
Herzeg
Kyl
pant
##mare
##gi
spore
trenches
invas
mills
complaint
westbound
agreements
gasoline
##ulatory
##ancer
##azed
barn
suggestions
1776
integral
dreadnought
Byzantines
afraid
wives
##oft
##anza
##urai
pride
locals
Arabia
ATP
constituency
##manship
metaphor
Haiti
Diss
Gru
Rut
##elius
reformed
anchored
excluding
touched
Give
PP
Tud
rud
riots
##oly
##ials
elong
reply
Blackburn
Federer
sympath
Sask
##lot
##oser
Amazing
billed
Antilles
##hibition
1837
counterparts
flowing
##rella
troubled
Benedict
Hits
##iston
Joey
miners
sounding
Crist
Italians
awkward
impacted
Arabs
Communications
supernatural
Gore
Lü
jungle
##dal
##FR
##anian
##abul
disqual
deficit
collector
combining
Cran
backgrounds
sketches
Dot
Kre
##fork
##fax
##GA
##erget
Primet
Glad
associations
congressional
Wimbledon
Primetime
Zagre
sher
##onely
##imi
urging
Telugu
sulfur
##inja
##usa
##ritz
maternal
Undert
Krak
overlap
##ogenic
Mongol
Believe
Bil
Fork
Cham
unbeat
interf
##racted
coronation
blocking
boxing
authored
inscriptions
Returning
Zimb
##lord
##adv
Plains
creators
dismant
Webster
Maurit
Hes
Kind
Witch
##ulator
comeback
posting
Smart
facial
melodies
troubles
Valentine
crossover
Zagreb
Sara
##orum
traces
##ruit
sculptures
Sandy
es
##ulative
hardly
accounted
Biography
registration
Cedar
Dol
Ely
##mid
##NT
##uli
handful
prestigious
farther
Boot
sizes
shooter
##oka
attain
##terson
generating
Mana
informs
Congo
embry
mountainous
vacant
fungi
Gazette
feder
##enas
prone
incarn
Orkney
##iscal
campaigned
terrorist
renovation
Math
Rise
Von
pyramid
Hep
eastbound
reactor
Verde
##ochond
prints
Sheriff
resembling
surveys
Bend
pagan
forever
whites
##ricks
consec
matching
occupying
dissent
awa
Chiefs
##intendent
Attack
legendary
Guatemala
IUCN
Fine
gorge
##jm
##anu
##ewall
chicken
##ahu
Deal
odds
Athletics
consolidated
nutri
##vi
##orp
##amoto
compose
consort
Crosby
labels
downloadable
remixes
Dorothy
Speaker
lecture
devastating
recalls
cob
fa
##asis
energet
subf
starboard
factories
Honey
calcium
Bronze
confronts
stealing
Architecture
CH
bio
gases
##rat
plots
spiral
305
issuing
seeks
##apeake
1839
terminated
halls
recruiting
Socialist
Tolkien
Match
Sap
Saff
##ár
##enic
Syrac
likes
Khrush
nobles
storey
advisory
McLaren
Jain
forget
tragedy
Trent
guilt
insult
heaven
Hyde
spectacular
unstable
Heinrich
Gaelic
Duff
None
##do
##isely
Rosa
Reviewers
breathing
Andrea
papal
iPh
broadcasts
Trinidad
Wemb
lumin
##gal
##MC
heights
Stoke
subpl
##tym
Conrad
Abbas
Tsar
bombarded
Diane
Hort
Yosh
bare
erupted
hailed
##otted
##asting
recreation
designing
debts
Airways
##attering
Eminem
ballads
punct
Volt
viruses
##opoly
Legislative
Element
Ig
Rum
haun
ric
abn
adul
##awak
consoles
endemic
specially
sweep
rocky
firmly
neutron
faithful
delivering
Felix
Auburn
Guerrero
Khrushchev
Jab
sab
##vara
##olar
##abbed
resume
emissions
divisional
correctly
Expressway
Veter
pamp
##KO
##oult
##irus
##avier
##oding
emblem
profitable
striker
Voyager
Sinclair
Fi
Jill
Lass
alumni
##quis
knife
bund
stranded
promptly
Planning
Tat
bord
##opr
obtaining
gradual
embassy
Kannada
Mant
cure
##say
##kan
##ansen
pressures
shoulders
disappro
Solid
rituals
mushrooms
Syracuse
Moff
##ión
plaque
##urel
clad
barrel
Agre
Merch
consultant
transmitted
membrane
unnecessary
Hog
hire
rats
stiff
##usions
##agher
Comment
continuation
Worlds
loans
Matilda
depictions
residences
thirteenth
Herzegovina
Wembley
bark
gale
lunar
rope
leased
intro
##egs
expired
survives
460
Chesapeake
esp
tying
##raged
##OW
##bands
##chard
congress
##ricken
Artists
Midway
Liu
Himm
Nep
Raven
dances
lend
compelling
uncommon
dispersed
sleev
Sixth
Representative
fuselage
Thursday
Egg
##ifa
pled
shapes
sperm
whenever
revision
Southwest
Phot
Perfect
1835
Krusty
Classical
Wyoming
Abdul
Effects
Brittany
merchandise
LGB
Ride
##tra
flatt
##ictionary
paths
disappointing
envision
melodic
Wee
bust
feas
Shannon
##inski
editors
persistent
quantum
Fighting
binary
##lore
differently
magist
kingdoms
committees
dancer
mentor
emotionally
besieged
Sesame
vinyl
Dow
Hook
##aris
rept
promo
detection
Christina
humorous
50th
optical
Watts
Lauren
Iss
Kau
Pod
Rox
Viv
##uana
##person
##eneg
##enza
##icol
##erns
Tracks
discovering
Bohem
reacted
accurately
Randolph
contingent
curriculum
Leipzig
hyphae
Aby
Journey
Rough
##sta
##uder
##ghai
grat
periodic
Ottomans
shifts
reservoir
deposited
coincided
Vernon
compuls
Arr
syll
ellip
poetic
referenced
determining
celebrities
1799
Venet
pinned
Bede
concurrency
battlecruiser
vampire
Wanderers
Gilm
JMA
Tul
punt
##atos
##opot
##orms
##rowing
differed
entirety
Maggie
memoirs
dinosaur
bankruptcy
Hutchinson
Galveston
Zimbab
Bates
Gospel
Lif
tidal
Structure
##ugged
phon
Charac
circulated
goaltender
tobacco
Farr
fitness
tides
Complex
crushed
halfway
intensification
dismissal
Towards
##enhagen
Tuls
##rament
ankle
decoration
imped
exploring
constituted
talented
quadru
amphibious
Brett
Hew
SP
wolf
##mal
##ðr
aligned
Styles
quot
cruel
1838
Shanghai
gambling
Declaration
Saskat
Gear
fuck
##nan
##chet
##kill
shorts
loosely
melting
Providence
Tasmania
##atabase
prolonged
Hipper
NWA
##bot
##bra
##NS
popul
treason
Note
Chess
rebuild
submission
##Farlane
Aston
##inished
##ivorous
##igion
Heights
Alleg
visibility
Exeter
satire
Clarkson
furniture
Phantom
Cord
Dim
Giro
auxiliary
cease
##nie
fruits
##orman
##ailable
protested
repeal
propulsion
discusses
Twilight
##uxe
mobility
hampered
cantata
eruptions
tremend
unbeaten
Pain
cage
incon
incumbent
unified
longtime
Weston
inserted
identifying
inspection
Peak
Slayer
##ectoral
1829
Pitchfork
LGBT
Aus
MCC
##omal
##acements
intimid
##veill
##gren
Bayern
balanced
##occup
luxury
Cit
Pé
surn
##asted
strang
##etto
Railways
Silent
Breck
waited
sprint
rendering
Magnus
obstacles
echoed
risks
Jed
Pir
caut
till
##adian
spor
enroll
##izards
##obil
Warrior
solitary
1860s
predator
labelled
Torch
##ographies
Booker
Webb
##chwader
Kant
Rican
Try
##LL
anten
##umer
trench
Chron
Carson
Augustine
Parish
rankings
exceptions
Trevor
recruits
retreating
crystals
Looking
Scholars
Characters
Said
fi
lac
##nar
##vention
##esis
##ongs
##iban
Davidson
##edded
dressing
Animals
##etch
sentences
corp
Julius
Something
weighing
##powder
files
tens
Rivera
funnel
##stonecraft
Parliamentary
exceeding
relegation
artifacts
Wollstonecraft
iPhone
vest
##elect
stricken
Bea
inflation
Presbyter
Glory
1870s
surfaced
splits
snake
liberty
answered
Czechosl
Ukraine
Sut
##cill
succ
##oco
##ateral
Geography
235
Moreno
410
hammer
shrine
sophom
precursor
Vishnu
Lip
Lik
hast
toy
##astrous
intensive
advers
pharm
likewise
ecology
enforce
Gentle
pipe
sap
##uer
##rust
##idium
alike
##phis
ministry
visitor
replica
settling
Mercy
attracting
1831
objections
480
##agnetic
##avern
Nom
Salford
##step
Streets
dispar
##arms
programmes
1842
ensued
Nazis
downloads
latitude
rumours
reproduction
Bag
ODI
Yuc
dw
##uce
Americas
continually
owns
Progress
marching
Empress
paired
intentionally
valleys
reproductive
crystall
Ladies
hazard
unemployment
mars
##bank
##atches
##esy
##lywood
unav
Marian
ende
##bye
debates
farmer
experiencing
ST
patern
##eren
##stage
gunfire
Exchange
##idships
Slant
sequels
Nottingham
granting
Devils
happening
heroic
Chemical
Battery
Amazon
Fav
crick
disastrous
##ibald
patches
glam
marketed
utility
belongs
Copenhagen
spanning
Bombay
Undertaker
decent
carriage
instant
Northumberland
##ombie
Appeals
1801
dialect
inscribed
Bridg
moisture
reconstructed
Wednesday
Neal
##chel
##bles
##arius
##uta
##ometer
informal
Slam
380
Winnip
Ecc
Hack
Mell
Sas
##oining
Regular
1843
harmony
Dreams
Kemp
Lines
##cos
##cks
##kov
##imacy
pref
stressed
warrior
USAF
Edg
Success
strips
morality
Goodman
Andrews
robust
wrapped
subordinate
##onomous
Fast
Sang
aunt
bog
caves
pad
pall
##loo
unev
amidships
Spike
storyt
convex
totals
Wilf
examine
marginal
Metallica
##veillance
NES
orphan
Prinz
Barrow
treas
bowlers
academy
Yucat
Erik
##nance
##19
##onts
stellar
befri
##geon
index
##ahan
oppose
broadside
1815
rowing
thoroughly
Monthly
enzymes
Maz
Tip
cro
sne
##stop
alpha
plaza
spiders
##oughts
outflow
##idding
renumbering
derives
deny
ensuring
reunion
SK
##ei
##finger
##RNA
##anol
Idaho
appreciation
counterattack
Cretaceous
E3
Gott
Letter
zoo
##tes
203
deities
abortion
sciences
downstream
protesters
limiting
Imag
Testament
Galaxy
manufacturers
microph
ideology
isotope
suspicion
fertil
croc
frozen
mates
##uum
##pes
##acious
suite
rematch
##insky
impacts
turnpike
lightning
heaviest
AIF
advisories
censorship
unrelated
Challenge
Denn
Moss
Rag
##stidia
Thing
indef
careful
Charter
##ethal
calib
failures
mistakes
extras
cuis
prosperity
Agreement
Fig
rented
##wau
##arf
##ardi
incap
intimate
instantly
identifies
reigning
irrit
gravitational
excavated
courtyard
Gir
##iago
##agements
arches
indication
exploded
##ividually
Appl
coinage
Legal
Isabella
aquatic
Bie
Cage
Cunning
Eg
Habs
natives
ps
##pro
spider
airplay
Noel
infect
escorting
Vladimir
Georgetown
Mis
Phel
Taft
Vamp
shoes
discarded
equality
Offensive
burden
coined
Middleton
Financ
teachings
holy
concurrently
Economy
omitted
choreography
Observatory
elephant
Hale
Ibn
Sons
##iking
##oaded
stronghold
ordin
foods
constructing
domest
##skirts
Lance
Worth
crafts
##än
compass
##urnal
indie
correl
cultivated
balloon
raiding
tallest
trustees
rejection
Covenant
overlooking
Dartmouth
BA
##amorph
##inda
eponymous
slaughter
Policy
terr
hostilities
missionaries
brutal
retrieve
Cairo
Tues
bast
##idays
static
beet
firms
relate
grades
Warning
Across
Towns
intersecting
rolled
Winnipeg
##bin
##odont
exotic
Commerce
basal
weaker
governors
constellation
Agent
Nicole
supervisor
granite
cents
##orrow
outskirts
Fresh
Platinum
Paragu
organizing
##auts
Lux
enjoyable
Levine
assuming
Jump
ditch
##idy
Close
criticizing
1809
1794
Seventh
cinematic
ROK
inexper
Baja
GM
Gaming
Raz
Rotten
SF
jumped
##wyn
##DH
##acey
clips
appeals
##anners
markings
likened
practition
persecution
aspir
Mariah
Randall
##hardt
Preparations
Einstein
Lyr
hPa
##fight
##ewood
shy
##rition
Plain
menu
225
Madras
probable
modeled
Divisions
Combined
IA
burg
Cho
graves
##ificent
slide
collided
Heroes
questioning
850
Matthews
superiority
Factory
Leafs
metallic
LA
##15
##rosc
Stanton
Germanic
refurb
##ooney
strategies
Rebell
Mih
fiscal
ma
##kind
##utz
##akov
resisted
upstream
Marion
defl
amalg
occurrence
bottle
Alternative
MW
jun
upt
reint
##ango
##obs
Christine
temperate
1798
##uddy
Advanced
resembled
Locke
Alexandra
Memphis
cockpit
Mickey
repetitive
Agriculture
cylindrical
Bols
CF
Pemb
Words
bind
pose
Theod
stained
unions
amend
indoor
teamed
poles
expend
Broken
engagements
Barr
corrupt
novelist
imminent
PopM
Fields
Habsburg
Source
Touch
wage
##ded
##aran
##apy
accession
musk
##umbled
Clem
slender
integrity
verdict
ecological
auditioned
Ng
Barack
barometric
##borg
towed
puppet
Illustrated
Cauc
Torn
##itement
##phal
financed
auto
burnt
Workers
sacrific
Gibbs
verb
memorials
answers
Negro
Hassett
metabol
pianist
Ek
Frost
Loyal
Lakers
##ál
##atl
trunc
attitudes
Brom
Harald
repuls
inflict
illumin
dissolution
Cornwallis
dreadnoughts
facilitate
greeted
François
Bismarck
Ist
pond
##uins
##iw
##idable
##ondheim
inflamm
##afts
##aunch
ambush
Erin
jacket
##ocolate
ineffective
digitally
Ras
codes
##boys
##rovers
leak
Dram
Enc
Europeans
Revival
##orneo
puzzle
kidnapped
Breat
UP
##bern
Monteneg
##verteb
Mortal
yielded
forbidden
Mold
Vett
##athi
Amster
insight
obsol
Rockets
personalities
emergence
supervised
Lambert
Clarence
Vermont
prevalent
destructive
Doom
##tical
##sm
##rice
seab
Flow
Elvis
technically
Batista
Casino
somewhere
Bryant
##antha
update
anthology
peasants
Europa
uncovered
##anderb
potassium
violated
expresses
theatres
seventy
Albania
museums
innovation
Language
Landing
pits
##cover
##eles
##othe
stalled
unm
outn
defenc
Ism
30th
coral
Shepherd
Walsh
##emn
exiled
plasma
overc
Caliph
villains
sexes
Marty
Greenland
dominate
1814
1819
nobody
frustration
Emergency
princess
Hepburn
##waukee
Boom
IB
Kany
fool
##beck
adoles
Ono
##itsu
##ismatic
uncomfort
beneficial
interception
affiliate
trunkline
camouflage
Gamb
Jol
banner
##Cl
trim
asserts
strained
##shine
intensify
websites
Murd
cooling
betray
Neville
coordinated
Restoration
miniature
tuber
Pond
Rac
undergoing
backs
complications
gunnery
affects
treasure
mothers
##sworth
##esterly
##aguar
millimeters
unexpectedly
Facebook
spokesman
Bottom
Hitch
Tz
##isible
##aying
Inform
dishes
outpost
musc
##aji
Leh
visually
postseason
problematic
commissioner
1793
defendant
unfinished
Bono
Barker
Ace
Rao
boring
teas
##lund
##oos
##rary
##oney
##illas
##ongo
clients
prejud
autonomy
Manit
telec
disposal
Oldham
1820
##glades
Groves
consulted
##lynn
enhance
##advant
Cunningham
##eo
##fa
##agua
##ogle
admiral
##fields
certification
violin
denounced
texture
fleeing
obscure
Shirley
Aberdeen
envisioned
Eston
GC
nave
##bie
stems
##ulance
##andra
##abi
wheat
##axies
grouped
##ombat
Congr
Amsterdam
Syl
Taunton
bail
ech
hij
luc
##thood
underway
Scouts
expecting
Phase
lightly
Thomson
Goldman
Laws
appealing
Everglades
Sharp
ecclesiastical
chromos
NHC
##days
Stam
sixteenth
cultiv
Farmer
symph
cartoons
virtue
Cartman
culminating
psychedelic
Cyn
SI
Zach
rework
suck
##gged
Exc
contributor
suspects
depressed
Conversely
Yuk
##thy
fluct
Landmark
explosives
Peggy
Gan
Okin
Pill
Pole
viable
##ivities
##ipse
##plant
##obe
centred
Bruss
provoked
Period
##gerald
##ijuana
attractions
Religion
Mathem
Braun
shifting
Natal
trends
Tunis
oxidation
Bolshe
lam
rall
##pole
##idas
Elsewhere
possibilities
deadly
targeting
Instr
Everything
Producer
Congressional
Nuclear
VHS
cum
vector
##uber
##verted
##anti
charm
Colony
##erving
midst
acquiring
Walton
Rodgers
Bosnian
Fitzgerald
Nigel
Xen
##esque
##iliation
##istice
Ing
disorgan
Plans
##bourg
doubts
hunter
Gillian
deliberate
energetic
locks
##mir
algor
Champ
##prising
monk
##appers
displaying
Naples
Achievement
obsolete
Kru
TS
drought
fingers
hood
rip
##edo
##chron
incent
interchanges
##ennes
justified
Build
Moffat
Himmler
Ebert
IP
##cts
##arity
206
arche
Brent
215
twist
Medieval
demonstrations
planetary
upgrades
Motors
conscience
Rebecca
Strike
parasites
Survivor
Casc
Dee
IOC
Pione
tips
wand
##oku
Fortress
Relief
ambition
Keynes
Geneva
Ernst
##hawk
Marlborough
Belf
Located
Mets
Rita
civic
ni
nar
##bard
theology
##ppe
charitable
backwards
1500
grounded
Godwin
1775
Bruno
Tudor
Financial
Bax
Pomp
Taking
Ug
sodium
##UP
##ør
upheld
constraints
29th
observer
Evan
surroundings
Academic
Lindsay
robot
eliminating
Dickinson
anticipation
flexible
Gustav
Ach
Morm
Males
Rash
Sounds
stre
Brest
Highland
costly
correspondent
surgeon
Dang
Pep
piv
##leigh
stalk
##agogue
##oki
disadvant
Marse
individually
explor
protagonists
refuse
##imental
dispers
Olivier
1792
customer
panic
implied
sponsor
advisor
discharged
mercury
Filip
aggression
##elestial
μm
##vana
Institution
##assment
Climate
Canning
Evolution
Detective
columnist
Jenny
olive
Salvador
Cust
Census
Hert
Lone
Moses
PR
sa
##agasy
##rio
##ooks
Braves
governmental
crater
captains
Notre
Sarawak
punish
defendants
Noble
sighted
alterations
Nikol
continuity
suscept
Glacier
##tymology
Dru
Hour
maj
##atile
##enb
##ilib
##exual
additionally
vein
Wilkinson
plantation
conception
progresses
rewarded
redesigned
Johannes
Fernando
Presbyterian
Brussels
WS
bite
##ui
##eters
outline
animators
Milwaukee
##market
##anthrop
Literature
mitochond
tributary
reperto
Borneo
Fry
Pt
Seg
Yah
##care
##zo
staging
numbering
founders
1850s
##onstruction
##quez
Honours
Romeo
Everett
climbs
excavations
professionals
devotion
PopMatters
Cumberland
ITV
Sylv
dried
iOS
keeper
##ivo
Alec
Highlands
touching
interpretations
astronomers
Ambassador
seventeenth
PD
##leen
##uties
decree
Blanc
electrom
agenda
Acts
Wilde
rotating
##accur
Zimbabwe
Kell
Outer
maid
pec
##zan
##Cube
Theme
##ophers
suits
Inch
Chak
Cliff
Santiago
vacation
Casey
Ronnie
Umb
mour
##ás
unchanged
##luded
Shop
modification
eighty
archipelago
cannons
feeds
fulfill
Municipal
Sv
Wenger
horm
masters
chords
##anya
helmet
##psil
##ylon
340
Satan
##boat
ladder
Shankar
Fay
Huff
Ign
Ling
duel
dirt
riff
##ührer
couples
embedded
Malaysian
intervene
Payne
Clifton
Software
Albanian
grammar
sophomore
BP
cope
cites
tiger
##ompression
##uns
##istani
##berht
relates
peer
Minaj
Georges
Chaplin
owed
sanction
nineteen
diverted
rehearsal
Chopra
Nir
hairs
lent
lig
##bel
inaccur
##opa
contamin
Whig
##appropri
facto
1825
Solo
Freeman
psychology
Estab
galaxies
Iranian
redevelopment
prestige
Paralympics
habits
##iad
##artet
somebody
Allison
walled
Secondary
##iciary
tombs
ironclad
Regarding
Cromwell
corpse
Rebellion
Lana
Yo
cree
mould
##harm
Argy
Shock
Daven
neo
stationary
merit
widened
scripted
1824
irr
1789
catching
Savoy
sympathy
Majesty
Beauty
supplemented
homosexuality
bicycle
Azerbaijan
Mund
##staff
##illion
applying
Ish
storyboard
Ambro
Timothy
resistant
congrat
Nasser
mimic
Abyss
Biden
Lob
maiden
##cats
##80
##icious
##ilated
plains
##igne
Marco
minerals
fined
##regor
picks
fixture
disagreement
breath
comedic
Legislature
baptism
Continuing
Hag
Mitch
curs
fare
laser
forem
##izarre
warming
Grim
McCoy
1804
1795
Cambodia
blew
criminals
ruin
Pakistani
scrut
Cav
Tosh
Whed
lighthouse
##iu
##rí
##NG
##stones
disorders
##atham
airports
resting
Released
hunted
consulting
obviously
Lionel
Clayton
Gul
Ganes
##ser
##50
##leased
##irling
atom
##ussy
Herc
hitter
reduces
Irene
Salam
Going
municipalities
iPad
Multip
redesignated
Fowler
Dorset
BS
Gob
Rings
mun
##initely
##utnant
matrix
paran
Carm
Byr
bush
Course
negatively
##igrant
strikeouts
##ezvous
allegiance
Physical
Kart
Totten
Vil
Wr
nmi
ts
##iners
##itivity
##urus
hex
clade
##prises
dams
Recent
minded
rehabilitation
Benson
Wer
##nia
##heed
carb
##tef
demise
Schu
Malagasy
missionary
1821
kickoff
##enzie
glaciers
Lund
Search
inund
##chus
##ikini
basically
##hesis
demons
##eepers
Monkey
##III
1810
Coastal
phenomena
obliged
Oz
Pist
Sally
Sale
##oran
##ingo
Arrow
Analysis
encirc
##hetamine
celebrating
Townsend
Helena
Sanders
Letters
satisfying
Buffy
Ahmad
prolific
exaggerated
MacDonald
Belt
Echo
Kombat
glee
lasts
##uy
##omac
##achy
##obic
insert
hunters
undertake
butterfly
Colombia
inheritance
Reverend
Zack
##erie
##imus
##imated
##ifiers
##aby
##oval
spells
buck
Coming
singular
Graves
technological
investments
employer
1833
senators
1797
enforced
mammal
Saffir
Poul
Tah
Word
##rained
##kers
wholly
recy
relinqu
Amber
##amba
26th
290
departing
digest
talents
folklore
mandatory
supreme
retrospective
casemates
tremendous
Certain
Ranch
Vall
##rically
##igue
stir
outrage
soils
edit
statistical
campaigning
religions
Hungarians
spectral
exploit
Wolverines
repertoire
Das
Lé
eman
##gil
##arios
heroin
lateral
surveillance
##integ
treatments
photographed
1806
minds
Groening
truce
Titanic
Wilmington
Clyde
Eurasian
Iw
Yar
gill
haven
luck
nude
##13
##inch
Stre
##raul
Revel
explores
insign
nightcl
##uffed
1805
Writer
compensate
CB
Hole
Net
Tate
##ataka
Themes
healing
retains
Glaston
conclude
athletics
Griffith
Picard
bureaucr
uncomfortable
Keen
Poor
Rising
##esome
##ocyt
tragic
desk
meal
Conan
equation
Cald
Offic
appointments
thesis
daylight
Terror
angered
essays
definitive
##baum
Beta
Eugen
Vickers
unanimously
welding
Coin
Lars
gymn
nan
ul
##RL
##iae
Prague
feather
shortages
replay
communists
volley
##ija
##quartered
palm
sculptor
searched
anxiety
Mozamb
Mauritius
crocod
Tuesday
Cull
Few
SEC
graz
##IP
tom
flames
Prom
Pratt
275
Compet
immort
racism
gonna
hiring
##oine
##pend
##org
##leaf
seap
slam
radi
Known
financing
aiming
Extra
confirmation
sheriff
Davenport
HBO
Nell
leisure
##isha
outfield
emission
restoring
neur
commentator
Patterson
Charleston
masterpiece
decorations
volunteered
folded
congestion
Hogan
wavel
##eod
##ocative
##oxide
viewership
traders
boarded
Stevenson
Erlew
banking
Hanover
disappearance
evaluation
Nadu
Erlewine
Koh
NW
Toul
Yes
curt
stole
Proper
differing
Ens
Wein
Monk
employing
breakaway
Macdon
picking
legends
convened
elongated
Glastonbury
Foss
Tool
##itism
screw
monitors
Pluto
Flotilla
barrage
Mys
Criminal
Sanct
##unkers
fortunes
angular
raided
Brend
Alamos
Rex
SM
ours
Inner
exits
contender
Brooke
brew
28th
Malvern
alternating
Critic
Bung
Kaw
##olation
##este
envelop
unim
Arj
tele
variously
Antio
Boone
Controvers
commissioning
catastrop
Catholicism
Potomac
mistress
Kylie
Bella
Waugh
##aden
##ellus
Arg
carc
##ublished
warship
Guin
Blacks
premises
Innoc
Honduras
Suffolk
Bonnie
Higgins
Alger
##rics
treating
Armoured
productive
Colonial
decreasing
Nickel
Bollywood
Cartoon
ingredients
Breckin
ions
##path
##LU
##robe
##nton
trait
##sche
Present
escaping
motiv
3000
malaria
groove
kilogram
Kanye
Bly
Fritz
Katherine
##inating
##arium
##esta
decks
invade
##hyll
graduates
criticisms
automobile
Lenin
Rodriguez
accomplishments
wavelength
Font
Mud
oval
##uo
##yards
##gio
Thur
##oyne
##afi
tenor
sexy
commercials
Strat
Stephan
dupl
Hyder
astronomical
nominal
tackles
Scheer
unanimous
warehouse
hymn
Dear
Kash
dwell
##pers
##adh
outright
salmon
geographic
betr
rehearsals
Nassau
##icho
plenty
##iped
Scr
Scream
Brady
pope
refined
admit
Interactive
ethanol
610
globe
Rainbow
improvised
Bench
Creation
Goes
NE
##foot
##agged
##pted
combines
peaks
badge
Niagara
Jarrett
##hawks
pipeline
##elihood
Ain
Dix
Til
bis
cass
##waters
toil
stint
##rones
Poles
cyt
Berger
Million
Talbot
Giov
Wessex
undefeated
Cory
overhead
outc
anyway
expans
Colts
destinations
neuro
cultivation
Perhaps
##ukov
devil
Avatar
scratch
Sacrament
overlooked
authentic
styled
Phelps
Vettel
Ri
Rookie
glands
##iances
Uncle
310
Tomatoes
precisely
councils
Epstein
catchy
Flem
turbine
Oswald
AV
Cover
Sou
Sett
Vid
Vision
kin
##ño
##isse
Stones
##rite
##plus
flanks
##ller
Calais
Quick
Hunters
Fellow
Rous
Sabb
Wigan
##ppers
##erner
Quater
1834
steamer
convinces
Sophia
Paralympic
chloride
Tet
##igma
##verage
##oso
prost
##cling
detention
competitor
infring
##ieces
bombed
yourself
remixed
Destroy
Crowley
dimension
overthrow
Ferm
Jut
rhet
##giving
endured
##identified
collar
##vester
cancel
Bedford
airfields
boots
remastered
cuisine
Lyrically
Manitoba
Kri
Rumble
ramps
##lov
##usement
profess
excitement
premature
furious
Vaughan
##tures
##eni
foraging
monetary
brow
infections
complexes
##rotic
Estate
consumers
overwhelmed
Investigation
mantle
Okinawa
Macdonald
Quatermass
IM
fence
umpire
##heart
##thms
##aparte
interc
finishes
Above
Reserv
letting
Buzz
reasoning
1790
logic
rigid
rendezvous
revelation
Cotton
Deg
Use
gast
nons
##owitz
compatible
##ikovsky
##awi
preseason
Reformation
Synd
Hamlet
moons
vertebrae
MT
erod
tiles
##rag
##alis
asylum
meth
belly
deposed
Requ
##ournals
Garrett
Mao
freshwater
Everton
morphology
Ukrain
Ambrose
Multiple
Muss
Tin
##role
##andro
##oped
Change
Beech
Andri
Poly
Hamm
Rockef
##ophon
ambitions
bloody
ignor
vegetables
phrases
Experience
Likewise
Nina
lions
pic
##aq
##elope
##eche
##onda
unse
Charity
Lyon
tissues
interfere
##oprano
Yucatán
##ilibrium
##notes
##kas
##isory
##ecuted
##lyss
beef
align
sheer
knights
##odyn
Herman
Reporter
McCay
1828
Circus
precedent
volcanoes
chemicals
plateau
prospects
ladies
cricketer
OK
jumps
##oit
##alm
alph
aground
overrun
Comet
showcase
restart
Manila
##afia
##nai
Canadians
separating
lifelong
Direction
Miranda
pronunciation
Kerry
Anatomy
derivative
Pixar
Access
Io
Lap
bil
database
noun
ye
##alach
Shō
transpar
detained
propelled
pressing
intervals
Pepper
Remember
Hereford
Reyes
Hemisphere
Ratings
autobiographical
Bonn
Flynn
Ranger
RKO
##tor
##RE
##repr
overly
##ftime
transmit
Summit
illustration
administrator
Buddhism
chimney
Tottenham
Cope
Dres
Wine
cripp
##bis
##group
##Bi
##street
##ceans
Heather
Ashes
Pride
headquartered
rested
reprinted
barons
barrels
Holiday
Milky
catalogue
747
heroine
implies
##ozo
stretching
decorative
unreleased
##abulary
Killer
pod
pistol
tang
wis
##amily
chased
Bras
guidelines
Brod
listened
##eaver
##uffs
worry
Eddy
pipes
fishermen
Kubrick
Karnataka
surname
Ich
Rhe
##pox
##rators
theft
##erun
inverteb
##olson
##igrate
##ewater
consume
##unda
##shaw
totaling
curtain
Northeast
Carlisle
essence
exercised
Rowland
##books
reluctantly
Toby
assumption
mascul
turtle
##electric
storytelling
Whedon
Bound
Hi
Lark
dur
##bled
##orse
bees
Marina
charging
Britten
fifteenth
hostage
compares
hearings
mathematic
Vulcan
libraries
Kee
Muk
bachelor
##lar
##mere
inappropri
Chip
intermitt
##engeance
1816
fearing
Running
teenagers
Privy
Mozambique
wrought
##base
##lez
##indy
##uala
cheek
Myers
villagers
##forward
clearance
trafficking
Twelve
converting
hydraul
execute
conspic
exported
neglected
##building
Conservatives
##naeus
RC
Rory
dirty
gut
##40
##ummy
seals
Atomic
idol
Byron
admir
Eva
assisting
geological
choral
omn
tributaries
confiscated
Breckinridge
Bacon
Urug
bike
Thous
concession
standings
cheese
employs
Appeal
Peterson
1796
Timor
requesting
Bagh
Kumar
Rit
Rib
Vatic
puls
##ril
##olding
Orion
Eliot
Strange
depths
spinning
Briar
Sparta
Spartan
##acerb
incredible
midfielder
Morocco
Cott
Luk
Making
Zhang
##ienced
##60
##BL
thres
##auses
posters
Resc
diocese
390
Silva
measurement
dragged
Factor
Buchanan
Examples
AG
Hang
TH
cort
wise
##esi
##iler
##urities
##unal
##eworth
notorious
aggress
musically
##arez
Phon
superb
Resolution
renovated
Nordic
Belfast
Kron
Trial
bizarre
rowed
sectors
##hanna
##dad
##fried
arise
parat
Philharm
Salem
Helm
Chev
liberation
Saigon
wrecked
Ruby
tolerance
Jurassic
seizure
Rockefeller
Ms
Tale
##points
##beth
##enter
prehist
##ounge
Brain
Volcan
ideals
excavation
motifs
Garcia
inevitable
##clopedia
AFC
Golf
Lec
Pound
mg
tally
##rill
inception
##ochem
medic
##enched
crude
Emerson
absurd
tuned
tunes
rerouted
augmented
##reprene
Kry
Wit
til
##pm
##isner
stays
##ourg
Coleman
triangular
Minh
argu
Built
candidacy
pleas
adjusted
vacuum
descending
Kenya
Lowe
float
Megan
Cruise
Rapids
Females
surprisingly
satirical
Hair
ejected
nic
toys
gunpowder
listings
equity
imagine
Napoleonic
tyres
pigeon
Bian
ID
Vale
##banks
##akon
cliffs
2017
##onson
Anime
Clan
finances
governance
100th
295
expressions
contempt
precision
lifes
Romantic
Lester
extrav
ornith
suppressed
subplot
Bolshevik
dod
ling
lamb
##mination
##kel
##itations
##isy
##unn
commissions
passive
##arsity
approve
teleg
Pauline
Olga
Charlton
diamonds
Loop
surveyed
Nicar
Dup
Kitty
keel
##PD
stamp
shout
##iao
Smash
Revenge
instituted
Bonaparte
innovations
scholarly
Cobb
Sidney
Ludwig
epithet
Peck
Vit
##fleet
chicks
branded
##spe
Beaver
refres
40th
Schwar
benefited
advantages
loving
suspicious
risen
##lash
exacerb
##plate
##formed
smell
impending
lineage
Drag
insists
suffrage
holder
economically
MacFarlane
addresses
Dubai
piercing
Lic
dunge
fauna
haw
maker
##uh
##walk
framed
abbre
earnings
addiction
guides
adviser
killings
authorised
probability
composite
Incre
conquer
Sudan
Urugu
abbrev
Hence
Siber
Weaver
##emption
##ostic
trigger
enduring
amended
##tenstein
warmer
parap
proves
marriages
Gloria
barriers
quarry
accessed
Italia
Strateg
snakes
Judy
advertised
cleaning
halftime
succeeding
##stanbul
mascot
paternal
Biz
NG
Nos
QF
bells
kits
umb
##bours
##RD
##imited
##champ
airst
instability
Tran
downgraded
adverse
##horst
Schne
commissioners
maxim
splitting
ethics
decreases
Poet
flashback
##stadt
Fellows
Crete
Meas
Wins
XL
##maker
spends
##uble
clash
disreg
##icker
Brill
Blind
ambient
trainer
Finance
princes
trauma
Coke
Kod
Tara
lone
lovers
##lia
##with
##agram
comet
plaster
##ipes
spun
sheets
coloration
attackers
Read
Accolades
mounting
analyses
Avengers
1818
Janeiro
gesture
jewel
Burt
Dolph
Sisters
tut
##ingle
##asian
##recht
##olutions
stanza
##ouncing
quote
slate
Dragons
naturalist
necessity
Classification
Denis
Persia
Ariel
bleeding
delegate
Opening
##enzo
proportions
Macedonia
contradict
Bieber
CL
Gle
Nest
Tac
##atops
##emann
chanc
resent
justify
##encia
Eden
olds
Exit
structured
certificate
440
observes
Gallip
exploitation
innocence
McClellan
##ruppe
Athenian
margins
inconsistent
arguably
NK
cables
sect
plural
Threat
outages
exports
motivation
Rocks
wooded
acquaint
Jericho
comprise
sponsorship
collectors
ECW
Squadrons
psychiatric
voluntary
Patricia
Cell
Dahl
Lep
Ory
pension
##keeper
##ères
notices
USC
Mayer
analyzed
constitute
Chronicles
outnumbered
WC
fission
##wen
##wold
##FS
chasing
deserted
flame
underg
Trondheim
##omencl
solic
Partisans
Crimson
discoveries
Samantha
plantations
pitches
RAR
Speaking
quietly
spontaneous
Galileo
Canton
Mode
tapes
##etes
##opath
spine
Prayer
severity
arrange
supportive
possesses
organism
swamp
captained
apology
pilgrim
Massa
switching
nursing
RBIs
Gallipoli
AFL
Bachelor
Vin
##lements
Chrys
scutt
aging
assumes
Thereafter
Regina
Khmer
guarded
mentally
Travis
Jutland
Hick
griev
lumber
saga
wield
##estation
##abl
append
##atta
flav
singled
discs
##raction
Sloven
footballer
Unfortunately
Boul
Dion
Pav
Riv
RCA
ranch
##18
inclined
intric
##print
parachute
Earp
inspir
threaten
Eleph
absorption
sediment
Libya
peloton
Shepard
Clifford
Gandhi
Kad
motto
Atari
Ans
Shet
prophe
Reconstruction
##trak
Lyd
assaulted
##houser
Soldier
Vie
tam
tense
wit
##bons
##gau
##aras
herd
Corpor
merge
Militia
bias
punch
Damon
##onnell
mutiny
transitioned
commemorative
Synopsis
Klein
Promotion
pneumonia
##pendicular
Bury
##yah
exter
contention
Malley
Button
taxi
substances
Phillip
exploited
drifted
embraced
grief
paced
spelling
autonomous
McI
skating
##iscopal
nominate
##chewan
Hartford
springs
commemorated
agreeing
Physics
Duchy
perfection
HS
SG
##uded
shipment
everywhere
hardcore
Religious
coden
Lands
Niss
Trap
sinc
soprano
##illand
##artments
incub
GameCube
##chez
##roads
geometry
Bruins
astronomy
owl
Stevenage
cadets
##runner
passionate
procession
frogs
prescribed
Venezuela
dwelling
unavailable
AB
AAA
##MP
##igi
shores
fourteenth
combinations
Coff
insistence
Study
Midnight
concealed
Boris
trailing
suprem
wireless
Réunion
ambiguous
Paradise
Istanbul
Kip
Mats
Wizard
pending
##thia
franc
##igny
coordination
crem
##erville
McB
adopting
pleaded
Liberals
Waterloo
Politics
penetrate
Aman
Dirty
bubble
lodge
tin
##šić
##onal
##iratory
##ayana
##uling
noon
Barney
cheaper
collaborator
Jacqu
explosions
infrared
Higher
Bolt
Gaul
Mab
VH
draught
fountain
rab
zool
##just
inad
athe
projection
compelled
somehow
Hermann
rails
Murder
ancestral
astronomer
glacial
spokesperson
resonance
Citizens
motorcycle
Jedi
Ci
Duck
Sina
Trit
Timb
##racts
ascent
##oche
decompression
systematic
conflu
Congressman
Lowell
corporations
physicist
pledged
Jard
MFR
Sidd
Toll
arter
hered
Archie
flaws
Asc
##ajan
experimented
honoured
crowded
preferring
implications
Atlantis
filmmaker
Rifles
Giovanni
Hurricanes
asym
Chick
Hebr
upwards
##icked
canals
assim
monastic
surplus
revive
Schmid
copied
treaties
memoir
outlaw
prohibition
coordinate
neighbors
Havilland
Hed
Kok
Oval
Seam
mason
##eau
##holic
##zt
##imon
##flin
anybody
##scrap
admiration
Paulo
Grammar
exceptionally
simplicity
electronics
pedestrian
Suzuki
Northumbria
Doyle
Host
Opt
##mire
##kie
##arious
##otle
##ppelin
clashed
relying
disinteg
proving
##into
symphony
Vikings
reorganized
retaliation
Byrne
2D
Kab
Mob
##igibility
##ummer
Harriet
McCorm
minorities
Nichols
Linnaeus
hierarchy
depleted
plagued
Elementary
biblical
dose
##loe
##acies
reck
Alg
assaults
ammon
Amin
holders
screenwriter
embrace
chiefs
Odin
Terminal
penned
Fiji
Nights
Zion
##zhn
##RB
adorn
##ounding
Shrews
urine
Hawks
1827
universally
640
Historically
contrasted
1777
Spartans
juveniles
pseudonym
ridiculous
Veterans
IF
Kou
Kappa
fet
plunder
shor
##ondo
evangel
prevailing
demos
voltage
contestant
verbal
synthetic
Buddha
checked
marrying
Etty
indirectly
spherical
Venetian
Saskatchewan
Avery
Cosm
Hib
Kess
Pry
Wise
vag
##bi
##inting
inert
##uming
##ifiable
disgr
##aceans
interred
Marg
##annah
##azy
Baroque
Wehr
favorably
1826
unfair
Confederation
commitments
##utsch
detailing
Animated
cooperative
##breaking
searches
Cochrane
Shrewsbury
Favor
##VN
##hele
##stick
##umen
carriages
##roduced
Scharn
Operational
institute
Ashton
Rowling
MPs
cottage
Sacramento
gaps
##oise
##but
##sted
##otrop
##usan
##egie
presided
noir
drinks
Blame
Williamson
##lessness
Garland
Jerome
soundtracks
emphasize
licence
stripes
privileges
Auck
Cities
Goss
VC
pawn
##liest
##apest
shower
Britann
warn
characterization
Ency
##offs
Brownlee
unsure
examining
Dunn
Confederacy
Mercia
hatred
Recorded
coffin
##chaikovsky
staircase
substituted
Kendrick
Hitchcock
Ae
Gamer
Rules
##litz
##reted
##etz
##ogenesis
##iza
charming
parodies
proposes
equilibrium
Expo
490
exhibitions
illustrate
Haynes
Invinc
theorem
Audio
pupil
flattened
Schneider
fol
##frey
##adin
##church
##ogene
offence
flotilla
airplane
Clare
Parade
Airbus
Internal
##backer
1817
fleets
Concern
Pyth
Poole
sanctuary
Iz
Tiber
weren
##ych
##empo
##ollen
##ermaid
successors
builds
Northwestern
councill
painful
substrate
logical
addressing
Lynd
Azores
coordinator
Nearly
repulsed
Sabbath
Seward
Wad
ought
##OM
tricks
openings
EastE
cycles
transferring
Benz
Interest
dynamics
racist
Odys
outlined
Carnegie
Inspector
Occup
Informer
Mysore
Gert
Wi
Wulf
Zah
tops
attaining
regulated
discretion
generators
announce
Weiss
illusion
expressway
transporting
420
consuming
besides
wheelchair
rifles
Thanhouser
Chrono
electromagnetic
Dresden
EastEnders
Lit
squar
wagons
##icals
Chau
Thir
##ificant
depended
Bucc
interactive
hangar
Cooke
surpassing
reminded
CNN
abruptly
##hausen
FS
gri
##hus
##hab
airlines
Gerry
Amph
Angles
enterprise
barred
Transylvania
Hooper
simultaneous
MLS
Sporting
Dust
##rone
##zko
##utory
alloy
attach
##ibi
Spector
blade
Election
StarC
embark
straightforward
contestants
Laurent
Purple
Hansen
shields
extraction
outfits
incredibly
relaxed
microphone
Mif
Vig
eu
vass
vivid
##pur
##buck
##vre
##ès
##ilocy
##ulse
##ifting
exh
Marriage
##azar
extensions
301
Calder
Robson
1803
Anniversary
contrasting
Publications
Industries
Dominion
deposit
rhythmic
recruitment
Raiders
Scharnhorst
afor
##grove
##anity
##alli
Standing
##ounty
indul
##shima
Abs
Presidency
cycling
Liberation
##rogamer
Laurence
gallons
synthesizer
Statistics
elephants
García
dolphins
Mersey
bru
bays
ceas
hail
pigs
##EA
##orpor
##ctica
Sto
decomp
classics
Eurogamer
handic
practically
38th
1808
1811
660
Baden
Provincial
rhythms
feudal
Ethiop
obligations
sabot
Fus
##iative
##gem
##ène
##elves
##iferous
disg
revis
Conway
Amor
midway
Smoking
glory
suffers
Holt
probe
##AFTA
Kratos
enjoying
1823
elevator
ethn
fashioned
satisfy
railroads
Hurley
fundraising
Litt
Mé
Table
euro
##lav
##wulf
##14
topping
##rika
clo
outward
##atton
meals
generous
realizing
sworn
engineered
Milne
immense
430
translations
Divine
advocates
Huron
Navigation
Straits
antibodies
Arcade
nostalg
Philharmonic
Bot
Maiden
PT
São
cavity
##hail
##zomys
##2O
##ematsu
stunning
##agar
scan
coher
coasts
explorer
twins
elector
patrolling
Quad
Angelo
cruising
Patrol
catcher
Cypr
synonym
sorties
descendant
hanged
neighbourhood
Yoko
OCLC
lavish
Gaud
Ki
Rä
##itud
##udi
invalid
capped
destroys
##headed
##aptor
Autumn
licensing
Impro
Rainfall
USSR
reservations
happiness
Mongols
Antioch
Auckland
BB
Gong
Piper
Yas
caf
gly
wrist
##zh
##opers
##ineas
##perors
compare
##ajo
millennium
marijuana
realigned
404
##hetics
##iseries
countered
1791
Google
Apost
functioning
adjoining
franchises
allev
crafted
blowing
vigil
##children
Reservoir
Henson
Lotus
Oric
hob
##itimate
##ulin
deception
Shot
Brenn
Austrians
prevents
Gerard
Weap
chef
Emil
Whitehead
Import
Advisory
Midland
diversion
revolves
worsened
Pioneer
mourning
Dante
Tick
Were
##gain
##HP
##ël
##thard
Spok
Index
##shaven
influx
Milk
Jacksonville
Sheridan
Urs
Nicholson
Diamonds
scenarios
Cheshire
monasteries
Officials
Jenkins
Mystery
Scandinavian
venom
Rescue
Ath
DA
Won
hilar
seaw
canopy
noct
solved
prizes
Norris
Macbeth
specifications
Darkness
willingness
sleeve
##psilon
Gian
Piano
faint
##ON
##erff
##esco
Theory
fraction
##ultural
remod
##otherapy
##inka
Develop
sentiments
Evangel
dealer
##writing
geology
1783
Recordings
earthquakes
anatomy
compulsory
Gol
Gale
hp
jaws
##inia
##about
tran
unint
conson
##anking
Gallagher
landslides
actresses
Balzac
inaugurated
simpler
NSB
overturned
Hyderabad
Grap
bests
makers
##uen
##emouth
fru
disemb
##atty
insane
painters
Evidence
breakfast
Khalid
sponsors
Camden
Credit
provisional
Celtics
reassigned
Slavic
annexed
inappropriate
Bac
##macht
forested
##ointed
##ressed
portal
predation
packs
3DS
optimistic
conclusions
Byrds
Crescent
Era
Oy
Pony
Saga
notified
subgen
Shell
mint
socially
##geschwader
crewmen
recognizes
##itorium
Superior
halluc
conversations
Nicol
forthcoming
fraternity
##culosis
confluence
Räikk
Spokane
Nay
Sard
Tub
##law
##hra
##umo
##ifully
chick
acet
Clap
##rowth
Blade
Trench
##ossa
delivers
Swim
glider
Partisan
##kinen
Sejm
1813
alcoholic
Hazel
##önen
Version
Toyota
immunity
stupid
Bash
Hak
Mansion
##hound
##illard
offset
Shap
cohes
distorted
Harm
recognise
Robot
unlock
Bullet
Frontier
absorb
filters
elaborated
Wehrmacht
CT
Ski
ego
pavilion
sar
sake
orth
prequel
##retto
delicate
fortification
##umping
cardinal
pulp
Royals
tactic
worsh
trumpet
impedance
practitioners
Räikkönen
Fut
Habit
Root
Ulyss
docks
journals
sandy
##orian
##urrection
disruption
polished
slipped
254
confession
influenza
breakup
synagogue
installations
souls
Eleven
Dodd
Barkley
Kesha
semifinals
Ulysses
Lau
MB
##HD
##amination
##ogram
##eldom
baseman
smallpox
marker
freighter
infinite
processed
Myth
threatens
Millwall
Dunder
chaired
highlighting
Stefan
cognitive
susceptible
Ukrainian
Eck
GDP
Nit
fiber
wax
##Der
##ensic
prefers
brack
patrons
##urgical
Reports
pottery
demonstrates
sensitivity
1780
##worthy
mandate
Shelby
Nicaragua
Dictionary
Escape
Lys
##hlet
##uliar
spat
helm
infants
divert
occupies
Hawkins
surreal
MDOT
altitudes
Laurie
skyscrap
##hello
Holloway
skeptical
Botan
Ramb
Rule
Sister
Suther
Tchaikovsky
Und
osc
##rans
stairs
alb
scler
Alpine
yearly
evid
severed
Bram
slogan
militar
Colt
edible
##intage
taxation
Cornish
simplified
Zeppelin
Buc
Euc
Nice
Uematsu
cher
gat
pirates
wagon
##unks
Into
reprise
222
glad
borne
Neo
geography
crypt
acknowledge
Cruiser
martin
nuclei
Wilhelmshaven
Mangalore
Previously
##DerW
bored
tones
slated
Ort
Andr
Herod
tenants
Acting
widening
steamed
immigrant
undivided
raiders
Elliot
inauguration
ninety
reinstated
bug
cir
tatt
vapor
##eer
Aden
##inker
entreprene
Caled
Schl
hostility
violations
applies
principally
please
VanDerW
negotiating
packaging
Radiohead
##ESCO
millimetre
Marketing
fertile
Penguins
underside
Czechoslovakia
Cyprus
Kuala
Lj
masts
##PR
##emi
##geons
##actor
thank
subway
##enery
booked
Manufact
Excell
Moe
premium
Contest
##holder
chooses
sunlight
Wheat
stylistic
Rouge
Rifle
eroded
Bean
Nath
Pasha
Ti
##oors
##forth
##enden
Unable
Scapa
respiratory
##mpires
swords
Coral
motors
motives
distribute
demonstrating
torpedoed
Pleasant
Lemon
Yellowstone
scarce
backstage
lungs
reissue
dismantled
##opotam
Torchwood
##roleum
Bug
Ez
Iro
Lille
Nile
Wan
fug
tails
##card
##gang
##Ms
##owl
arid
disability
Marvin
peac
bride
crashes
Amanda
Hammers
employers
investigators
Archives
560
symbolism
Ricky
reproduce
endorsement
penetrated
Russo
touches
Robbie
aristocracy
disguised
guerrilla
Bungie
inadvert
VanDerWerff
BW
Hos
Jub
M2
Sovere
drafts
##gart
##isi
##imation
##arya
intending
##ogo
wherein
invites
prevailed
Carlo
reprised
unsigned
Wallach
empower
Jacobs
Title
paleont
gentleman
succumb
Eust
Gue
Nadal
Qing
Ruf
##nick
##court
##fu
Them
shafts
deserved
Ars
feast
Mini
affirmed
selective
silly
1802
Episcopal
dialects
Nicolas
Gateshead
symmetry
monkeys
Hercules
wisdom
Sutherland
Bomber
Ion
##fal
##Sh
##leutnant
accolades
##space
prototypes
Resources
Valve
Frankf
enjoys
Michele
proceeding
Nobody
Coulthard
pirate
segregation
Volunteer
disorganized
1UP
Bio
Drug
ace
fused
moll
seldom
stal
stealth
chant
plac
Chu
##assis
##activity
subdu
Shut
##ancies
module
##urrent
213
confusing
Ministers
nationalism
##author
Khal
stretches
densely
synthesizers
Ahmed
extracted
salvage
abdomen
truncated
Baghdad
Downtown
GB
Tao
vom
##sed
##sing
##anta
unload
communism
Corinth
selections
Flora
Upanish
UNESCO
Yankee
Purana
Falcon
neutrality
Fuj
futur
faç
Marseille
##zhnev
Emanuel
Luck
Wire
aide
pent
##EP
##enium
##icates
##ablo
canvas
warb
transcend
007
conceptual
ratified
Roch
Alberto
Templ
kicking
extrater
Obl
Dalmat
Programme
CGI
numerical
Vampire
Vatican
Sava
pinn
##mind
comr
##achlan
Scale
transp
detach
Barth
casino
homeland
Merit
ethical
synchron
undertaking
trusted
Whether
neighbours
reverted
Ramsay
bailey
landscapes
Save
rans
##ilo
##steen
##leep
##uding
trams
Bran
Reign
takeover
humanitarian
Below
lifeb
Movies
robbery
##ubbing
survivor
tolls
chronicle
Territorial
Isabel
Mycena
Jakarta
Material
Hä
aven
lia
nem
##ryl
##ropods
accusing
Asp
township
facade
Boyle
Woody
##lighten
Rosberg
1778
withdrawing
interceptions
flanked
Mesa
Steelers
toxicity
Nirvana
80s
Yak
##guez
Thess
relies
dece
Willow
Capt
##guy
Katrina
researcher
hemisphere
inventory
republican
incarnation
Sylvester
StarCraft
Lara
Seal
UBS
groom
niece
##his
##hole
##iator
##eri
thy
Stad
clashes
Clair
occult
propose
timeslot
1822
Bulld
Havana
Antarctica
inexperienced
Fruit
Mate
Pasc
Pawn
pand
##onte
##esa
##aines
plague
plaint
shame
disple
Spock
suppression
##itti
obit
declares
merging
Soap
1807
pleasant
yellowish
shutout
shuttle
Dalton
lobb
##idelity
cadet
Kitchen
Favre
shoreline
oscill
BAFTA
Mey
Tik
Vent
##inement
incoming
compartments
canyon
indict
crush
deluxe
##ippers
solving
Antoine
donation
Melissa
Rodrí
annexation
Spitfire
Certifications
calibre
peculiar
Cannon
Dil
Gos
ta
tast
##tail
stipe
bee
##ulators
##avers
sparse
artef
relocation
upward
strat
concessions
myc
Noah
287
primates
Peel
curse
Consid
journalism
choreographed
Winners
cereb
aluminium
elegant
Rodríguez
Border
GA
aston
lamp
##kiss
##isman
blunt
Herr
Eastwood
holdings
inspiring
Virgil
Armament
pitchers
favourites
Lisbon
supervising
initiatives
Bakshi
Müller
linguistic
Beverly
Tulsa
quadruple
Ips
Keller
TAR
##pitz
##fol
respects
Suk
Historians
comparatively
misunder
burns
Levi
hearts
Manson
Patriots
Plateau
asteroid
##cipation
pamphlet
Buccane
Rw
Visc
foster
##ska
##otism
##chan
##umper
##ateful
reliance
remar
Pract
Bridges
drained
entities
destined
equator
Exhibition
interval
physicians
Fortune
Severn
Tirpitz
authenticity
Rodrigues
reissued
Rhythm
chancel
Sora
##croft
clich
##anson
cane
eligibility
quotes
gloss
rockets
Hamlin
figur
brownish
Abbott
##rovision
summarized
Tyrann
Thanksgiving
landowners
nutrients
Faw
IL
Kai
damp
gem
wolves
##16
##agus
##agree
recounted
comply
Unknown
warns
Harlem
Willam
##iterated
cutsc
Darius
Lincolnshire
Lutheran
Balkans
tyrann
conspicuous
Cody
Dong
bricks
peat
##heus
##uria
beak
seism
Chance
emigrated
Refl
##ylus
graded
Disp
Ellie
astrol
bypassed
Legends
conferences
Expeditionary
Nigeria
##occupied
amendments
foremost
Timbaland
Iber
Nguy
Sis
VT
Zap
rift
##öl
withstand
enam
abduct
actin
Combs
Forrest
protector
limb
Horace
fulfilled
monitored
Keats
Rafael
Kling
Role
Sieg
celestial
##moil
clover
Maritime
invading
transverse
Aboriginal
genetically
Paula
1840s
textile
enlist
customary
errone
sacrifices
Sawyer
resurrect
buttons
##orporated
Coc
Frem
Gé
##ID
##olini
##opods
arrow
Augusta
localized
##ospace
##linary
acquitted
Notes
academics
coincide
stereotyp
feminine
epidemic
Nomura
dental
puff
##ogues
##rail
committing
buoy
##stitutes
fellows
Stargate
accordingly
Olaf
Massacre
Ida
Hobbs
bathroom
Traffic
Sophie
workshop
reappear
nightclub
Dad
Lot
Mask
##heasterly
##elo
##ophor
Arbor
Desp
busiest
##ithers
archives
conflicting
apartments
illegitimate
synthesized
MIT
Farn
Fighters
##ste
##igator
serge
Orb
readings
Malaya
Haas
holidays
arcs
Speer
tightly
Philosophy
whitish
Him
Roland
rage
##90
heal
disagree
##ften
Leone
obey
portable
Amar
radial
Sims
Browne
imagined
Sigism
tortured
predictable
evaluated
Ulster
unconstitution
Icelandic
Flyers
Reef
Cain
GT
Hulk
lens
mosa
##ος
alpine
##odeon
Anj
objection
Barlow
##umbers
375
Catal
inherent
Lockheed
upright
Schwartz
disguise
Jagd
Dramatic
Dangerous
Hut
Lights
Mugh
lag
pear
sights
##icans
##oder
spines
charters
##airy
##etsu
Christie
telegraph
selecting
punished
offerings
Burnham
Raja
assassinated
Virtual
Paraguay
Mifflin
Dyer
Lucky
Pius
Phyll
Sanche
Ware
Wiggins
gland
mound
##orio
inmates
forwards
##fton
##ribing
subc
Spani
Scrant
Billie
Appalach
incorporation
dramat
Elements
renewal
retailers
clarified
Luxemb
paratro
Agg
Hr
PM
Ya
bot
ga
mold
troup
vener
##rack
##xes
##ndez
beams
Alison
##azi
impose
firearms
Priory
distributor
unfavor
Chilean
tuberculosis
Sanchez
cres
rides
ruth
##17
##str
Irv
hardest
McCool
Greenwich
Helms
Santos
cellular
timeline
enclosure
Byp
Boss
Ges
SL
dop
##houn
##ixed
formidable
##leys
1600
milestone
Flat
##ooters
Morales
##islav
quarterf
pairing
##brids
Bloody
condemn
Nickelodeon
undergone
Aru
Bourn
Dul
Kaf
Mog
hated
##gas
aren
Clara
##shot
mechanic
Brezhnev
galleries
##CAR
appreciate
scrutiny
Drop
PSP
SO
migrated
##bear
##inator
##aret
##inged
forc
##ivores
Thi
intersp
##iewicz
promotions
Intercontinental
Temper
experimentation
Invasion
Budapest
privilege
##bernatorial
Officers
Brendan
hereditary
Scranton
caud
ceded
faults
vine
inactive
##eco
##ersion
partition
defines
Whatever
discrimin
Monitor
circus
Atlas
Tomorrow
repeating
receptions
incorrectly
Lump
eternal
##zman
##acula
dislike
downs
##akening
antis
funn
Perkins
##hysical
Irwin
Smithson
emphasised
morphological
Bavaria
enrollment
Instrument
Destroyer
Ode
Sands
##amon
ads
monopoly
##grass
equations
regulars
Samus
responds
snout
##pez
Briarcliff
Cary
Hoy
Lives
XIV
##fi
##jina
##ecd
thumb
##eming
unidentified
##uga
##screen
##clusive
Elm
initiate
Hamasaki
curving
captaincy
progressively
Judith
Guns
disturbing
Orient
Keating
consecrated
lacrosse
Cindy
Koch
Suez
wards
friction
capit
Allah
justices
Flint
confessed
travers
##inny
apoc
Commando
Casual
litter
Opposition
Currently
Kosovo
Gettysburg
populace
ourselves
Eaton
Giles
Haj
Ló
Mā
Ninja
Wies
bent
pants
ventures
##ailles
##daughter
##alu
##odic
##illary
playwright
Anzac
finalist
Agnes
gradient
denial
Greenwood
confirming
foreigners
Breed
Barbados
ACLU
terrorism
recipients
predictions
quadr
porch
Fantastic
Hiroshima
federation
contaminated
betrayed
##omenclature
Eh
Hyp
Hogg
Mard
Wik
bunch
mas
vern
void
##pie
##rehend
onstage
straw
##opper
attested
##evol
amassed
Blitz
northwards
Monaco
Terrace
1788
calculations
Uttar
Exposition
Montenegro
Guinness
Omar
Piet
digging
neb
##fin
##osem
unpr
Joa
##ementioned
signatures
Belize
taxa
1830s
##comes
abandoning
Advent
Dioc
wilderness
ideological
judgement
distracted
##opardy
taxonomic
defenceman
irrigation
Hebrides
Willamette
Lah
Witness
##vation
##edict
##ilyn
##grims
Eurovision
Enemy
originating
costing
31st
turmoil
Romance
Farrell
Uranus
harmon
bulb
Everybody
Oilers
mistakenly
workshops
Kraków
Dipl
RT
Sg
Sellers
Usta
Vand
##yx
##enaries
##herty
chocolate
##ultimate
convective
Eli
Guang
Paterson
ambushed
Twins
plea
encouragement
updates
Kerala
Thriller
Agricultural
saxophone
utterly
muscular
extravag
Himal
pitted
##enk
##isors
##rokes
resided
Indo
histories
Gris
Wills
phones
Flower
##uffle
Egyptians
logs
magnificent
530
Rodney
harmful
satellites
Sioux
proclamation
earnest
Archaeological
discouraged
diplomat
Kensington
Gavin
reconciliation
Split
infectious
Cash
Dies
Kne
Trot
pour
##uve
##nitz
##ectives
Stirling
traps
##ueger
##ruz
secrets
Juvent
Android
##opsy
corv
likelihood
Mercer
optional
unsuit
Greco
##ofsky
exclusion
graphical
cartridge
weaponry
advocacy
pioneered
Leonardo
broadcaster
sustainable
Nablus
dignity
invertebrates
Cun
Kiev
Pull
WA
lethal
##dr
##gement
##SC
alerted
##estead
hears
chip
contests
##izoph
Whilst
Lea
##spoken
Yorker
##shop
Monmouth
activism
Activision
prediction
Milo
applauded
dynam
Kirby
Walking
dangers
rebellious
grazing
evidenced
Homic
bags
nod
podium
##nesty
##fman
##ndel
ashes
asleep
spelled
default
sweeping
developmental
fielding
farewell
Porto
representations
Events
Meh
boycott
Becky
Midlands
Royce
Saxons
obstruct
bacterial
dictator
Ecology
Cannes
Citizen
insurgents
scuttled
Ipswich
Feed
Fountain
Wave
mice
raises
##še
##elton
##amiliar
rejects
fronts
scouts
Johor
Sched
critique
restruct
practicing
Agn
Donnell
renumbered
Knock
ambulance
angel
Telesc
Sarat
Satell
accidental
Fairbanks
##iocene
chaotic
deprived
algorithm
lifespan
Dancing
Wain
grip
##olin
##aguchi
##ppo
Carbon
Abrams
summers
lifting
Rolls
sensation
##rifying
satisfaction
partnered
backstory
Sterling
Edu
eagles
##mod
##illan
##ews
scenery
Forum
Tram
##inkel
Editor
courthouse
Monaster
##anguard
eyewall
biographical
##ographics
chiefly
Rollins
Libert
Connie
Borg
fashionable
flashbacks
Mikhail
vigorous
Gloucestershire
HMAS
diffusion
lithium
futuristic
##izophren
Homicide
dear
rust
##igated
splend
incurred
##ignant
imaging
blades
brake
guess
Grass
Progressive
medication
Except
239
lesson
Assy
Burma
Arkham
archaeology
forecasts
intervened
Drummond
phylogenetic
nasal
Béla
Hertford
Hens
Jal
Sens
akin
##atine
##eling
stocks
##ifolia
Stur
##ilee
surm
brush
finalists
proposing
considerations
Doub
winged
Carlton
philanthrop
Extension
Becket
Livingstone
berth
vaccine
Compared
Flemish
Larkin
Strategic
aforementioned
Meng
Tipp
rhin
##fighters
##ptions
##pless
resupp
##ollah
manpower
brave
Clown
contractor
Congreg
denoting
Severe
sandwich
installments
##anthan
martyr
researched
Velvet
drowning
cosmic
ironclads
soup
Natalie
inundated
Guevara
Bhar
GP
Hubble
wan
##tap
##rise
##cop
##leading
sticks
##ianc
enables
Thai
##izza
##arky
receip
downward
headline
DeL
connector
alphabet
Sovereign
Cove
Dir
Ech
Fing
Jas
##fig
##Hz
##essive
##istance
##oulder
uninter
Arlington
Clause
este
arrests
dividing
##umbling
purported
penultimate
##ariat
elevations
explanations
scoreless
##hadowed
lucrative
prehistoric
López
Fro
Pere
##rokee
stain
##aghan
spinal
Alv
0000
headlining
Orr
Monsters
Playboy
35th
participant
470
Santana
murderer
##addock
Midwest
Fairfax
Constitutional
Cobain
traum
expertise
GameSpy
Crusaders
pumping
hesit
Vide
Vita
batch
vague
##alam
##alla
##ocus
perpendicular
Bres
Trenton
imperson
gunners
401
freezing
Neolithic
Archibald
responding
Dunstan
Jonas
kicks
777
sampled
Semin
clinic
##izzard
fluoride
Aurora
citadel
dissatisfied
Jardine
Fanny
Gros
Nur
Pig
Rogue
Vert
lun
lets
##nh
##apo
Chloe
##obia
regulate
Shim
Carell
gubernatorial
Christgau
sweat
##cker
improper
Slow
Bois
loops
Doct
Penny
domains
Cherokee
melanch
guarding
Inspired
Trouble
Creative
Göring
König
Iroqu
Kul
Maid
Nes
Pure
Points
Qur
Sob
cyn
narc
pumps
##cad
theological
##oug
##rea
Chain
arrows
Thorn
wells
autism
humili
232
Thatcher
Salon
overshadowed
rolls
##iotic
Attem
##frame
Strauss
analogous
Punj
cinematography
Pérez
Favorite
inadvertently
unconstitutional
Cag
DM
Draw
Faul
Ike
KC
Map
NR
Pens
##Os
##imar
208
intake
##sohn
##inald
Shi
brands
Isis
Elaine
##hammer
genome
checks
beginnings
Actors
Martín
Rockwell
contrasts
debuting
Landis
crying
journeys
Hoover
Extreme
recipes
NASCAR
##DIS
stereotypes
unconvention
##chwitz
Banner
Jod
Nico
POW
Rij
loot
lucky
masks
pile
wires
##enko
##oust
stamps
Chili
unsc
thematic
buzz
Scher
revisions
##ucle
Clive
implying
##ukes
catap
reasonably
Fielding
590
Barbar
ignore
overlapping
queens
Titus
lobbied
Cancell
HC
Mist
Sutton
TC
riffs
Inters
##ako
##ocide
##sein
##ogist
subl
Shu
beloved
counting
privacy
Saraj
apparatus
##oncile
beautifully
horizon
Anglia
Emerald
nursery
libretto
anarchist
Avalanche
cautious
Fermi
Fool
Jaguar
Sime
Zimmer
##rama
##æd
##aram
##adia
Theft
reconcile
##izon
intox
##ego
##ropod
knocking
replen
##inners
Boer
Terra
Younger
loads
Epic
harmonies
trailers
Royale
pools
predominant
hooks
Toledo
supernova
delighted
Saratoga
Gadd
Mons
Wanna
dip
piers
##iard
##mium
##zb
##vic
##hea
##atore
##itas
fores
relics
unused
supplying
invisible
belts
handheld
##aford
Herb
238
capitalism
unfamiliar
philosophers
Daley
##optera
pioneering
Entry
Oriental
##rahim
peasant
hydraulic
Sigismund
Nate
Ragn
Towers
grit
tech
##hog
##othed
evolve
Marathon
Leading
Commanding
booklet
titular
nowhere
humid
infamous
Glam
Kras
precious
1781
chorale
McGovern
prosecutor
Priestley
Stephanie
AJ
Lox
Ships
rh
##eaux
##game
reused
atroc
##iale
##rax
unex
amusement
brood
##iscovered
Coaches
obsessed
Stras
royalty
Sandra
fisheries
turtles
Het
SD
Siv
bits
##ku
##US
##odus
arrog
relent
partisan
##ups
Trump
detr
##linger
Elias
ported
##aldi
Donkey
travelers
Imper
Tourism
imagin
McGill
Owens
Armenians
Hubert
conferred
grenades
reptiles
Gut
Maw
##yne
##brough
##iso
##imoto
##ugging
preserving
Shepp
##lishment
Edith
refuel
statutory
Reginald
certifications
Croats
assistants
Smallville
barbettes
aluminum
sanctioned
Odyssey
Jov
Kag
Lal
Often
Tide
Vor
raced
viv
##astically
recons
##angs
##ribes
reggae
Blow
expose
deputies
Flair
##unga
declines
##iership
Royalist
Meet
mythological
rooted
Katy
expectation
archaeologists
restriction
wetlands
reciproc
Hobart
Versailles
MiG
facilitated
##abetes
Wendy
impaired
amalgam
pilgrimage
Buk
Different
Pyr
Zh
pH
sacks
##eater
##moor
##bels
##gars
Stru
Chat
##olls
commuter
##ologne
longitud
fathers
uncredited
permits
encourages
1787
conceal
Buddy
##boats
garde
legitimacy
VRS
Witt
cake
footh
mourn
Alma
upro
vari
meditation
##ooner
Desmond
Highways
uncont
socialism
##islaus
analysts
Tweed
domes
52nd
streaming
commemorating
tablets
neglect
analogy
genuinely
Kerrigan
vitamin
Ripley
degenerated
artefacts
Dash
Rabb
fianc
toug
##emis
wholes
condom
##umont
209
energ
1700
Novak
Yorke
Yorktown
##affen
##intosh
##aski
Antiqu
Browning
Goldberg
Turning
songwriters
##rophies
disagreements
##iocre
ostens
Faust
anxious
ecosystems
Lichtenstein
Dundee
paranormal
hilarious
##lightenment
Bournemouth
Kro
SPA
ZX
faded
##nets
##eson
##alc
##eti
##illusion
Inver
orthodox
flora
Newsp
operative
Plus
Deer
captures
##aptors
routinely
Falun
surgical
Wolfgang
Pleist
gatehouse
Investig
gamma
prayers
Ustaše
unsuitable
Candy
Meat
Roses
dé
erotic
hides
lonely
##uire
##fest
##onel
##idus
intest
Marilyn
collegiate
refr
avant
Recogn
Medina
##ecker
##ascular
Underwood
Maver
Confuc
950
Effect
Padres
Macedonian
eclips
interspersed
Ik
Tec
Tactical
Za
jets
nec
##inwall
##anj
##etion
##utant
##emate
chancellor
##onduct
##iba
Manch
periodically
Generally
Samoa
Triangle
Danielle
myths
sortie
molecule
Patriarch
Sepinwall
Horses
Lansing
Lombard
Baxter
AHL
bald
hards
lips
##gard
##arra
comets
daytime
epile
##auld
glut
animations
Neum
urgent
denying
##ridges
Ramsey
##engthen
##omotive
Susque
Scarborough
Björ
paradox
Chaos
teaser
Luxembourg
unconventional
Bisc
lure
scept
ink
##isto
spared
##000
Alps
Clash
imposing
weekends
Emm
##falls
strengths
definite
RAN
Gunn
Fest
Kum
Lum
Ner
Vogue
staple
##ologic
exposing
Flags
Valuable
necessitated
chronicler
exploits
Mesopotam
vulnerability
conveyed
pillars
Auschwitz
BWV
Burr
Hul
Hours
##atio
##ogl
##ibus
chartered
paraly
##ambo
admitting
##ynes
semic
hearted
Mahler
neutrons
grasses
Thornton
Friedman
scouting
sociology
relativity
IMA
Lamp
Push
Sach
Sval
Watt
##zyn
##onet
##elet
thw
conduc
deport
##abouts
Sho
Scenic
##ullah
classifications
publicized
affinity
Coronation
dramas
Yeah
Chennai
Crusade
Speedway
Brandenburg
abnorm
Wilfrid
SW
bully
tire
##illus
##ighty
unite
desires
secession
capac
deposition
217
Hotsp
Transform
fixtures
Bahá
Whereas
Gentlemen
Shetland
Hare
Ninth
Rö
sack
##pill
##zky
##är
##estown
desirable
Anast
Carmen
Parts
229
inspire
Results
remarkably
mastered
mutations
737
supersed
renovations
weighs
Ibrahim
Smithsonian
Sarajevo
Pleistocene
Pied
Yus
aust
bony
bunker
##buster
forfe
spars
clues
##prints
compartment
outlet
presidents
redsh
285
Seneca
domination
Help
liberties
Jenner
Riverside
cylinders
Dard
Lact
Tier
cos
doses
lust
mutation
wishing
##asium
stature
recession
regent
##airn
##ermo
twe
combust
competent
valve
Perl
Roberto
Martine
potent
alternatives
forehead
Tej
Whitman
obligation
dependence
glacier
despair
Athenians
Byzantium
seizures
Irvine
Sgt
Cao
Dress
Easy
Seed
Uprising
Went
fishes
frost
##adors
##abis
##oko
Hex
useless
takeoff
Milford
32nd
biographers
literacy
Seoul
1779
molars
regimental
enthusiast
chronicles
Thunderbirds
hindered
mercenaries
gifted
semifinal
Marceline
bordered
TARDIS
Baird
Depend
Hels
Leng
Sust
##iak
##bh
##Pro
wash
scarc
Alley
flavor
linebacker
Moran
Richie
bursts
salaries
colorful
globally
ACE
Discography
outlook
Naruto
Regardless
Spectrum
spheres
Birthday
Gilmour
Buccaneers
Cors
Gome
foli
##nis
##ecia
reed
##akan
##irez
usur
imports
##aiman
communal
needing
popularized
barge
identities
activation
entrances
##addington
767
glasses
archaeologist
cooked
Gorge
detonated
Gemini
Iroquois
LM
Wigg
fel
lyn
xen
##erog
shake
Stead
traw
unac
Mare
simulation
Loud
frequencies
layered
gotten
Beatrice
540
orbiting
Ringo
##cutta
Yardley
Spitfires
subscription
Huss
Rak
Wic
Wyn
migrate
sidel
yoga
##icent
##gee
notor
reclass
clutch
commod
Carrier
Reaction
crane
Musically
##sha
Drivers
Firth
Portable
##ographs
collaborators
Earlier
administrators
1900s
Cowboys
reluctance
Zeus
Boll
Freak
Kidd
##OP
##vable
##arp
intends
Como
parishes
complaining
annih
parkway
##fecture
Burnley
Confederates
Caen
Omega
noticeable
Juno
Rudolf
validity
hunger
interfered
Companion
Pretty
marshes
Triton
Blamey
cerebral
Fashion
Gap
TA
jockey
##loid
##cade
##zep
##fit
##heid
shade
Stakes
reside
##onshire
Collegiate
252
Eno
Madame
Schr
Slip
Honour
Ballard
Kimber
fragile
Laden
Mandela
Balkan
façade
IN
Ov
UM
Werner
gra
matt
##makers
##cke
begg
defer
reservation
induction
quint
emperors
skate
Amman
228
counters
##boards
directorial
Slovak
Slovakia
##iosity
purchases
senate
BCS
Ramirez
squir
Audrey
weaknesses
aristocratic
Horton
Frankfurt
Job
Text
gimm
saints
##uper
##kamp
thigh
anecd
degrad
##iamen
generator
winters
Bills
harness
Crossing
snap
guardian
definitions
robin
Jesuit
assemble
obstacle
corpses
pennant
patriotic
cinematographer
screaming
subfamily
narration
Caldwell
Bom
Cologne
Pec
Psy
Tot
Wo
lawn
##acruz
props
Alive
workforce
transitions
Phi
Amir
Calcutta
neon
hybrids
Filmfare
breeders
##writers
520
rescues
Mosque
Hello
Wainwright
MR
hack
hinted
melt
vibe
zeb
##acl
Ston
Thirteen
Leaves
##full
Problem
Monter
dispatch
Depot
schizophren
Rodden
impressions
attribute
fatigue
corresponds
680
skulls
bosses
petitioned
Prair
escalated
Uruguay
Bure
IJ
bother
##xton
shit
Sting
eminent
##fulness
parrot
announces
Abe
##araoh
focal
intensifying
Olive
Josef
disappears
Diocese
1774
720
courtship
maple
Sihan
sickness
flexibility
Traditional
vowel
Competition
cassette
Nissan
Cancer
Epsilon
Feld
Lily
Matsu
RN
Rik
Zhou
seller
theolog
##elier
##ifix
splin
grunge
##lla
Coler
Beer
Barric
212
Accordingly
Simmons
Mona
hostages
photographic
Counter
Luzon
Batavia
Kelley
Gilligan
assassin
##breaker
dictators
inventor
assigns
##combe
adulthood
Move
Mafia
NDH
Teddy
oceans
pectoral
##edience
##adder
orch
##nthesis
Thin
miniseries
cracks
visions
informing
Hillary
Veracruz
Badge
lovely
Katie
##ephal
Domestic
René
professionally
flourished
Soldiers
Shearer
uneven
asymmet
sergeant
Gomez
Mt
pend
##rential
Therm
##ieft
finalized
medall
Amtrak
confesses
humidity
Angus
Calhoun
##iddle
Rocket
Woodstock
Bowman
42nd
documentation
Roma
vertically
mortars
Levy
Azt
ventilation
showcased
Chetniks
reworked
Ptol
Oricon
Dais
Pom
Paw
bou
mans
##asim
onward
Indigenous
compliment
Guer
bestowed
Morrow
obsession
mixes
##ocalyp
Powder
subsidies
ascended
cocaine
masonry
Sihanouk
GS
Sikh
##yb
##herly
Alph
Comes
Rez
veins
escorts
Palmy
Gods
eyed
emerges
reactors
Construct
Directions
liquor
Publishers
capsized
abbot
Mutual
##raviol
##erunner
Hotspur
Ary
Cron
Henn
Keep
dwind
pays
taped
whistle
rewards
##odrome
coma
prostitution
contamination
Think
scary
Als
charities
mediocre
shortest
edged
confeder
Portal
Malone
Soccer
royalties
Mathew
Provision
cooled
Braat
Oakley
Episodes
CMLL
##oubted
mitochondrial
inaccurate
Kriegs
Etymology
Wish
Zen
##cers
##cope
##jin
##onne
Theoph
rearr
spanned
spurred
##prom
##athing
designations
listener
sums
excer
penis
Olympus
favorites
unsatisf
melted
Juda
container
robots
waist
deliveries
Mustaine
convenient
navigate
parameters
antiquity
rudder
indefinitely
betrayal
ceasef
Hector
Loss
Lunar
TF
null
##creen
##icorn
Chong
##ruk
##oughton
##rices
upbeat
indec
brakes
addict
anymore
Amateur
refrain
standout
##atorium
##ursions
Enough
barges
vocabulary
legislators
DVDs
geometric
fueled
illegally
Speech
Nagasaki
delaying
Rabaul
Truck
Controversy
exacerbated
Roddenberry
90s
Gaut
RM
benz
hints
pony
vain
##wara
##dock
##ayne
chalk
strand
advisers
Elis
249
Calig
##umbo
##liner
##yrinth
recognizable
birthplace
logging
Cyber
spectacle
orchestrated
Megad
renewable
odor
Organisation
institutional
pigment
unreliable
reefs
crusade
professors
Kafka
Junta
bubb
fits
##WS
##alom
204
spo
Chapp
newborn
Shark
##nington
Spee
##onyms
Elton
##amboo
Active
injuring
##trans
Prelude
monarchs
kissing
amidst
##werp
peripheral
endeav
unaccept
Nero
ridden
wakes
##ández
##orously
##atable
##itian
resurg
perished
##overing
Afterward
Harmon
##hampton
antagon
Quant
Courage
treatise
Merry
Golds
Darryl
Panic
pathway
mastering
##abbing
utilize
stemmed
encountering
evaluate
savings
possessing
incompet
prejudice
catastrophic
##ocalypse
Ces
kins
vintage
cone
ate
exited
##gean
praises
clone
Ansel
Elgar
twisted
Employ
Toro
analyst
hypot
Natasha
loaned
deteriorating
Honda
minimize
applicable
pigeons
bravery
Merchant
cloverleaf
Riot
##uw
##uish
##jav
anterior
##istles
##seau
##ogens
claws
reliability
overhe
grams
neared
Elsa
##aughty
Polar
physi
Alexios
Sof
undis
namesake
Selected
latitudes
Directors
wardrobe
foxes
Estonia
Filipino
Pawnee
Cous
Llan
Narr
##Pants
##keeping
##agos
prostitute
shattered
##quito
Hezb
scroll
caric
##grave
Schul
325
literal
consistency
Sexual
salvation
receptor
Coolidge
Beauchamp
Rosenberg
Neighbours
Murdoch
Dioclet
foliage
degradation
Aid
Kara
Oss
Pusan
Turt
##word
fried
##odian
medications
Amid
216
caste
popularly
awarding
stripe
modernization
closes
Antwerp
Justinian
semin
Clements
tanker
oceanic
Returns
ornament
antibody
tyre
Luton
PPV
Bypass
Diocletian
Sán
##tel
##HO
##arty
##aceut
strains
Whale
Advert
Geological
protr
injection
creativity
diabetes
##ographically
34th
Prec
collaborate
sampling
shrub
##esterday
Gardiner
wreckage
brigadier
flowering
Hammerstein
botanist
Innocent
Slovenia
Sánchez
Fans
Hau
Lill
nud
##EV
##ński
##ono
##eterm
##ewide
##ocles
shocking
##ockets
endurance
grape
Spaniel
##ahaw
imply
##closed
Editing
crushing
Earn
Resistance
northernmost
torch
salts
messenger
##osaurids
remarking
transforms
##utsu
Handel
coordinates
discontent
aggregator
Middlesbrough
Characteristics
incapable
obituary
Neumann
Megadeth
Cir
Gin
Wreck
iter
lau
niche
tan
##iland
##oway
##avis
disillusion
Should
invite
famously
localization
magma
gliders
##emorrh
occupants
abandonment
handsome
Jules
pinfall
Taliban
advocating
Rabbit
Pelop
prosperous
Welch
apprentice
befriended
compassion
Hezbollah
Tou
Zoe
panned
##HF
##LI
##icable
##stairs
stark
##ocating
chassis
leap
sermon
mankind
##ausible
##phin
Score
##ieri
##spect
255
##ooms
Croft
322
approximate
Sunset
granddaughter
Treasure
Winthrop
Confessions
narratives
rupt
Klaus
rubble
posthumous
awaiting
hastily
Ai
Dodge
Gur
Lilly
Nant
Pocket
Rudd
Yemen
gel
germ
##32
spoof
consul
elbow
Briggs
parental
Conquer
advancement
Deutsch
replies
winding
Henrik
Schn
##ushi
credibility
Luigi
##marked
logistics
honorable
Rowan
swimmer
Thorough
excellence
monumental
controllers
Vehic
Goebbels
Tillman
Encyclopedia
Habitat
Rufus
Barrichello
Mouse
Tox
cues
rites
##tat
Theres
##rious
hadn
contenders
amen
Designed
patrolled
262
Petit
CDs
ignoring
Dubrov
tablet
nerves
repetition
gamers
voluntarily
Smythe
recaptured
Beds
Forth
IT
Lima
Tap
Voor
vend
##zew
##As
forage
##imates
##andi
scaled
outspoken
airc
mined
##ahi
finite
Revolt
horrible
Strang
voter
attendees
sustaining
lawsuits
Galland
vacated
910
flanking
doctr
Stockport
laughing
witchcraft
Hodg
Oryzomys
intricate
cutscenes
Satellite
Dug
IW
NH
NJ
TB
Waffen
hiking
muc
##lace
##sers
##iov
##vald
##rolet
Stap
##gebra
##ffiti
herds
overr
remembers
provocative
Northampton
circuits
mentioning
Stephenson
collaborations
Lucia
paperback
virgin
bullets
prospective
Hannibal
##ürst
Patriot
fractured
Pickett
Townshend
Toulon
nocturnal
comrades
unpredict
##raviolet
Dubrovnik
Dat
Kuch
Sein
UF
rim
##CP
##umption
##ovac
relocate
parodied
estrang
replacements
##ipple
Medic
Goodbye
accompaniment
liberated
##opposed
Renault
migratory
Reeves
periphery
transparent
Hammersmith
ceasefire
Dief
Pee
Rae
Soci
docked
malf
wed
##human
##orah
##atism
##utic
Ingl
##abh
exert
arched
uniqu
colloqu
Reconnaissance
behave
northerly
insec
suffix
motions
modeling
interacting
Mosley
Integ
corrected
behaviors
Sigma
asserting
spontane
Embassy
Mysterio
Feeling
mirrors
Stamford
Buildings
Bain
Ducks
Lup
Rica
cov
ponies
sorts
##nected
##kap
##arivo
##icultural
##quit
Chicken
##reep
##ludes
##eats
asset
quartet
revital
mainline
Orn
repatri
portfol
posture
pressured
southernmost
Otis
Kramer
##ymph
transforming
Bombard
Rubin
Coventry
flawed
Chevrolet
Braathens
Diefenb
nect
##ranes
##führer
inequ
##amara
##eme
##asties
##planes
uphold
defunct
transfers
damn
Paras
terrific
specialised
##urban
curv
Santo
Dunham
distinguishing
Treatment
conspirators
geared
landmarks
swallow
skeletons
aggressively
Diefenbaker
Dwarf
Gage
Jared
Lug
Tic
##hler
##rach
##mor
whip
##gender
abdom
scal
scent
drill
234
rainfor
curious
narrated
sailor
Philippe
980
Kalam
heirs
Shakur
cartoonist
Ethan
envelope
resentment
adorned
forcibly
Gus
Jaws
Kors
Rural
riv
##rion
##Radar
2020
##ldon
##akin
clitor
unequ
indist
Blaz
McH
affiliation
Preservation
businessmen
MacG
1782
SquarePants
Sundays
landslide
taller
rhyme
shelf
Described
depressions
laughs
patriarch
Hilary
Rahman
tumor
pivotal
ostensibly
Bauer
Civic
Dunk
Ead
Fate
Raph
Seek
raven
##yth
##inh
##atross
forensic
truss
arising
residency
scav
eve
brighter
Brant
##ietal
estuary
Juven
Parry
volatile
##enthal
importantly
persist
Articles
Ramon
bottles
sculpted
garner
reunite
Nikki
Hinduism
Seeing
bulkheads
yields
sticky
Honorary
skeletal
metabolism
unfavorable
Gator
Hilton
Pavilion
RF
Roe
gag
sultan
##kkinen
##uler
##plain
unhe
##reeze
intert
##ronics
Conquest
##encement
Parth
antit
Residents
Donovan
Goddess
rainy
establishments
awful
meaningful
Publication
Target
refugee
mandated
wrestled
thorium
deterioration
Orioles
Bethle
Ganesha
##ocytes
Māori
Cancellara
BN
BK
Ninet
Pug
Rig
Sasha
lining
tant
##wear
##bring
##anelles
##adas
##andum
##umm
interned
endings
poses
instinct
obverse
Flu
211
socio
ency
Berks
pastor
Freed
Linden
garrisons
pulls
##angelo
nurses
wounding
Aubrey
encompasses
Laguna
Anaheim
Tibetan
recapture
safer
Häkkinen
Telescope
Fingleton
Cot
Door
Oro
gown
neat
##arcer
##inging
##ingale
##ayas
##ectory
unear
unopposed
alliances
underparts
Trigger
modelled
Produ
##inched
Barrier
233
Polo
##uku
Malm
Rockstar
Superintendent
Melody
Erich
Sumner
Darlington
Verdi
Whitlam
spray
Everyone
Titans
Bengali
Ordnance
Chemistry
Scandinavia
Yahoo
mathematician
squares
troupe
Lumpur
Caval
Jorge
LT
Nails
Paine
hid
jewell
sells
##oire
##unate
Straw
##orks
##iken
blows
Forward
##classic
Airplay
summed
encro
##itaries
undoubted
Walters
greenhouse
mortg
##changing
disciplines
consolidate
ribs
Tallon
denominations
overseeing
reclaimed
illuminated
Elephant
Aegean
variables
Bethlehem
Korn
Liam
Wint
Xavier
bodied
tore
##will
##gment
##igl
expulsion
discern
contractors
Merlin
cyclonic
shootout
Forty
questionable
pollen
boron
Goebel
Denny
extraterrestrial
liaison
undisclosed
Funk
Fasc
Humber
Jeter
Loth
Pablo
Yong
bounded
lanthan
##ád
spaced
##luding
grabbed
concussion
fielded
purity
Image
bridgehead
Sirius
examinations
Console
heightened
Universities
Ayy
munitions
Sanctuary
Syndicate
Lydia
Clapton
jewellery
BT
Ce
DLC
Furn
Miley
Tea
Wł
Yuan
Zappa
##rak
##zu
##asers
##ellular
carpet
Atkinson
##grily
LeM
Androm
Battalions
affirm
insisting
Portrait
determines
scheduling
duly
Commissioners
Ryder
Hyper
molar
Strip
Bronx
sentimental
eclipse
pardon
invasive
archety
Mormon
vernacular
FIA
Kali
Lask
TI
gaz
iod
##mie
##48
foresh
##utable
##emma
##osures
##estones
christ
Churches
abort
Sharks
backward
Whigs
##affected
excuse
apex
Gregg
Stephens
Liszt
Elev
Mortimer
executions
Covent
dictated
stylized
libel
Hussein
Believing
Learning
lobbying
undermined
conservatives
gateway
Tyrannosaurus
Gail
Lae
Nurs
Nansen
Vu
lan
nets
witches
##function
##jans
##antically
Stacy
##ieves
intend
unreal
disarm
outset
secre
drastically
barr
superf
chemist
Labr
empir
shrubs
Wagga
Gotham
Andreas
Francesco
Gonzá
Sibelius
unemployed
Mozart
Gretzky
rhetoric
airstri
Appalachian
Laun
MO
Oce
Raim
Tact
Zhu
Zerg
cerv
panc
ropes
##via
topp
angrily
compressed
Stro
##anged
Sci
minig
##resses
skins
refitted
differential
motive
Markham
Peterborough
battered
proportional
Rebel
Aleppo
receptors
Saunders
uploaded
arbitrary
invasions
Requiem
Doubt
Svalbard
González
AH
Biblical
EF
Frey
Fishing
Hands
pestic
##uaries
##pani
##56
##igate
ston
plank
##plet
cared
Shea
modify
##ceptions
##eneuve
organising
trades
Meeting
Wilkes
disperse
Francisc
textures
Historia
entrusted
SummerS
basket
Dogs
Bulls
Broncos
fascinating
Andersen
Dockyard
Aristotle
haunted
codenamed
Loxton
longitudinal
Kriegsmarine
Sot
Susp
Wet
daring
##rors
##orical
##stellar
forged
Stav
##ibu
Shadows
invaders
setlist
Claus
Process
internally
superintendent
massac
Alexis
Associates
##ysław
Collier
doubling
brightest
Dawla
restrained
restraint
Foley
Prairie
Pump
##Ds
##jack
##orb
##inges
##arten
incarcer
contended
##oglyph
##ondition
##hne
regroup
formulated
defects
deficiency
amusing
capita
Harlan
##alya
##nyder
digits
Trials
erad
flees
Eliza
740
Graf
militants
##broken
Purd
astronauts
frustrating
Sacred
##edgehog
Treehouse
metabolic
##corrh
treasurer
explorers
SummerSlam
Drap
Fraz
Gü
Gund
Kathy
Lod
Mew
Vari
Wen
cauc
typh
##uced
##oler
##igor
##ulae
##estrian
prow
resolutions
abused
Spur
##iero
Minutes
Dracula
programmed
Corridor
terrace
Temp
synonymous
Famitsu
stereo
fertility
Manga
CAP
Marxist
70s
AOL
Dial
Hume
Kob
Poc
Pett
Rout
fines
gum
icons
jux
##lic
##wat
##cony
##DR
##jon
##ionage
##iduous
spikes
##ricted
subcont
defens
blessing
Anarky
empl
smile
handing
Counties
sonic
Stranger
343
angels
Hawker
turf
Osborne
Retro
Troop
cousins
pioneers
Roche
compromised
drunken
paramil
inconsist
cemented
Companies
Königs
luminosity
threshold
Invincible
Aali
Bets
Dag
Ewing
Mald
Mids
Yel
easterly
padd
##rab
##zak
##erxes
##arum
anal
deaf
##ogne
rests
##ructs
pepper
receivers
battling
Guill
propriet
##ettled
superficial
testify
goalsc
planting
Devi
hydrox
Springsteen
vegetable
bypassing
stallion
botanical
otter
refurbished
Schmidt
Kolk
Nun
aph
citation
moor
rushes
##educt
orator
flats
monolog
Sham
grains
##heny
simulated
detain
shortstop
organise
crossings
Weinstein
Madh
Filmography
integrate
licenses
Bolivia
satisfactory
Coldplay
Divas
encompassing
Moment
Meadow
Levels
toilet
supremacy
caudal
Dardanelles
Provisional
Baj
Mott
aria
bland
feral
##pret
##ouin
staunch
exiting
##rites
outcomes
flocks
##athus
Clock
##ypsy
Novel
Prote
Floor
219
Calc
Courts
lowering
510
slept
Baba
1758
Cinemat
Chaluk
Nellie
masculine
CW
Rost
Seph
Tō
Vest
poured
Châ
##okovic
disob
##ikos
##ibia
[...]
