{
  "version": "1.0",
  "truncation": null,
  "padding": null,
  "added_tokens": [
    {
      "id": 0,
      "content": "[PAD]",
      "single_word": false,
      "lstrip": false,
      "rstrip": false,
      "normalized": false,
      "special": true
    },
    {
      "id": 1,
      "content": "[UNK]",
      "single_word": false,
      "lstrip": false,
      "rstrip": false,
      "normalized": false,
      "special": true
    },
    {
      "id": 2,
      "content": "[CLS]",
      "single_word": false,
      "lstrip": false,
      "rstrip": false,
      "normalized": false,
      "special": true
    },
    {
      "id": 3,
      "content": "[SEP]",
      "single_word": false,
      "lstrip": false,
      "rstrip": false,
      "normalized": false,
      "special": true
    },
    {
      "id": 4,
      "content": "[MASK]",
      "single_word": false,
      "lstrip": false,
      "rstrip": false,
      "normalized": false,
      "special": true
    }
  ],
  "normalizer": {
    "type": "BertNormalizer",
    "clean_text": true,
    "handle_chinese_chars": true,
    "strip_accents": null,
    "lowercase": false
  },
  "pre_tokenizer": {
    "type": "BertPreTokenizer"
  },
  "post_processor": {
    "type": "TemplateProcessing",
    "single": [
      {
        "SpecialToken": {
          "id": "[CLS]",
          "type_id": 0
        }
      },
      {
        "Sequence": {
          "id": "A",
          "type_id": 0
        }
      },
      {
        "SpecialToken": {
          "id": "[SEP]",
          "type_id": 0
        }
      }
    ],
    "pair": [
      {
        "SpecialToken": {
          "id": "[CLS]",
          "type_id": 0
        }
      },
      {
        "Sequence": {
          "id": "A",
          "type_id": 0
        }
      },
      {
        "SpecialToken": {
          "id": "[SEP]",
          "type_id": 0
        }
      },
      {
        "Sequence": {
          "id": "B",
          "type_id": 1
        }
      },
      {
        "SpecialToken": {
          "id": "[SEP]",
          "type_id": 1
        }
      }
    ],
    "special_tokens": {
      "[CLS]": {
        "id": "[CLS]",
        "ids": [
          2
        ],
        "tokens": [
          "[CLS]"
        ]
      },
      "[SEP]": {
        "id": "[SEP]",
        "ids": [
          3
        ],
        "tokens": [
          "[SEP]"
        ]
      }
    }
  },
  "decoder": {
    "type": "WordPiece",
    "prefix": "##",
    "cleanup": true
  },
  "model": {
    "type": "WordPiece",
    "unk_token": "[UNK]",
    "continuing_subword_prefix": "##",
    "max_input_chars_per_word": 100,
    "vocab": {
      "[PAD]": 0,
      "[UNK]": 1,
      "[CLS]": 2,
      "[SEP]": 3,
      "[MASK]": 4,
      "!": 5,
      "\"": 6,
      "#": 7,
      "$": 8,
      "%": 9,
      "&": 10,
      "'": 11,
      "(": 12,
      ")": 13,
      "*": 14,
      "+": 15,
      ",": 16,
      "-": 17,
      ".": 18,
      "/": 19,
      "0": 20,
      "1": 21,
      "2": 22,
      "3": 23,
      "4": 24,
      "5": 25,
      "6": 26,
      "7": 27,
      "8": 28,
      "9": 29,
      ":": 30,
      ";": 31,
      "<": 32,
      "=": 33,
      ">": 34,
      "?": 35,
      "@": 36,
      "A": 37,
      "B": 38,
      "C": 39,
      "D": 40,
      "E": 41,
      "F": 42,
      "G": 43,
      "H": 44,
      "I": 45,
      "J": 46,
      "K": 47,
      "L": 48,
      "M": 49,
      "N": 50,
      "O": 51,
      "P": 52,
      "Q": 53,
      "R": 54,
      "S": 55,
      "T": 56,
      "U": 57,
      "V": 58,
      "W": 59,
      "X": 60,
      "Y": 61,
      "Z": 62,
      "[": 63,
      "\\": 64,
      "]": 65,
      "^": 66,
      "_": 67,
      "`": 68,
      "a": 69,
      "b": 70,
      "c": 71,
      "d": 72,
      "e": 73,
      "f": 74,
      "g": 75,
      "h": 76,
      "i": 77,
      "j": 78,
      "k": 79,
      "l": 80,
      "m": 81,
      "n": 82,
      "o": 83,
      "p": 84,
      "q": 85,
      "r": 86,
      "s": 87,
      "t": 88,
      "u": 89,
      "v": 90,
      "w": 91,
      "x": 92,
      "y": 93,
      "z": 94,
      "{": 95,
      "|": 96,
      "}": 97,
      "~": 98,
      "¡": 99,
      "¢": 100,
      "£": 101,
      "¤": 102,
      "¥": 103,
      "§": 104,
      "©": 105,
      "«": 106,
      "®": 107,
      "¯": 108,
      "°": 109,
      "±": 110,
      "²": 111,
      "³": 112,
      "´": 113,
      "µ": 114,
      "¶": 115,
      "·": 116,
      "¹": 117,
      "º": 118,
      "»": 119,
      "¼": 120,
      "½": 121,
      "¾": 122,
      "¿": 123,
      "À": 124,
      "Á": 125,
      "Â": 126,
      "Ä": 127,
      "Å": 128,
      "Æ": 129,
      "Ç": 130,
      "È": 131,
      "É": 132,
      "Ê": 133,
      "Ë": 134,
      "Ì": 135,
      "Í": 136,
      "Î": 137,
      "Ï": 138,
      "Ð": 139,
      "Ñ": 140,
      "Ò": 141,
      "Ó": 142,
      "Ô": 143,
      "Õ": 144,
      "Ö": 145,
      "×": 146,
      "Ø": 147,
      "Ù": 148,
      "Ú": 149,
      "Ü": 150,
      "Ý": 151,
      "Þ": 152,
      "ß": 153,
      "à": 154,
      "á": 155,
      "â": 156,
      "ã": 157,
      "ä": 158,
      "å": 159,
      "æ": 160,
      "ç": 161,
      "è": 162,
      "é": 163,
      "ê": 164,
      "ë": 165,
      "ì": 166,
      "í": 167,
      "î": 168,
      "ï": 169,
      "ð": 170,
      "ñ": 171,
      "ò": 172,
      "ó": 173,
      "ô": 174,
      "õ": 175,
      "ö": 176,
      "÷": 177,
      "ø": 178,
      "ù": 179,
      "ú": 180,
      "û": 181,
      "ü": 182,
      "ý": 183,
      "þ": 184,
      "ÿ": 185,
      "Ā": 186,
      "ā": 187,
      "Ă": 188,
      "ă": 189,
      "ą": 190,
      "Ć": 191,
      "ć": 192,
      "ĉ": 193,
      "Ċ": 194,
      "ċ": 195,
      "Č": 196,
      "č": 197,
      "Ď": 198,
      "ď": 199,
      "Đ": 200,
      "đ": 201,
      "Ē": 202,
      "ē": 203,
      "Ĕ": 204,
      "ĕ": 205,
      "Ė": 206,
      "ė": 207,
      "ę": 208,
      "Ě": 209,
      "ě": 210,
      "ğ": 211,
      "Ġ": 212,
      "ġ": 213,
      "Ģ": 214,
      "ģ": 215,
      "Ĥ": 216,
      "Ħ": 217,
      "ħ": 218,
      "ĩ": 219,
      "Ī": 220,
      "ī": 221,
      "ĭ": 222,
      "į": 223,
      "İ": 224,
      "ı": 225,
      "ĵ": 226,
      "Ķ": 227,
      "ķ": 228,
      "ĸ": 229,
      "ĺ": 230,
      "ļ": 231,
      "Ľ": 232,
      "ľ": 233,
      "Ł": 234,
      "ł": 235,
      "ń": 236,
      "ņ": 237,
      "ň": 238,
      "Ŋ": 239,
      "ŋ": 240,
      "Ō": 241,
      "ō": 242,
      "ŏ": 243,
      "ő": 244,
      "Œ": 245,
      "œ": 246,
      "Ŗ": 247,
      "ŗ": 248,
      "Ř": 249,
      "ř": 250,
      "Ś": 251,
      "ś": 252,
      "Ŝ": 253,
      "Ş": 254,
      "ş": 255,
      "Š": 256,
      "š": 257,
      "Ţ": 258,
      "ţ": 259,
      "ť": 260,
      "ŧ": 261,
      "ũ": 262,
      "Ū": 263,
      "ū": 264,
      "ŭ": 265,
      "ů": 266,
      "ű": 267,
      "ų": 268,
      "ŵ": 269,
      "ŷ": 270,
      "Ź": 271,
      "ź": 272,
      "Ż": 273,
      "ż": 274,
      "Ž": 275,
      "ž": 276,
      "ſ": 277,
      "ƀ": 278,
      "Ɔ": 279,
      "Ƈ": 280,
      "ƈ": 281,
      "Ɖ": 282,
      "ƍ": 283,
      "Ǝ": 284,
      "Ə": 285,
      "Ɛ": 286,
      "ƒ": 287,
      "Ɣ": 288,
      "ƙ": 289,
      "ƛ": 290,
      "ơ": 291,
      "Ƣ": 292,
      "ƥ": 293,
      "ƭ": 294,
      "ư": 295,
      "Ʋ": 296,
      "ƿ": 297,
      "ǀ": 298,
      "ǁ": 299,
      "ǂ": 300,
      "ǃ": 301,
      "ǎ": 302,
      "ǐ": 303,
      "Ǒ": 304,
      "ǒ": 305,
      "ǔ": 306,
      "ǚ": 307,
      "ǜ": 308,
      "ǝ": 309,
      "Ǣ": 310,
      "ǣ": 311,
      "Ǧ": 312,
      "ǧ": 313,
      "Ǫ": 314,
      "ǫ": 315,
      "ǭ": 316,
      "ǰ": 317,
      "ǵ": 318,
      "Ƿ": 319,
      "Ǹ": 320,
      "ǹ": 321,
      "ǽ": 322,
      "Ș": 323,
      "ș": 324,
      "Ț": 325,
      "ț": 326,
      "Ȝ": 327,
      "ȝ": 328,
      "ȟ": 329,
      "ȯ": 330,
      "ȳ": 331,
      "ȷ": 332,
      "ȼ": 333,
      "Ɉ": 334,
      "ɐ": 335,
      "ɑ": 336,
      "ɒ": 337,
      "ɓ": 338,
      "ɔ": 339,
      "ɕ": 340,
      "ɖ": 341,
      "ɗ": 342,
      "ɘ": 343,
      "ə": 344,
      "ɚ": 345,
      "ɛ": 346,
      "ɜ": 347,
      "ɞ": 348,
      "ɟ": 349,
      "ɠ": 350,
      "ɡ": 351,
      "ɢ": 352,
      "ɣ": 353,
      "ɤ": 354,
      "ɥ": 355,
      "ɦ": 356,
      "ɧ": 357,
      "ɨ": 358,
      "ɪ": 359,
      "ɫ": 360,
      "ɬ": 361,
      "ɭ": 362,
      "ɮ": 363,
      "ɯ": 364,
      "ɰ": 365,
      "ɱ": 366,
      "ɲ": 367,
      "ɳ": 368,
      "ɴ": 369,
      "ɵ": 370,
      "ɶ": 371,
      "ɷ": 372,
      "ɸ": 373,
      "ɹ": 374,
      "ɺ": 375,
      "ɻ": 376,
      "ɽ": 377,
      "ɾ": 378,
      "ʀ": 379,
      "ʁ": 380,
      "ʂ": 381,
      "ʃ": 382,
      "ʄ": 383,
      "ʇ": 384,
      "ʈ": 385,
      "ʉ": 386,
      "ʊ": 387,
      "ʋ": 388,
      "ʌ": 389,
      "ʍ": 390,
      "ʎ": 391,
      "ʏ": 392,
      "ʐ": 393,
      "ʑ": 394,
      "ʒ": 395,
      "ʔ": 396,
      "ʕ": 397,
      "ʖ": 398,
      "ʗ": 399,
      "ʘ": 400,
      "ʙ": 401,
      "ʛ": 402,
      "ʝ": 403,
      "ʟ": 404,
      "ʠ": 405,
      "ʡ": 406,
      "ʢ": 407,
      "ʰ": 408,
      "ʱ": 409,
      "ʲ": 410,
      "ʳ": 411,
      "ʷ": 412,
      "ʹ": 413,
      "ʻ": 414,
      "ʼ": 415,
      "ʽ": 416,
      "ʾ": 417,
      "ʿ": 418,
      "ˀ": 419,
      "ˁ": 420,
      "ˆ": 421,
      "ˇ": 422,
      "ˈ": 423,
      "ˌ": 424,
      "ː": 425,
      "ˑ": 426,
      "˔": 427,
      "˕": 428,
      "˖": 429,
      "˘": 430,
      "˚": 431,
      "˜": 432,
      "˞": 433,
      "ˠ": 434,
      "ˢ": 435,
      "ˣ": 436,
      "ˤ": 437,
      "˥": 438,
      "˦": 439,
      "˧": 440,
      "˨": 441,
      "˩": 442,
      "̀": 443,
      "́": 444,
      "̂": 445,
      "̃": 446,
      "̄": 447,
      "̆": 448,
      "̇": 449,
      "̈": 450,
      "̊": 451,
      "̋": 452,
      "̌": 453,
      "̍": 454,
      "̏": 455,
      "̐": 456,
      "̑": 457,
      "̖": 458,
      "̗": 459,
      "̚": 460,
      "̝": 461,
      "̞": 462,
      "̟": 463,
      "̠": 464,
      "̣": 465,
      "̤": 466,
      "̥": 467,
      "̧": 468,
      "̩": 469,
      "̪": 470,
      "̬": 471,
      "̮": 472,
      "̯": 473,
      "̰": 474,
      "̱": 475,
      "̲": 476,
      "̳": 477,
      "̺": 478,
      "̽": 479,
      "͌": 480,
      "͍": 481,
      "͘": 482,
      "͜": 483,
      "͡": 484,
      "΄": 485,
      "Ά": 486,
      "Έ": 487,
      "Ή": 488,
      "Ί": 489,
      "Ό": 490,
      "Ύ": 491,
      "ΐ": 492,
      "Α": 493,
      "Β": 494,
      "Γ": 495,
      "Δ": 496,
      "Ε": 497,
      "Ζ": 498,
      "Η": 499,
      "Θ": 500,
      "Ι": 501,
      "Κ": 502,
      "Λ": 503,
      "Μ": 504,
      "Ν": 505,
      "Ξ": 506,
      "Ο": 507,
      "Π": 508,
      "Ρ": 509,
      "Σ": 510,
      "Τ": 511,
      "Υ": 512,
      "Φ": 513,
      "Χ": 514,
      "Ψ": 515,
      "Ω": 516,
      "ά": 517,
      "έ": 518,
      "ή": 519,
      "ί": 520,
      "α": 521,
      "β": 522,
      "γ": 523,
      "δ": 524,
      "ε": 525,
      "ζ": 526,
      "η": 527,
      "θ": 528,
      "ι": 529,
      "κ": 530,
      "λ": 531,
      "μ": 532,
      "ν": 533,
      "ξ": 534,
      "ο": 535,
      "π": 536,
      "ρ": 537,
      "ς": 538,
      "σ": 539,
      "τ": 540,
      "υ": 541,
      "φ": 542,
      "χ": 543,
      "ψ": 544,
      "ω": 545,
      "ϊ": 546,
      "ό": 547,
      "ύ": 548,
      "ώ": 549,
      "ϑ": 550,
      "ϕ": 551,
      "ϝ": 552,
      "ϟ": 553,
      "ϵ": 554,
      "Ђ": 555,
      "Є": 556,
      "І": 557,
      "Ї": 558,
      "Ј": 559,
      "Љ": 560,
      "Ћ": 561,
      "А": 562,
      "Б": 563,
      "В": 564,
      "Г": 565,
      "Д": 566,
      "Е": 567,
      "Ж": 568,
      "З": 569,
      "И": 570,
      "Й": 571,
      "К": 572,
      "Л": 573,
      "М": 574,
      "Н": 575,
      "О": 576,
      "П": 577,
      "Р": 578,
      "С": 579,
      "Т": 580,
      "У": 581,
      "Ф": 582,
      "Х": 583,
      "Ц": 584,
      "Ч": 585,
      "Ш": 586,
      "Щ": 587,
      "Ъ": 588,
      "Ы": 589,
      "Ь": 590,
      "Э": 591,
      "Ю": 592,
      "Я": 593,
      "а": 594,
      "б": 595,
      "в": 596,
      "г": 597,
      "д": 598,
      "е": 599,
      "ж": 600,
      "з": 601,
      "и": 602,
      "й": 603,
      "к": 604,
      "л": 605,
      "м": 606,
      "н": 607,
      "о": 608,
      "п": 609,
      "р": 610,
      "с": 611,
      "т": 612,
      "у": 613,
      "ф": 614,
      "х": 615,
      "ц": 616,
      "ч": 617,
      "ш": 618,
      "щ": 619,
      "ъ": 620,
      "ы": 621,
      "ь": 622,
      "э": 623,
      "ю": 624,
      "я": 625,
      "ё": 626,
      "ђ": 627,
      "є": 628,
      "і": 629,
      "ї": 630,
      "ј": 631,
      "љ": 632,
      "њ": 633,
      "ћ": 634,
      "ѝ": 635,
      "ў": 636,
      "Ѡ": 637,
      "ѡ": 638,
      "Ѣ": 639,
      "ѣ": 640,
      "ѥ": 641,
      "ѧ": 642,
      "Ѯ": 643,
      "ѹ": 644,
      "҆": 645,
      "ғ": 646,
      "қ": 647,
      "ү": 648,
      "ҳ": 649,
      "ҷ": 650,
      "ӣ": 651,
      "Ө": 652,
      "ө": 653,
      "ӯ": 654,
      "Ӷ": 655,
      "ӷ": 656,
      "Ա": 657,
      "Բ": 658,
      "Գ": 659,
      "Դ": 660,
      "Ե": 661,
      "Զ": 662,
      "Է": 663,
      "Ը": 664,
      "Թ": 665,
      "Ժ": 666,
      "Ի": 667,
      "Լ": 668,
      "Խ": 669,
      "Կ": 670,
      "Հ": 671,
      "Ձ": 672,
      "Ղ": 673,
      "Ճ": 674,
      "Մ": 675,
      "Յ": 676,
      "Ն": 677,
      "Շ": 678,
      "Ո": 679,
      "Պ": 680,
      "Ջ": 681,
      "Ռ": 682,
      "Ս": 683,
      "Վ": 684,
      "Տ": 685,
      "Փ": 686,
      "Ք": 687,
      "Օ": 688,
      "ա": 689,
      "բ": 690,
      "գ": 691,
      "դ": 692,
      "ե": 693,
      "զ": 694,
      "է": 695,
      "ը": 696,
      "թ": 697,
      "ժ": 698,
      "ի": 699,
      "լ": 700,
      "խ": 701,
      "ծ": 702,
      "կ": 703,
      "հ": 704,
      "ձ": 705,
      "ղ": 706,
      "ճ": 707,
      "մ": 708,
      "յ": 709,
      "ն": 710,
      "շ": 711,
      "ո": 712,
      "չ": 713,
      "պ": 714,
      "ջ": 715,
      "ռ": 716,
      "ս": 717,
      "վ": 718,
      "տ": 719,
      "ր": 720,
      "ց": 721,
      "ւ": 722,
      "փ": 723,
      "ք": 724,
      "օ": 725,
      "և": 726,
      "֤": 727,
      "֫": 728,
      "ְ": 729,
      "ֱ": 730,
      "ֲ": 731,
      "ֳ": 732,
      "ִ": 733,
      "ֵ": 734,
      "ֶ": 735,
      "ַ": 736,
      "ָ": 737,
      "ֹ": 738,
      "ֻ": 739,
      "ּ": 740,
      "ֽ": 741,
      "ֿ": 742,
      "ׁ": 743,
      "ׂ": 744,
      "א": 745,
      "ב": 746,
      "ג": 747,
      "ד": 748,
      "ה": 749,
      "ו": 750,
      "ז": 751,
      "ח": 752,
      "ט": 753,
      "י": 754,
      "ך": 755,
      "כ": 756,
      "ל": 757,
      "ם": 758,
      "מ": 759,
      "ן": 760,
      "נ": 761,
      "ס": 762,
      "ע": 763,
      "ף": 764,
      "פ": 765,
      "ץ": 766,
      "צ": 767,
      "ק": 768,
      "ר": 769,
      "ש": 770,
      "ת": 771,
      "ױ": 772,
      "׳": 773,
      "،": 774,
      "ء": 775,
      "آ": 776,
      "أ": 777,
      "ؤ": 778,
      "إ": 779,
      "ئ": 780,
      "ا": 781,
      "ب": 782,
      "ة": 783,
      "ت": 784,
      "ث": 785,
      "ج": 786,
      "ح": 787,
      "خ": 788,
      "د": 789,
      "ذ": 790,
      "ر": 791,
      "ز": 792,
      "س": 793,
      "ش": 794,
      "ص": 795,
      "ض": 796,
      "ط": 797,
      "ظ": 798,
      "ع": 799,
      "غ": 800,
      "ـ": 801,
      "ف": 802,
      "ق": 803,
      "ك": 804,
      "ل": 805,
      "م": 806,
      "ن": 807,
      "ه": 808,
      "و": 809,
      "ى": 810,
      "ي": 811,
      "ً": 812,
      "ٌ": 813,
      "ٍ": 814,
      "َ": 815,
      "ُ": 816,
      "ِ": 817,
      "ّ": 818,
      "ْ": 819,
      "ٔ": 820,
      "١": 821,
      "٧": 822,
      "ٰ": 823,
      "پ": 824,
      "چ": 825,
      "ڈ": 826,
      "ڠ": 827,
      "ک": 828,
      "ڬ": 829,
      "گ": 830,
      "ں": 831,
      "ھ": 832,
      "ہ": 833,
      "ی": 834,
      "ۍ": 835,
      "ے": 836,
      "ە": 837,
      "ܐ": 838,
      "ܒ": 839,
      "ܔ": 840,
      "ܕ": 841,
      "ܗ": 842,
      "ܘ": 843,
      "ܙ": 844,
      "ܚ": 845,
      "ܛ": 846,
      "ܝ": 847,
      "ܠ": 848,
      "ܡ": 849,
      "ܢ": 850,
      "ܣ": 851,
      "ܥ": 852,
      "ܦ": 853,
      "ܪ": 854,
      "ܬ": 855,
      "ܲ": 856,
      "ܵ": 857,
      "ܼ": 858,
      "݂": 859,
      "ँ": 860,
      "ं": 861,
      "ः": 862,
      "अ": 863,
      "आ": 864,
      "इ": 865,
      "ई": 866,
      "उ": 867,
      "ऋ": 868,
      "ए": 869,
      "ऐ": 870,
      "औ": 871,
      "क": 872,
      "ख": 873,
      "ग": 874,
      "घ": 875,
      "ङ": 876,
      "च": 877,
      "छ": 878,
      "ज": 879,
      "ञ": 880,
      "ट": 881,
      "ठ": 882,
      "ड": 883,
      "ण": 884,
      "त": 885,
      "थ": 886,
      "द": 887,
      "ध": 888,
      "न": 889,
      "प": 890,
      "फ": 891,
      "ब": 892,
      "भ": 893,
      "म": 894,
      "य": 895,
      "र": 896,
      "ल": 897,
      "व": 898,
      "श": 899,
      "ष": 900,
      "स": 901,
      "ह": 902,
      "़": 903,
      "ऽ": 904,
      "ा": 905,
      "ि": 906,
      "ी": 907,
      "ु": 908,
      "ू": 909,
      "ृ": 910,
      "ॆ": 911,
      "े": 912,
      "ै": 913,
      "ॉ": 914,
      "ॊ": 915,
      "ो": 916,
      "ौ": 917,
      "्": 918,
      "ॐ": 919,
      "।": 920,
      "॥": 921,
      "१": 922,
      "२": 923,
      "३": 924,
      "ং": 925,
      "অ": 926,
      "আ": 927,
      "ই": 928,
      "এ": 929,
      "ক": 930,
      "খ": 931,
      "গ": 932,
      "ঙ": 933,
      "চ": 934,
      "জ": 935,
      "ট": 936,
      "ড": 937,
      "ঢ": 938,
      "ণ": 939,
      "ত": 940,
      "থ": 941,
      "দ": 942,
      "ন": 943,
      "প": 944,
      "ব": 945,
      "ভ": 946,
      "ম": 947,
      "য": 948,
      "র": 949,
      "ল": 950,
      "শ": 951,
      "ষ": 952,
      "স": 953,
      "হ": 954,
      "়": 955,
      "া": 956,
      "ি": 957,
      "ী": 958,
      "ু": 959,
      "ূ": 960,
      "ে": 961,
      "ৈ": 962,
      "ো": 963,
      "্": 964,
      "ৰ": 965,
      "ਂ": 966,
      "ਅ": 967,
      "ਉ": 968,
      "ਖ": 969,
      "ਘ": 970,
      "ਜ": 971,
      "ਝ": 972,
      "ਦ": 973,
      "ਲ": 974,
      "ਵ": 975,
      "ਸ": 976,
      "ਹ": 977,
      "਼": 978,
      "ਾ": 979,
      "ਿ": 980,
      "ੁ": 981,
      "ੇ": 982,
      "ੰ": 983,
      "ੱ": 984,
      "ખ": 985,
      "ફ": 986,
      "બ": 987,
      "ર": 988,
      "લ": 989,
      "સ": 990,
      "ા": 991,
      "ો": 992,
      "ପ": 993,
      "ର": 994,
      "ୀ": 995,
      "ୁ": 996,
      "ஃ": 997,
      "அ": 998,
      "ஆ": 999,
      "இ": 1000,
      "ஈ": 1001,
      "எ": 1002,
      "ஒ": 1003,
      "க": 1004,
      "ங": 1005,
      "ச": 1006,
      "ட": 1007,
      "ண": 1008,
      "த": 1009,
      "ந": 1010,
      "ன": 1011,
      "ப": 1012,
      "ம": 1013,
      "ய": 1014,
      "ர": 1015,
      "ற": 1016,
      "ல": 1017,
      "ள": 1018,
      "ழ": 1019,
      "வ": 1020,
      "ஸ": 1021,
      "ா": 1022,
      "ி": 1023,
      "ீ": 1024,
      "ு": 1025,
      "ூ": 1026,
      "ெ": 1027,
      "ே": 1028,
      "ை": 1029,
      "ோ": 1030,
      "்": 1031,
      "ం": 1032,
      "క": 1033,
      "ఖ": 1034,
      "గ": 1035,
      "జ": 1036,
      "ట": 1037,
      "ఠ": 1038,
      "డ": 1039,
      "త": 1040,
      "థ": 1041,
      "ద": 1042,
      "న": 1043,
      "ప": 1044,
      "బ": 1045,
      "భ": 1046,
      "మ": 1047,
      "య": 1048,
      "ర": 1049,
      "ల": 1050,
      "వ": 1051,
      "ష": 1052,
      "స": 1053,
      "ా": 1054,
      "ి": 1055,
      "ీ": 1056,
      "ు": 1057,
      "ై": 1058,
      "ో": 1059,
      "్": 1060,
      "ಂ": 1061,
      "ಃ": 1062,
      "ಕ": 1063,
      "ಖ": 1064,
      "ಗ": 1065,
      "ಚ": 1066,
      "ಟ": 1067,
      "ಠ": 1068,
      "ಡ": 1069,
      "ತ": 1070,
      "ದ": 1071,
      "ನ": 1072,
      "ಪ": 1073,
      "ಬ": 1074,
      "ಭ": 1075,
      "ಮ": 1076,
      "ಯ": 1077,
      "ರ": 1078,
      "ಱ": 1079,
      "ಲ": 1080,
      "ಳ": 1081,
      "ವ": 1082,
      "ಶ": 1083,
      "ಸ": 1084,
      "ಹ": 1085,
      "ಾ": 1086,
      "ಿ": 1087,
      "ು": 1088,
      "ೇ": 1089,
      "ೋ": 1090,
      "್": 1091,
      "ೞ": 1092,
      "അ": 1093,
      "ങ": 1094,
      "ദ": 1095,
      "ന": 1096,
      "പ": 1097,
      "മ": 1098,
      "യ": 1099,
      "ര": 1100,
      "ള": 1101,
      "വ": 1102,
      "ശ": 1103,
      "സ": 1104,
      "ഹ": 1105,
      "ാ": 1106,
      "ി": 1107,
      "്": 1108,
      "අ": 1109,
      "එ": 1110,
      "ක": 1111,
      "ග": 1112,
      "ජ": 1113,
      "ත": 1114,
      "ධ": 1115,
      "න": 1116,
      "ප": 1117,
      "ම": 1118,
      "ය": 1119,
      "ර": 1120,
      "ල": 1121,
      "ව": 1122,
      "ශ": 1123,
      "හ": 1124,
      "ළ": 1125,
      "්": 1126,
      "ා": 1127,
      "ැ": 1128,
      "ි": 1129,
      "ු": 1130,
      "ේ": 1131,
      "ෝ": 1132,
      "ก": 1133,
      "ข": 1134,
      "ค": 1135,
      "ฆ": 1136,
      "ง": 1137,
      "จ": 1138,
      "ฉ": 1139,
      "ช": 1140,
      "ซ": 1141,
      "ญ": 1142,
      "ฎ": 1143,
      "ฏ": 1144,
      "ฐ": 1145,
      "ฑ": 1146,
      "ณ": 1147,
      "ด": 1148,
      "ต": 1149,
      "ถ": 1150,
      "ท": 1151,
      "ธ": 1152,
      "น": 1153,
      "บ": 1154,
      "ป": 1155,
      "ผ": 1156,
      "ฝ": 1157,
      "พ": 1158,
      "ฟ": 1159,
      "ภ": 1160,
      "ม": 1161,
      "ย": 1162,
      "ร": 1163,
      "ฤ": 1164,
      "ล": 1165,
      "ว": 1166,
      "ศ": 1167,
      "ษ": 1168,
      "ส": 1169,
      "ห": 1170,
      "ฬ": 1171,
      "อ": 1172,
      "ฮ": 1173,
      "ะ": 1174,
      "ั": 1175,
      "า": 1176,
      "ำ": 1177,
      "ิ": 1178,
      "ี": 1179,
      "ึ": 1180,
      "ื": 1181,
      "ุ": 1182,
      "ู": 1183,
      "฿": 1184,
      "เ": 1185,
      "แ": 1186,
      "โ": 1187,
      "ใ": 1188,
      "ไ": 1189,
      "็": 1190,
      "่": 1191,
      "้": 1192,
      "๊": 1193,
      "์": 1194,
      "་": 1195,
      "༌": 1196,
      "།": 1197,
      "ཀ": 1198,
      "ཁ": 1199,
      "ག": 1200,
      "ང": 1201,
      "ཆ": 1202,
      "ཇ": 1203,
      "ཐ": 1204,
      "ད": 1205,
      "ན": 1206,
      "པ": 1207,
      "བ": 1208,
      "མ": 1209,
      "ཙ": 1210,
      "ཚ": 1211,
      "ཛ": 1212,
      "འ": 1213,
      "ཡ": 1214,
      "ར": 1215,
      "ལ": 1216,
      "ས": 1217,
      "ཧ": 1218,
      "ི": 1219,
      "ུ": 1220,
      "ེ": 1221,
      "ོ": 1222,
      "ྟ": 1223,
      "ྡ": 1224,
      "ྣ": 1225,
      "ྤ": 1226,
      "ྥ": 1227,
      "ྱ": 1228,
      "ྲ": 1229,
      "က": 1230,
      "ဂ": 1231,
      "င": 1232,
      "စ": 1233,
      "ဆ": 1234,
      "န": 1235,
      "ပ": 1236,
      "ဗ": 1237,
      "ဘ": 1238,
      "မ": 1239,
      "ယ": 1240,
      "ရ": 1241,
      "လ": 1242,
      "ဝ": 1243,
      "ဟ": 1244,
      "ာ": 1245,
      "ိ": 1246,
      "ီ": 1247,
      "ု": 1248,
      "ူ": 1249,
      "ဲ": 1250,
      "း": 1251,
      "္": 1252,
      "်": 1253,
      "ျ": 1254,
      "ြ": 1255,
      "ှ": 1256,
      "Ⴀ": 1257,
      "Ⴂ": 1258,
      "Ⴃ": 1259,
      "Ⴈ": 1260,
      "Ⴌ": 1261,
      "Ⴕ": 1262,
      "Ⴟ": 1263,
      "ა": 1264,
      "ბ": 1265,
      "გ": 1266,
      "დ": 1267,
      "ე": 1268,
      "ვ": 1269,
      "ზ": 1270,
      "თ": 1271,
      "ი": 1272,
      "კ": 1273,
      "ლ": 1274,
      "მ": 1275,
      "ნ": 1276,
      "ო": 1277,
      "პ": 1278,
      "ჟ": 1279,
      "რ": 1280,
      "ს": 1281,
      "ტ": 1282,
      "უ": 1283,
      "ფ": 1284,
      "ქ": 1285,
      "ღ": 1286,
      "ყ": 1287,
      "შ": 1288,
      "ჩ": 1289,
      "ც": 1290,
      "ძ": 1291,
      "წ": 1292,
      "ჭ": 1293,
      "ხ": 1294,
      "ჯ": 1295,
      "ჰ": 1296,
      "ჱ": 1297,
      "ჲ": 1298,
      "ჳ": 1299,
      "ჴ": 1300,
      "ჵ": 1301,
      "ჶ": 1302,
      "ჷ": 1303,
      "ჸ": 1304,
      "ჹ": 1305,
      "ჺ": 1306,
      "჻": 1307,
      "ሀ": 1308,
      "ለ": 1309,
      "ሐ": 1310,
      "ሓ": 1311,
      "ሕ": 1312,
      "መ": 1313,
      "ማ": 1314,
      "ሥ": 1315,
      "ረ": 1316,
      "ር": 1317,
      "ሰ": 1318,
      "ስ": 1319,
      "ቆ": 1320,
      "ቈ": 1321,
      "በ": 1322,
      "ብ": 1323,
      "ቲ": 1324,
      "ታ": 1325,
      "ት": 1326,
      "ነ": 1327,
      "ና": 1328,
      "ን": 1329,
      "ኖ": 1330,
      "አ": 1331,
      "ኢ": 1332,
      "እ": 1333,
      "ከ": 1334,
      "ኲ": 1335,
      "ዕ": 1336,
      "ዘ": 1337,
      "ዛ": 1338,
      "የ": 1339,
      "ያ": 1340,
      "ይ": 1341,
      "ዮ": 1342,
      "ደ": 1343,
      "ድ": 1344,
      "ጅ": 1345,
      "ገ": 1346,
      "ጉ": 1347,
      "ጵ": 1348,
      "ፈ": 1349,
      "ፍ": 1350,
      "፡": 1351,
      "Ꭰ": 1352,
      "Ꭳ": 1353,
      "Ꭶ": 1354,
      "Ꭸ": 1355,
      "Ꭹ": 1356,
      "Ꮀ": 1357,
      "Ꮃ": 1358,
      "Ꮉ": 1359,
      "Ꮝ": 1360,
      "Ꮿ": 1361,
      "Ᏹ": 1362,
      "ᐊ": 1363,
      "ᑲ": 1364,
      "ᒡ": 1365,
      "ᓘ": 1366,
      "ᚢ": 1367,
      "ᚣ": 1368,
      "ᚦ": 1369,
      "ᚨ": 1370,
      "ᚩ": 1371,
      "ᚬ": 1372,
      "ᚱ": 1373,
      "ᚷ": 1374,
      "ᚹ": 1375,
      "ᚺ": 1376,
      "ᚻ": 1377,
      "ᚼ": 1378,
      "ᚾ": 1379,
      "ᛁ": 1380,
      "ᛃ": 1381,
      "ᛄ": 1382,
      "ᛇ": 1383,
      "ᛋ": 1384,
      "ᛏ": 1385,
      "ᛒ": 1386,
      "ᛗ": 1387,
      "ᛚ": 1388,
      "ᛝ": 1389,
      "ᛞ": 1390,
      "ᛟ": 1391,
      "ᛠ": 1392,
      "ក": 1393,
      "ខ": 1394,
      "គ": 1395,
      "ង": 1396,
      "ច": 1397,
      "ឆ": 1398,
      "ជ": 1399,
      "ញ": 1400,
      "ដ": 1401,
      "ឋ": 1402,
      "ណ": 1403,
      "ត": 1404,
      "ថ": 1405,
      "ទ": 1406,
      "ធ": 1407,
      "ន": 1408,
      "ប": 1409,
      "ព": 1410,
      "ភ": 1411,
      "ម": 1412,
      "យ": 1413,
      "រ": 1414,
      "ល": 1415,
      "វ": 1416,
      "ស": 1417,
      "ហ": 1418,
      "អ": 1419,
      "ឥ": 1420,
      "ឪ": 1421,
      "ឫ": 1422,
      "ឯ": 1423,
      "឵": 1424,
      "ា": 1425,
      "ិ": 1426,
      "ី": 1427,
      "ឹ": 1428,
      "ឺ": 1429,
      "ុ": 1430,
      "ូ": 1431,
      "ួ": 1432,
      "ៀ": 1433,
      "េ": 1434,
      "ែ": 1435,
      "ៃ": 1436,
      "ោ": 1437,
      "ៅ": 1438,
      "ំ": 1439,
      "ះ": 1440,
      "ៈ": 1441,
      "៉": 1442,
      "់": 1443,
      "្": 1444,
      "ᠠ": 1445,
      "ᠣ": 1446,
      "ᠨ": 1447,
      "ᠪ": 1448,
      "ᠮ": 1449,
      "ᠯ": 1450,
      "ᠰ": 1451,
      "ᠴ": 1452,
      "ᠵ": 1453,
      "ᠸ": 1454,
      "ᡝ": 1455,
      "ᡠ": 1456,
      "ᡥ": 1457,
      "ᡨ": 1458,
      "ᡳ": 1459,
      "ᡴ": 1460,
      "ᡵ": 1461,
      "ᴰ": 1462,
      "ᴷ": 1463,
      "ᴺ": 1464,
      "ᵀ": 1465,
      "ᵊ": 1466,
      "ᵑ": 1467,
      "ᵗ": 1468,
      "ᵘ": 1469,
      "ᵝ": 1470,
      "ᵻ": 1471,
      "ᵿ": 1472,
      "ᶑ": 1473,
      "ᶢ": 1474,
      "ᶦ": 1475,
      "ᶴ": 1476,
      "ᶷ": 1477,
      "᷄": 1478,
      "᷅": 1479,
      "᷆": 1480,
      "᷇": 1481,
      "᷈": 1482,
      "᷉": 1483,
      "᷽": 1484,
      "Ḍ": 1485,
      "ḍ": 1486,
      "Ḏ": 1487,
      "ḏ": 1488,
      "ḑ": 1489,
      "ḕ": 1490,
      "ḗ": 1491,
      "Ḣ": 1492,
      "Ḥ": 1493,
      "ḥ": 1494,
      "Ḩ": 1495,
      "ḩ": 1496,
      "Ḫ": 1497,
      "ḫ": 1498,
      "ḭ": 1499,
      "ḱ": 1500,
      "Ḳ": 1501,
      "ḳ": 1502,
      "ḵ": 1503,
      "ḷ": 1504,
      "ḹ": 1505,
      "ḻ": 1506,
      "ḿ": 1507,
      "ṁ": 1508,
      "ṃ": 1509,
      "ṅ": 1510,
      "ṇ": 1511,
      "ṉ": 1512,
      "ṓ": 1513,
      "ṙ": 1514,
      "Ṛ": 1515,
      "ṛ": 1516,
      "Ṝ": 1517,
      "ṝ": 1518,
      "ṟ": 1519,
      "Ṣ": 1520,
      "ṣ": 1521,
      "Ṧ": 1522,
      "Ṫ": 1523,
      "Ṭ": 1524,
      "ṭ": 1525,
      "Ṯ": 1526,
      "ṯ": 1527,
      "ṳ": 1528,
      "ṵ": 1529,
      "Ṽ": 1530,
      "ṽ": 1531,
      "ẃ": 1532,
      "Ẓ": 1533,
      "ẓ": 1534,
      "ẖ": 1535,
      "ạ": 1536,
      "ả": 1537,
      "Ấ": 1538,
      "ấ": 1539,
      "ầ": 1540,
      "Ẩ": 1541,
      "ẩ": 1542,
      "ẫ": 1543,
      "ậ": 1544,
      "ắ": 1545,
      "ằ": 1546,
      "ẵ": 1547,
      "ặ": 1548,
      "ẹ": 1549,
      "ẻ": 1550,
      "ẽ": 1551,
      "ế": 1552,
      "ề": 1553,
      "ể": 1554,
      "ễ": 1555,
      "ệ": 1556,
      "ỉ": 1557,
      "ị": 1558,
      "Ọ": 1559,
      "ọ": 1560,
      "ỏ": 1561,
      "Ố": 1562,
      "ố": 1563,
      "ồ": 1564,
      "ổ": 1565,
      "ỗ": 1566,
      "ộ": 1567,
      "ớ": 1568,
      "ờ": 1569,
      "ở": 1570,
      "ợ": 1571,
      "Ụ": 1572,
      "ụ": 1573,
      "ủ": 1574,
      "Ứ": 1575,
      "ứ": 1576,
      "ừ": 1577,
      "ử": 1578,
      "ữ": 1579,
      "ự": 1580,
      "ỳ": 1581,
      "ỵ": 1582,
      "ỹ": 1583,
      "ἀ": 1584,
      "ἁ": 1585,
      "ἂ": 1586,
      "ἃ": 1587,
      "ἄ": 1588,
      "ἅ": 1589,
      "Ἀ": 1590,
      "Ἁ": 1591,
      "Ἄ": 1592,
      "Ἅ": 1593,
      "ἐ": 1594,
      "ἑ": 1595,
      "ἒ": 1596,
      "ἔ": 1597,
      "ἕ": 1598,
      "Ἐ": 1599,
      "Ἑ": 1600,
      "Ἔ": 1601,
      "Ἕ": 1602,
      "ἠ": 1603,
      "ἡ": 1604,
      "ἢ": 1605,
      "ἤ": 1606,
      "ἥ": 1607,
      "ἦ": 1608,
      "ἧ": 1609,
      "Ἠ": 1610,
      "Ἡ": 1611,
      "ἰ": 1612,
      "ἱ": 1613,
      "ἲ": 1614,
      "ἳ": 1615,
      "ἴ": 1616,
      "ἵ": 1617,
      "ἶ": 1618,
      "ἷ": 1619,
      "Ἰ": 1620,
      "Ἱ": 1621,
      "Ἶ": 1622,
      "ὀ": 1623,
      "ὁ": 1624,
      "ὂ": 1625,
      "ὃ": 1626,
      "ὄ": 1627,
      "ὅ": 1628,
      "Ὁ": 1629,
      "Ὄ": 1630,
      "ὐ": 1631,
      "ὑ": 1632,
      "ὔ": 1633,
      "ὕ": 1634,
      "ὖ": 1635,
      "ὗ": 1636,
      "Ὕ": 1637,
      "ὡ": 1638,
      "ὣ": 1639,
      "ὤ": 1640,
      "ὥ": 1641,
      "ὦ": 1642,
      "Ὠ": 1643,
      "Ὡ": 1644,
      "Ὦ": 1645,
      "ὰ": 1646,
      "ὲ": 1647,
      "ὴ": 1648,
      "ὶ": 1649,
      "ὸ": 1650,
      "ὺ": 1651,
      "ὼ": 1652,
      "ᾓ": 1653,
      "ᾰ": 1654,
      "ᾳ": 1655,
      "ᾶ": 1656,
      "ᾷ": 1657,
      "᾿": 1658,
      "ῆ": 1659,
      "ῇ": 1660,
      "Ὲ": 1661,
      "ῐ": 1662,
      "ῑ": 1663,
      "ῖ": 1664,
      "Ὶ": 1665,
      "ῠ": 1666,
      "ῥ": 1667,
      "ῦ": 1668,
      "Ῥ": 1669,
      "ῳ": 1670,
      "ῶ": 1671,
      "ῷ": 1672,
      "‐": 1673,
      "‑": 1674,
      "‒": 1675,
      "–": 1676,
      "—": 1677,
      "―": 1678,
      "‖": 1679,
      "‘": 1680,
      "’": 1681,
      "‚": 1682,
      "‛": 1683,
      "“": 1684,
      "”": 1685,
      "„": 1686,
      "‟": 1687,
      "†": 1688,
      "‡": 1689,
      "•": 1690,
      "…": 1691,
      "‰": 1692,
      "′": 1693,
      "″": 1694,
      "※": 1695,
      "‼": 1696,
      "‿": 1697,
      "⁄": 1698,
      "⁊": 1699,
      "⁰": 1700,
      "⁺": 1701,
      "ⁿ": 1702,
      "₁": 1703,
      "₂": 1704,
      "₃": 1705,
      "₄": 1706,
      "₡": 1707,
      "₣": 1708,
      "₤": 1709,
      "₦": 1710,
      "₧": 1711,
      "₨": 1712,
      "₩": 1713,
      "₫": 1714,
      "€": 1715,
      "₱": 1716,
      "₴": 1717,
      "₹": 1718,
      "ℂ": 1719,
      "℃": 1720,
      "ℓ": 1721,
      "ℕ": 1722,
      "№": 1723,
      "ℛ": 1724,
      "ℝ": 1725,
      "℞": 1726,
      "™": 1727,
      "ℤ": 1728,
      "℥": 1729,
      "ℵ": 1730,
      "⅓": 1731,
      "⅔": 1732,
      "⅙": 1733,
      "⅛": 1734,
      "⅜": 1735,
      "⅝": 1736,
      "⅞": 1737,
      "Ⅱ": 1738,
      "←": 1739,
      "↑": 1740,
      "→": 1741,
      "↓": 1742,
      "↔": 1743,
      "↗": 1744,
      "↘": 1745,
      "↦": 1746,
      "↪": 1747,
      "↵": 1748,
      "⇄": 1749,
      "⇌": 1750,
      "⇒": 1751,
      "⇪": 1752,
      "∀": 1753,
      "∂": 1754,
      "∅": 1755,
      "∆": 1756,
      "∇": 1757,
      "∈": 1758,
      "∉": 1759,
      "∊": 1760,
      "∑": 1761,
      "−": 1762,
      "∕": 1763,
      "∖": 1764,
      "∗": 1765,
      "∘": 1766,
      "√": 1767,
      "∝": 1768,
      "∞": 1769,
      "∤": 1770,
      "∩": 1771,
      "∪": 1772,
      "∫": 1773,
      "∴": 1774,
      "∼": 1775,
      "≈": 1776,
      "≠": 1777,
      "≡": 1778,
      "≢": 1779,
      "≤": 1780,
      "≥": 1781,
      "≪": 1782,
      "≫": 1783,
      "≲": 1784,
      "⊂": 1785,
      "⊕": 1786,
      "⊗": 1787,
      "⊙": 1788,
      "⊞": 1789,
      "⊢": 1790,
      "⊣": 1791,
      "⊥": 1792,
      "⋅": 1793,
      "⋆": 1794,
      "⋯": 1795,
      "⌊": 1796,
      "⌋": 1797,
      "⌘": 1798,
      "①": 1799,
      "②": 1800,
      "③": 1801,
      "④": 1802,
      "⑤": 1803,
      "⑥": 1804,
      "⑦": 1805,
      "⑧": 1806,
      "─": 1807,
      "█": 1808,
      "▢": 1809,
      "▲": 1810,
      "▼": 1811,
      "○": 1812,
      "●": 1813,
      "◦": 1814,
      "☄": 1815,
      "★": 1816,
      "☆": 1817,
      "☉": 1818,
      "☧": 1819,
      "☫": 1820,
      "☭": 1821,
      "☽": 1822,
      "☾": 1823,
      "♀": 1824,
      "♂": 1825,
      "♄": 1826,
      "♅": 1827,
      "♆": 1828,
      "♇": 1829,
      "♈": 1830,
      "♉": 1831,
      "♠": 1832,
      "♣": 1833,
      "♥": 1834,
      "♦": 1835,
      "♩": 1836,
      "♪": 1837,
      "♭": 1838,
      "♮": 1839,
      "♯": 1840,
      "⚳": 1841,
      "⚴": 1842,
      "⚵": 1843,
      "⛢": 1844,
      "✡": 1845,
      "✱": 1846,
      "❄": 1847,
      "❅": 1848,
      "❆": 1849,
      "❤": 1850,
      "⟦": 1851,
      "⟧": 1852,
      "⟨": 1853,
      "⟩": 1854,
      "⥇": 1855,
      "⩽": 1856,
      "⫶": 1857,
      "ⱱ": 1858,
      "ⲁ": 1859,
      "ⲛ": 1860,
      "ⲥ": 1861,
      "ⲧ": 1862,
      "ⲩ": 1863,
      "Ⲫ": 1864,
      "ⲱ": 1865,
      "ⴰ": 1866,
      "ⴳ": 1867,
      "ⴷ": 1868,
      "ⴻ": 1869,
      "ⴼ": 1870,
      "ⴽ": 1871,
      "ⵃ": 1872,
      "ⵇ": 1873,
      "ⵉ": 1874,
      "ⵍ": 1875,
      "ⵎ": 1876,
      "ⵏ": 1877,
      "ⵓ": 1878,
      "ⵔ": 1879,
      "ⵕ": 1880,
      "ⵖ": 1881,
      "ⵙ": 1882,
      "ⵛ": 1883,
      "ⵜ": 1884,
      "ⵡ": 1885,
      "ⵢ": 1886,
      "ⵣ": 1887,
      "⸨": 1888,
      "⸩": 1889,
      "、": 1890,
      "。": 1891,
      "々": 1892,
      "〈": 1893,
      "〉": 1894,
      "《": 1895,
      "》": 1896,
      "「": 1897,
      "」": 1898,
      "『": 1899,
      "』": 1900,
      "【": 1901,
      "】": 1902,
      "〒": 1903,
      "〜": 1904,
      "あ": 1905,
      "ぃ": 1906,
      "い": 1907,
      "ぅ": 1908,
      "う": 1909,
      "ぇ": 1910,
      "え": 1911,
      "ぉ": 1912,
      "お": 1913,
      "か": 1914,
      "が": 1915,
      "き": 1916,
      "ぎ": 1917,
      "く": 1918,
      "ぐ": 1919,
      "け": 1920,
      "げ": 1921,
      "こ": 1922,
      "ご": 1923,
      "さ": 1924,
      "ざ": 1925,
      "し": 1926,
      "じ": 1927,
      "す": 1928,
      "ず": 1929,
      "せ": 1930,
      "ぜ": 1931,
      "そ": 1932,
      "ぞ": 1933,
      "た": 1934,
      "だ": 1935,
      "ち": 1936,
      "っ": 1937,
      "つ": 1938,
      "づ": 1939,
      "て": 1940,
      "で": 1941,
      "と": 1942,
      "ど": 1943,
      "な": 1944,
      "に": 1945,
      "ぬ": 1946,
      "ね": 1947,
      "の": 1948,
      "は": 1949,
      "ば": 1950,
      "ぱ": 1951,
      "ひ": 1952,
      "び": 1953,
      "ぴ": 1954,
      "ふ": 1955,
      "ぶ": 1956,
      "ぷ": 1957,
      "へ": 1958,
      "べ": 1959,
      "ぺ": 1960,
      "ほ": 1961,
      "ぼ": 1962,
      "ぽ": 1963,
      "ま": 1964,
      "み": 1965,
      "む": 1966,
      "め": 1967,
      "も": 1968,
      "ゃ": 1969,
      "や": 1970,
      "ゅ": 1971,
      "ゆ": 1972,
      "ょ": 1973,
      "よ": 1974,
      "ら": 1975,
      "り": 1976,
      "る": 1977,
      "れ": 1978,
      "ろ": 1979,
      "わ": 1980,
      "ゑ": 1981,
      "を": 1982,
      "ん": 1983,
      "ァ": 1984,
      "ア": 1985,
      "ィ": 1986,
      "イ": 1987,
      "ゥ": 1988,
      "ウ": 1989,
      "ェ": 1990,
      "エ": 1991,
      "ォ": 1992,
      "オ": 1993,
      "カ": 1994,
      "ガ": 1995,
      "キ": 1996,
      "ギ": 1997,
      "ク": 1998,
      "グ": 1999,
      "ケ": 2000,
      "ゲ": 2001,
      "コ": 2002,
      "ゴ": 2003,
      "サ": 2004,
      "ザ": 2005,
      "シ": 2006,
      "ジ": 2007,
      "ス": 2008,
      "ズ": 2009,
      "セ": 2010,
      "ゼ": 2011,
      "ソ": 2012,
      "ゾ": 2013,
      "タ": 2014,
      "ダ": 2015,
      "チ": 2016,
      "ヂ": 2017,
      "ッ": 2018,
      "ツ": 2019,
      "ヅ": 2020,
      "テ": 2021,
      "デ": 2022,
      "ト": 2023,
      "ド": 2024,
      "ナ": 2025,
      "ニ": 2026,
      "ヌ": 2027,
      "ネ": 2028,
      "ノ": 2029,
      "ハ": 2030,
      "バ": 2031,
      "パ": 2032,
      "ヒ": 2033,
      "ビ": 2034,
      "ピ": 2035,
      "フ": 2036,
      "ブ": 2037,
      "プ": 2038,
      "ヘ": 2039,
      "ベ": 2040,
      "ペ": 2041,
      "ホ": 2042,
      "ボ": 2043,
      "ポ": 2044,
      "マ": 2045,
      "ミ": 2046,
      "ム": 2047,
      "メ": 2048,
      "モ": 2049,
      "ャ": 2050,
      "ヤ": 2051,
      "ュ": 2052,
      "ユ": 2053,
      "ョ": 2054,
      "ヨ": 2055,
      "ラ": 2056,
      "リ": 2057,
      "ル": 2058,
      "レ": 2059,
      "ロ": 2060,
      "ワ": 2061,
      "ヲ": 2062,
      "ン": 2063,
      "ヴ": 2064,
      "ヶ": 2065,
      "・": 2066,
      "ー": 2067,
      "一": 2068,
      "丁": 2069,
      "七": 2070,
      "万": 2071,
      "丈": 2072,
      "三": 2073,
      "上": 2074,
      "下": 2075,
      "不": 2076,
      "与": 2077,
      "丑": 2078,
      "且": 2079,
      "世": 2080,
      "丘": 2081,
      "丙": 2082,
      "东": 2083,
      "丝": 2084,
      "丞": 2085,
      "両": 2086,
      "丨": 2087,
      "个": 2088,
      "中": 2089,
      "丶": 2090,
      "丸": 2091,
      "丹": 2092,
      "为": 2093,
      "主": 2094,
      "丽": 2095,
      "丿": 2096,
      "乃": 2097,
      "久": 2098,
      "么": 2099,
      "义": 2100,
      "之": 2101,
      "乌": 2102,
      "乎": 2103,
      "乐": 2104,
      "乘": 2105,
      "乙": 2106,
      "乚": 2107,
      "乛": 2108,
      "九": 2109,
      "也": 2110,
      "习": 2111,
      "书": 2112,
      "乩": 2113,
      "买": 2114,
      "乱": 2115,
      "乳": 2116,
      "乾": 2117,
      "亀": 2118,
      "亅": 2119,
      "了": 2120,
      "予": 2121,
      "争": 2122,
      "事": 2123,
      "二": 2124,
      "云": 2125,
      "五": 2126,
      "井": 2127,
      "亚": 2128,
      "些": 2129,
      "亜": 2130,
      "亞": 2131,
      "亡": 2132,
      "交": 2133,
      "亦": 2134,
      "亨": 2135,
      "京": 2136,
      "亮": 2137,
      "亰": 2138,
      "人": 2139,
      "什": 2140,
      "仁": 2141,
      "仇": 2142,
      "今": 2143,
      "介": 2144,
      "仔": 2145,
      "仕": 2146,
      "他": 2147,
      "付": 2148,
      "仙": 2149,
      "代": 2150,
      "令": 2151,
      "以": 2152,
      "仪": 2153,
      "们": 2154,
      "仮": 2155,
      "仰": 2156,
      "仲": 2157,
      "件": 2158,
      "任": 2159,
      "份": 2160,
      "伊": 2161,
      "伏": 2162,
      "伐": 2163,
      "休": 2164,
      "会": 2165,
      "伝": 2166,
      "伟": 2167,
      "传": 2168,
      "伪": 2169,
      "伯": 2170,
      "伴": 2171,
      "伸": 2172,
      "似": 2173,
      "佃": 2174,
      "但": 2175,
      "位": 2176,
      "住": 2177,
      "佐": 2178,
      "佑": 2179,
      "体": 2180,
      "何": 2181,
      "余": 2182,
      "佛": 2183,
      "作": 2184,
      "你": 2185,
      "佳": 2186,
      "併": 2187,
      "使": 2188,
      "來": 2189,
      "例": 2190,
      "侍": 2191,
      "侗": 2192,
      "供": 2193,
      "依": 2194,
      "侠": 2195,
      "侨": 2196,
      "侬": 2197,
      "侯": 2198,
      "係": 2199,
      "促": 2200,
      "俄": 2201,
      "俊": 2202,
      "保": 2203,
      "信": 2204,
      "俭": 2205,
      "修": 2206,
      "俱": 2207,
      "俳": 2208,
      "倉": 2209,
      "個": 2210,
      "們": 2211,
      "候": 2212,
      "借": 2213,
      "倪": 2214,
      "倫": 2215,
      "倭": 2216,
      "偃": 2217,
      "假": 2218,
      "偏": 2219,
      "健": 2220,
      "側": 2221,
      "偵": 2222,
      "偽": 2223,
      "傀": 2224,
      "傅": 2225,
      "傑": 2226,
      "傘": 2227,
      "備": 2228,
      "催": 2229,
      "傭": 2230,
      "傳": 2231,
      "傷": 2232,
      "像": 2233,
      "僑": 2234,
      "僕": 2235,
      "僧": 2236,
      "儀": 2237,
      "億": 2238,
      "儒": 2239,
      "儚": 2240,
      "儡": 2241,
      "優": 2242,
      "儿": 2243,
      "允": 2244,
      "元": 2245,
      "充": 2246,
      "兆": 2247,
      "先": 2248,
      "光": 2249,
      "克": 2250,
      "免": 2251,
      "兒": 2252,
      "兔": 2253,
      "兜": 2254,
      "入": 2255,
      "內": 2256,
      "全": 2257,
      "兩": 2258,
      "八": 2259,
      "公": 2260,
      "六": 2261,
      "兰": 2262,
      "共": 2263,
      "关": 2264,
      "兵": 2265,
      "其": 2266,
      "具": 2267,
      "典": 2268,
      "养": 2269,
      "冀": 2270,
      "内": 2271,
      "円": 2272,
      "冉": 2273,
      "册": 2274,
      "再": 2275,
      "冒": 2276,
      "写": 2277,
      "军": 2278,
      "冠": 2279,
      "冥": 2280,
      "冫": 2281,
      "冬": 2282,
      "冯": 2283,
      "决": 2284,
      "冴": 2285,
      "冶": 2286,
      "冷": 2287,
      "净": 2288,
      "准": 2289,
      "凌": 2290,
      "凤": 2291,
      "処": 2292,
      "凪": 2293,
      "凯": 2294,
      "凰": 2295,
      "凱": 2296,
      "凶": 2297,
      "凹": 2298,
      "出": 2299,
      "刀": 2300,
      "刃": 2301,
      "分": 2302,
      "切": 2303,
      "刊": 2304,
      "划": 2305,
      "列": 2306,
      "刘": 2307,
      "初": 2308,
      "判": 2309,
      "別": 2310,
      "利": 2311,
      "别": 2312,
      "到": 2313,
      "制": 2314,
      "刷": 2315,
      "券": 2316,
      "刹": 2317,
      "刺": 2318,
      "刻": 2319,
      "則": 2320,
      "前": 2321,
      "剑": 2322,
      "剛": 2323,
      "剣": 2324,
      "剧": 2325,
      "剩": 2326,
      "副": 2327,
      "割": 2328,
      "創": 2329,
      "劃": 2330,
      "劇": 2331,
      "劉": 2332,
      "劍": 2333,
      "力": 2334,
      "办": 2335,
      "功": 2336,
      "加": 2337,
      "劣": 2338,
      "动": 2339,
      "助": 2340,
      "劳": 2341,
      "勃": 2342,
      "勅": 2343,
      "勇": 2344,
      "勒": 2345,
      "動": 2346,
      "勘": 2347,
      "務": 2348,
      "勝": 2349,
      "勞": 2350,
      "勢": 2351,
      "勳": 2352,
      "勾": 2353,
      "包": 2354,
      "化": 2355,
      "北": 2356,
      "匠": 2357,
      "匹": 2358,
      "区": 2359,
      "医": 2360,
      "區": 2361,
      "十": 2362,
      "千": 2363,
      "升": 2364,
      "午": 2365,
      "半": 2366,
      "华": 2367,
      "协": 2368,
      "卐": 2369,
      "卒": 2370,
      "卓": 2371,
      "協": 2372,
      "单": 2373,
      "卖": 2374,
      "南": 2375,
      "博": 2376,
      "卜": 2377,
      "占": 2378,
      "卡": 2379,
      "卢": 2380,
      "卦": 2381,
      "卫": 2382,
      "印": 2383,
      "危": 2384,
      "即": 2385,
      "却": 2386,
      "卸": 2387,
      "卿": 2388,
      "厂": 2389,
      "厄": 2390,
      "历": 2391,
      "厘": 2392,
      "厚": 2393,
      "原": 2394,
      "厥": 2395,
      "厦": 2396,
      "厩": 2397,
      "去": 2398,
      "县": 2399,
      "参": 2400,
      "參": 2401,
      "叉": 2402,
      "及": 2403,
      "友": 2404,
      "双": 2405,
      "反": 2406,
      "収": 2407,
      "发": 2408,
      "叔": 2409,
      "取": 2410,
      "受": 2411,
      "变": 2412,
      "叛": 2413,
      "叠": 2414,
      "叡": 2415,
      "叢": 2416,
      "口": 2417,
      "古": 2418,
      "句": 2419,
      "只": 2420,
      "叫": 2421,
      "召": 2422,
      "可": 2423,
      "台": 2424,
      "史": 2425,
      "右": 2426,
      "叶": 2427,
      "号": 2428,
      "司": 2429,
      "合": 2430,
      "吉": 2431,
      "同": 2432,
      "名": 2433,
      "后": 2434,
      "向": 2435,
      "吕": 2436,
      "君": 2437,
      "吞": 2438,
      "吟": 2439,
      "吧": 2440,
      "启": 2441,
      "吳": 2442,
      "吴": 2443,
      "吸": 2444,
      "吹": 2445,
      "吾": 2446,
      "呂": 2447,
      "呉": 2448,
      "告": 2449,
      "周": 2450,
      "呪": 2451,
      "味": 2452,
      "呼": 2453,
      "命": 2454,
      "咆": 2455,
      "和": 2456,
      "咖": 2457,
      "咙": 2458,
      "咫": 2459,
      "咲": 2460,
      "咸": 2461,
      "哀": 2462,
      "品": 2463,
      "哈": 2464,
      "哉": 2465,
      "响": 2466,
      "員": 2467,
      "哥": 2468,
      "哮": 2469,
      "哲": 2470,
      "唄": 2471,
      "唐": 2472,
      "唯": 2473,
      "唱": 2474,
      "商": 2475,
      "問": 2476,
      "啓": 2477,
      "啟": 2478,
      "啡": 2479,
      "善": 2480,
      "喇": 2481,
      "喋": 2482,
      "喚": 2483,
      "喜": 2484,
      "喝": 2485,
      "喬": 2486,
      "嘉": 2487,
      "嘘": 2488,
      "噛": 2489,
      "器": 2490,
      "嚣": 2491,
      "嚴": 2492,
      "囁": 2493,
      "囂": 2494,
      "囃": 2495,
      "囚": 2496,
      "四": 2497,
      "回": 2498,
      "因": 2499,
      "团": 2500,
      "団": 2501,
      "図": 2502,
      "国": 2503,
      "图": 2504,
      "圈": 2505,
      "國": 2506,
      "圍": 2507,
      "圏": 2508,
      "園": 2509,
      "圓": 2510,
      "圖": 2511,
      "土": 2512,
      "圣": 2513,
      "圧": 2514,
      "在": 2515,
      "地": 2516,
      "圻": 2517,
      "坂": 2518,
      "均": 2519,
      "坊": 2520,
      "坑": 2521,
      "块": 2522,
      "坚": 2523,
      "坝": 2524,
      "坡": 2525,
      "坤": 2526,
      "坪": 2527,
      "型": 2528,
      "垣": 2529,
      "城": 2530,
      "埔": 2531,
      "域": 2532,
      "執": 2533,
      "培": 2534,
      "基": 2535,
      "堀": 2536,
      "堂": 2537,
      "堅": 2538,
      "堆": 2539,
      "堡": 2540,
      "堤": 2541,
      "堯": 2542,
      "報": 2543,
      "場": 2544,
      "塊": 2545,
      "塔": 2546,
      "塘": 2547,
      "塚": 2548,
      "塞": 2549,
      "塩": 2550,
      "填": 2551,
      "塵": 2552,
      "境": 2553,
      "墓": 2554,
      "墙": 2555,
      "增": 2556,
      "壁": 2557,
      "壌": 2558,
      "壓": 2559,
      "壟": 2560,
      "壤": 2561,
      "士": 2562,
      "壬": 2563,
      "壮": 2564,
      "壯": 2565,
      "声": 2566,
      "壱": 2567,
      "売": 2568,
      "壳": 2569,
      "壷": 2570,
      "壽": 2571,
      "处": 2572,
      "备": 2573,
      "変": 2574,
      "复": 2575,
      "夏": 2576,
      "夕": 2577,
      "外": 2578,
      "多": 2579,
      "夜": 2580,
      "够": 2581,
      "夢": 2582,
      "夤": 2583,
      "大": 2584,
      "天": 2585,
      "太": 2586,
      "夫": 2587,
      "央": 2588,
      "失": 2589,
      "头": 2590,
      "夷": 2591,
      "奇": 2592,
      "奈": 2593,
      "奉": 2594,
      "奎": 2595,
      "奏": 2596,
      "奐": 2597,
      "契": 2598,
      "奔": 2599,
      "奥": 2600,
      "奧": 2601,
      "奪": 2602,
      "女": 2603,
      "奴": 2604,
      "好": 2605,
      "如": 2606,
      "妃": 2607,
      "妇": 2608,
      "妍": 2609,
      "妖": 2610,
      "妙": 2611,
      "妮": 2612,
      "妹": 2613,
      "妻": 2614,
      "姉": 2615,
      "姊": 2616,
      "始": 2617,
      "姑": 2618,
      "委": 2619,
      "姚": 2620,
      "姥": 2621,
      "姦": 2622,
      "姫": 2623,
      "姬": 2624,
      "姿": 2625,
      "威": 2626,
      "娘": 2627,
      "娜": 2628,
      "婁": 2629,
      "婆": 2630,
      "婚": 2631,
      "婷": 2632,
      "嫁": 2633,
      "嬢": 2634,
      "嬴": 2635,
      "子": 2636,
      "孔": 2637,
      "字": 2638,
      "存": 2639,
      "孙": 2640,
      "孛": 2641,
      "孝": 2642,
      "孟": 2643,
      "季": 2644,
      "孤": 2645,
      "学": 2646,
      "孩": 2647,
      "孫": 2648,
      "孵": 2649,
      "學": 2650,
      "宁": 2651,
      "宅": 2652,
      "宇": 2653,
      "守": 2654,
      "安": 2655,
      "宋": 2656,
      "完": 2657,
      "宏": 2658,
      "宗": 2659,
      "官": 2660,
      "宙": 2661,
      "定": 2662,
      "宜": 2663,
      "宝": 2664,
      "实": 2665,
      "実": 2666,
      "客": 2667,
      "宣": 2668,
      "室": 2669,
      "宫": 2670,
      "宮": 2671,
      "宴": 2672,
      "宵": 2673,
      "家": 2674,
      "宸": 2675,
      "容": 2676,
      "宿": 2677,
      "寂": 2678,
      "寄": 2679,
      "密": 2680,
      "寇": 2681,
      "富": 2682,
      "寔": 2683,
      "寗": 2684,
      "寛": 2685,
      "寝": 2686,
      "寞": 2687,
      "察": 2688,
      "寧": 2689,
      "寨": 2690,
      "審": 2691,
      "寬": 2692,
      "寵": 2693,
      "寶": 2694,
      "寸": 2695,
      "对": 2696,
      "寺": 2697,
      "寻": 2698,
      "対": 2699,
      "寿": 2700,
      "封": 2701,
      "射": 2702,
      "将": 2703,
      "將": 2704,
      "尉": 2705,
      "尊": 2706,
      "尋": 2707,
      "對": 2708,
      "導": 2709,
      "小": 2710,
      "少": 2711,
      "尔": 2712,
      "尚": 2713,
      "尧": 2714,
      "就": 2715,
      "尸": 2716,
      "尹": 2717,
      "尺": 2718,
      "尼": 2719,
      "尽": 2720,
      "尾": 2721,
      "局": 2722,
      "居": 2723,
      "届": 2724,
      "屋": 2725,
      "屍": 2726,
      "屑": 2727,
      "展": 2728,
      "屠": 2729,
      "層": 2730,
      "屬": 2731,
      "屯": 2732,
      "山": 2733,
      "屿": 2734,
      "岐": 2735,
      "岑": 2736,
      "岚": 2737,
      "岛": 2738,
      "岡": 2739,
      "岩": 2740,
      "岬": 2741,
      "岭": 2742,
      "岳": 2743,
      "岸": 2744,
      "峰": 2745,
      "島": 2746,
      "崇": 2747,
      "崎": 2748,
      "崔": 2749,
      "崖": 2750,
      "嵐": 2751,
      "嶋": 2752,
      "嶺": 2753,
      "嶼": 2754,
      "巂": 2755,
      "巖": 2756,
      "川": 2757,
      "州": 2758,
      "巡": 2759,
      "工": 2760,
      "左": 2761,
      "巨": 2762,
      "巫": 2763,
      "差": 2764,
      "己": 2765,
      "巳": 2766,
      "巴": 2767,
      "巻": 2768,
      "币": 2769,
      "市": 2770,
      "布": 2771,
      "帆": 2772,
      "师": 2773,
      "希": 2774,
      "帕": 2775,
      "帖": 2776,
      "帝": 2777,
      "帥": 2778,
      "带": 2779,
      "師": 2780,
      "帮": 2781,
      "帰": 2782,
      "帶": 2783,
      "常": 2784,
      "幕": 2785,
      "幡": 2786,
      "幣": 2787,
      "干": 2788,
      "平": 2789,
      "年": 2790,
      "幸": 2791,
      "幻": 2792,
      "幽": 2793,
      "广": 2794,
      "庁": 2795,
      "広": 2796,
      "庄": 2797,
      "庆": 2798,
      "庇": 2799,
      "序": 2800,
      "库": 2801,
      "底": 2802,
      "庖": 2803,
      "店": 2804,
      "庙": 2805,
      "庚": 2806,
      "府": 2807,
      "度": 2808,
      "座": 2809,
      "庫": 2810,
      "庭": 2811,
      "庵": 2812,
      "康": 2813,
      "廉": 2814,
      "廊": 2815,
      "廖": 2816,
      "廟": 2817,
      "廣": 2818,
      "廬": 2819,
      "延": 2820,
      "廷": 2821,
      "建": 2822,
      "廻": 2823,
      "廿": 2824,
      "开": 2825,
      "弁": 2826,
      "式": 2827,
      "弐": 2828,
      "弓": 2829,
      "弔": 2830,
      "引": 2831,
      "弘": 2832,
      "弟": 2833,
      "张": 2834,
      "弥": 2835,
      "弦": 2836,
      "弧": 2837,
      "弱": 2838,
      "張": 2839,
      "強": 2840,
      "弹": 2841,
      "强": 2842,
      "弾": 2843,
      "彌": 2844,
      "当": 2845,
      "录": 2846,
      "彖": 2847,
      "彙": 2848,
      "形": 2849,
      "彦": 2850,
      "彩": 2851,
      "彪": 2852,
      "彬": 2853,
      "彭": 2854,
      "影": 2855,
      "役": 2856,
      "彼": 2857,
      "征": 2858,
      "径": 2859,
      "待": 2860,
      "律": 2861,
      "後": 2862,
      "徐": 2863,
      "徒": 2864,
      "得": 2865,
      "從": 2866,
      "御": 2867,
      "復": 2868,
      "微": 2869,
      "徳": 2870,
      "德": 2871,
      "徹": 2872,
      "徽": 2873,
      "心": 2874,
      "必": 2875,
      "忍": 2876,
      "志": 2877,
      "忘": 2878,
      "応": 2879,
      "忠": 2880,
      "快": 2881,
      "念": 2882,
      "怀": 2883,
      "怎": 2884,
      "怒": 2885,
      "怖": 2886,
      "思": 2887,
      "怡": 2888,
      "急": 2889,
      "性": 2890,
      "怨": 2891,
      "怪": 2892,
      "总": 2893,
      "恆": 2894,
      "恋": 2895,
      "恐": 2896,
      "恒": 2897,
      "恢": 2898,
      "恥": 2899,
      "恩": 2900,
      "恭": 2901,
      "息": 2902,
      "恵": 2903,
      "恼": 2904,
      "悔": 2905,
      "悟": 2906,
      "悠": 2907,
      "悦": 2908,
      "悪": 2909,
      "悫": 2910,
      "悲": 2911,
      "悼": 2912,
      "情": 2913,
      "惑": 2914,
      "惟": 2915,
      "惠": 2916,
      "惡": 2917,
      "想": 2918,
      "愁": 2919,
      "愍": 2920,
      "意": 2921,
      "愚": 2922,
      "愛": 2923,
      "感": 2924,
      "愽": 2925,
      "慈": 2926,
      "態": 2927,
      "慎": 2928,
      "慧": 2929,
      "慰": 2930,
      "慶": 2931,
      "憂": 2932,
      "憎": 2933,
      "憑": 2934,
      "憲": 2935,
      "憶": 2936,
      "應": 2937,
      "懍": 2938,
      "懷": 2939,
      "戈": 2940,
      "戊": 2941,
      "戎": 2942,
      "成": 2943,
      "我": 2944,
      "战": 2945,
      "戦": 2946,
      "戯": 2947,
      "戰": 2948,
      "戴": 2949,
      "户": 2950,
      "戸": 2951,
      "房": 2952,
      "所": 2953,
      "扁": 2954,
      "扇": 2955,
      "扈": 2956,
      "扉": 2957,
      "手": 2958,
      "才": 2959,
      "打": 2960,
      "托": 2961,
      "扶": 2962,
      "找": 2963,
      "承": 2964,
      "技": 2965,
      "抄": 2966,
      "抓": 2967,
      "投": 2968,
      "抜": 2969,
      "択": 2970,
      "护": 2971,
      "报": 2972,
      "披": 2973,
      "抱": 2974,
      "抵": 2975,
      "担": 2976,
      "拉": 2977,
      "拍": 2978,
      "拏": 2979,
      "拐": 2980,
      "拖": 2981,
      "拘": 2982,
      "招": 2983,
      "拜": 2984,
      "拟": 2985,
      "拥": 2986,
      "括": 2987,
      "拳": 2988,
      "拾": 2989,
      "持": 2990,
      "挂": 2991,
      "指": 2992,
      "挑": 2993,
      "挥": 2994,
      "振": 2995,
      "据": 2996,
      "捷": 2997,
      "授": 2998,
      "掛": 2999,
      "採": 3000,
      "探": 3001,
      "控": 3002,
      "掲": 3003,
      "描": 3004,
      "提": 3005,
      "揚": 3006,
      "換": 3007,
      "援": 3008,
      "揺": 3009,
      "摂": 3010,
      "摩": 3011,
      "摸": 3012,
      "撃": 3013,
      "撒": 3014,
      "撞": 3015,
      "播": 3016,
      "撲": 3017,
      "操": 3018,
      "攝": 3019,
      "支": 3020,
      "收": 3021,
      "改": 3022,
      "攻": 3023,
      "放": 3024,
      "政": 3025,
      "故": 3026,
      "敏": 3027,
      "救": 3028,
      "教": 3029,
      "敢": 3030,
      "散": 3031,
      "敦": 3032,
      "敬": 3033,
      "数": 3034,
      "敵": 3035,
      "敷": 3036,
      "數": 3037,
      "文": 3038,
      "斉": 3039,
      "斎": 3040,
      "斗": 3041,
      "料": 3042,
      "斜": 3043,
      "斤": 3044,
      "斩": 3045,
      "斬": 3046,
      "断": 3047,
      "斯": 3048,
      "新": 3049,
      "方": 3050,
      "於": 3051,
      "施": 3052,
      "旅": 3053,
      "旋": 3054,
      "族": 3055,
      "旗": 3056,
      "无": 3057,
      "日": 3058,
      "旦": 3059,
      "旧": 3060,
      "早": 3061,
      "旭": 3062,
      "时": 3063,
      "旺": 3064,
      "昂": 3065,
      "昇": 3066,
      "昌": 3067,
      "明": 3068,
      "昏": 3069,
      "易": 3070,
      "昔": 3071,
      "星": 3072,
      "映": 3073,
      "春": 3074,
      "昭": 3075,
      "是": 3076,
      "昼": 3077,
      "時": 3078,
      "晉": 3079,
      "晋": 3080,
      "晒": 3081,
      "普": 3082,
      "景": 3083,
      "晴": 3084,
      "晶": 3085,
      "智": 3086,
      "暁": 3087,
      "暂": 3088,
      "暖": 3089,
      "暗": 3090,
      "暦": 3091,
      "暮": 3092,
      "暴": 3093,
      "曆": 3094,
      "曜": 3095,
      "曦": 3096,
      "曲": 3097,
      "更": 3098,
      "書": 3099,
      "曹": 3100,
      "曼": 3101,
      "曾": 3102,
      "最": 3103,
      "會": 3104,
      "月": 3105,
      "有": 3106,
      "朋": 3107,
      "服": 3108,
      "朏": 3109,
      "朔": 3110,
      "朗": 3111,
      "望": 3112,
      "朝": 3113,
      "期": 3114,
      "朧": 3115,
      "木": 3116,
      "未": 3117,
      "末": 3118,
      "本": 3119,
      "札": 3120,
      "朱": 3121,
      "朴": 3122,
      "朵": 3123,
      "机": 3124,
      "朽": 3125,
      "杀": 3126,
      "杂": 3127,
      "权": 3128,
      "李": 3129,
      "杏": 3130,
      "材": 3131,
      "村": 3132,
      "杖": 3133,
      "杜": 3134,
      "束": 3135,
      "条": 3136,
      "来": 3137,
      "杨": 3138,
      "杯": 3139,
      "東": 3140,
      "杲": 3141,
      "松": 3142,
      "板": 3143,
      "极": 3144,
      "析": 3145,
      "林": 3146,
      "枚": 3147,
      "果": 3148,
      "枝": 3149,
      "枭": 3150,
      "枯": 3151,
      "架": 3152,
      "柆": 3153,
      "柏": 3154,
      "柔": 3155,
      "柚": 3156,
      "柩": 3157,
      "柱": 3158,
      "柳": 3159,
      "柴": 3160,
      "査": 3161,
      "栄": 3162,
      "标": 3163,
      "栈": 3164,
      "树": 3165,
      "栖": 3166,
      "栗": 3167,
      "栞": 3168,
      "校": 3169,
      "株": 3170,
      "样": 3171,
      "核": 3172,
      "根": 3173,
      "格": 3174,
      "栽": 3175,
      "栾": 3176,
      "桀": 3177,
      "桂": 3178,
      "桃": 3179,
      "案": 3180,
      "桎": 3181,
      "桐": 3182,
      "桑": 3183,
      "桓": 3184,
      "桜": 3185,
      "桥": 3186,
      "桧": 3187,
      "梁": 3188,
      "梅": 3189,
      "梏": 3190,
      "梓": 3191,
      "條": 3192,
      "梦": 3193,
      "梨": 3194,
      "梭": 3195,
      "梯": 3196,
      "械": 3197,
      "梵": 3198,
      "梶": 3199,
      "棋": 3200,
      "棍": 3201,
      "棗": 3202,
      "棘": 3203,
      "棚": 3204,
      "棟": 3205,
      "森": 3206,
      "棲": 3207,
      "棵": 3208,
      "棺": 3209,
      "椅": 3210,
      "植": 3211,
      "椎": 3212,
      "椒": 3213,
      "椛": 3214,
      "検": 3215,
      "椰": 3216,
      "椿": 3217,
      "楊": 3218,
      "楚": 3219,
      "楠": 3220,
      "業": 3221,
      "楯": 3222,
      "極": 3223,
      "楼": 3224,
      "楽": 3225,
      "概": 3226,
      "榆": 3227,
      "榊": 3228,
      "榔": 3229,
      "榛": 3230,
      "榮": 3231,
      "榴": 3232,
      "槐": 3233,
      "様": 3234,
      "槤": 3235,
      "槻": 3236,
      "樂": 3237,
      "樉": 3238,
      "樊": 3239,
      "樓": 3240,
      "樗": 3241,
      "標": 3242,
      "樛": 3243,
      "模": 3244,
      "権": 3245,
      "横": 3246,
      "樱": 3247,
      "樸": 3248,
      "樹": 3249,
      "橋": 3250,
      "橘": 3251,
      "橚": 3252,
      "機": 3253,
      "橫": 3254,
      "橿": 3255,
      "檀": 3256,
      "檜": 3257,
      "檳": 3258,
      "檻": 3259,
      "櫓": 3260,
      "櫻": 3261,
      "權": 3262,
      "欒": 3263,
      "欠": 3264,
      "次": 3265,
      "欣": 3266,
      "欲": 3267,
      "欽": 3268,
      "歌": 3269,
      "歓": 3270,
      "歡": 3271,
      "止": 3272,
      "正": 3273,
      "步": 3274,
      "武": 3275,
      "歩": 3276,
      "歪": 3277,
      "歲": 3278,
      "歳": 3279,
      "歴": 3280,
      "歷": 3281,
      "歸": 3282,
      "死": 3283,
      "殊": 3284,
      "残": 3285,
      "段": 3286,
      "殺": 3287,
      "殻": 3288,
      "殿": 3289,
      "毅": 3290,
      "母": 3291,
      "毎": 3292,
      "每": 3293,
      "比": 3294,
      "毕": 3295,
      "毘": 3296,
      "毛": 3297,
      "毫": 3298,
      "毬": 3299,
      "氏": 3300,
      "民": 3301,
      "气": 3302,
      "気": 3303,
      "氣": 3304,
      "水": 3305,
      "氷": 3306,
      "永": 3307,
      "氾": 3308,
      "汇": 3309,
      "汉": 3310,
      "汐": 3311,
      "汗": 3312,
      "汝": 3313,
      "江": 3314,
      "池": 3315,
      "汤": 3316,
      "汪": 3317,
      "汰": 3318,
      "汶": 3319,
      "決": 3320,
      "汽": 3321,
      "沂": 3322,
      "沃": 3323,
      "沈": 3324,
      "沉": 3325,
      "沌": 3326,
      "沐": 3327,
      "沒": 3328,
      "沖": 3329,
      "沙": 3330,
      "沛": 3331,
      "没": 3332,
      "沢": 3333,
      "沫": 3334,
      "河": 3335,
      "沸": 3336,
      "油": 3337,
      "治": 3338,
      "沼": 3339,
      "沽": 3340,
      "泉": 3341,
      "泊": 3342,
      "法": 3343,
      "泗": 3344,
      "泡": 3345,
      "波": 3346,
      "泣": 3347,
      "泥": 3348,
      "注": 3349,
      "泰": 3350,
      "泾": 3351,
      "洁": 3352,
      "洋": 3353,
      "洛": 3354,
      "洞": 3355,
      "津": 3356,
      "洪": 3357,
      "洲": 3358,
      "活": 3359,
      "派": 3360,
      "流": 3361,
      "浅": 3362,
      "浙": 3363,
      "浚": 3364,
      "浜": 3365,
      "浦": 3366,
      "浩": 3367,
      "浪": 3368,
      "浮": 3369,
      "海": 3370,
      "消": 3371,
      "涙": 3372,
      "润": 3373,
      "涵": 3374,
      "涼": 3375,
      "淇": 3376,
      "淑": 3377,
      "淘": 3378,
      "淡": 3379,
      "淨": 3380,
      "深": 3381,
      "淳": 3382,
      "淵": 3383,
      "淹": 3384,
      "添": 3385,
      "清": 3386,
      "渊": 3387,
      "渚": 3388,
      "減": 3389,
      "渠": 3390,
      "渡": 3391,
      "渣": 3392,
      "渥": 3393,
      "渦": 3394,
      "温": 3395,
      "測": 3396,
      "港": 3397,
      "游": 3398,
      "渾": 3399,
      "湊": 3400,
      "湖": 3401,
      "湯": 3402,
      "湾": 3403,
      "満": 3404,
      "源": 3405,
      "準": 3406,
      "溜": 3407,
      "溢": 3408,
      "溪": 3409,
      "溫": 3410,
      "溶": 3411,
      "滅": 3412,
      "滋": 3413,
      "滑": 3414,
      "滨": 3415,
      "滿": 3416,
      "漁": 3417,
      "漂": 3418,
      "漆": 3419,
      "漏": 3420,
      "漠": 3421,
      "漢": 3422,
      "漫": 3423,
      "漳": 3424,
      "漸": 3425,
      "潘": 3426,
      "潜": 3427,
      "潤": 3428,
      "澄": 3429,
      "澤": 3430,
      "澪": 3431,
      "激": 3432,
      "濃": 3433,
      "濞": 3434,
      "濟": 3435,
      "瀛": 3436,
      "瀬": 3437,
      "灣": 3438,
      "火": 3439,
      "灯": 3440,
      "灰": 3441,
      "灵": 3442,
      "灶": 3443,
      "灼": 3444,
      "災": 3445,
      "灾": 3446,
      "炎": 3447,
      "炬": 3448,
      "炮": 3449,
      "炯": 3450,
      "炷": 3451,
      "炸": 3452,
      "点": 3453,
      "為": 3454,
      "炼": 3455,
      "烈": 3456,
      "烏": 3457,
      "烙": 3458,
      "烟": 3459,
      "烦": 3460,
      "烧": 3461,
      "焉": 3462,
      "焔": 3463,
      "無": 3464,
      "焦": 3465,
      "然": 3466,
      "焼": 3467,
      "煌": 3468,
      "煙": 3469,
      "煜": 3470,
      "照": 3471,
      "煩": 3472,
      "煮": 3473,
      "熊": 3474,
      "熔": 3475,
      "熙": 3476,
      "熟": 3477,
      "熱": 3478,
      "燃": 3479,
      "燈": 3480,
      "燕": 3481,
      "營": 3482,
      "爆": 3483,
      "爪": 3484,
      "爭": 3485,
      "爱": 3486,
      "爲": 3487,
      "爵": 3488,
      "父": 3489,
      "爺": 3490,
      "爻": 3491,
      "爽": 3492,
      "爾": 3493,
      "片": 3494,
      "版": 3495,
      "牌": 3496,
      "牙": 3497,
      "牛": 3498,
      "牡": 3499,
      "牢": 3500,
      "牧": 3501,
      "物": 3502,
      "牵": 3503,
      "特": 3504,
      "犖": 3505,
      "犬": 3506,
      "犯": 3507,
      "狀": 3508,
      "狂": 3509,
      "狐": 3510,
      "狗": 3511,
      "狛": 3512,
      "狡": 3513,
      "狩": 3514,
      "独": 3515,
      "狭": 3516,
      "狱": 3517,
      "狸": 3518,
      "狼": 3519,
      "猛": 3520,
      "猩": 3521,
      "猪": 3522,
      "猫": 3523,
      "献": 3524,
      "猿": 3525,
      "獄": 3526,
      "獅": 3527,
      "獣": 3528,
      "獵": 3529,
      "獻": 3530,
      "玄": 3531,
      "玉": 3532,
      "王": 3533,
      "玖": 3534,
      "玩": 3535,
      "玲": 3536,
      "珂": 3537,
      "珍": 3538,
      "珙": 3539,
      "珠": 3540,
      "現": 3541,
      "球": 3542,
      "理": 3543,
      "琦": 3544,
      "琪": 3545,
      "琬": 3546,
      "琮": 3547,
      "琴": 3548,
      "瑋": 3549,
      "瑙": 3550,
      "瑜": 3551,
      "瑞": 3552,
      "瑠": 3553,
      "瑣": 3554,
      "瑪": 3555,
      "瑾": 3556,
      "璉": 3557,
      "環": 3558,
      "璽": 3559,
      "瓊": 3560,
      "瓜": 3561,
      "瓢": 3562,
      "瓦": 3563,
      "瓩": 3564,
      "瓷": 3565,
      "甘": 3566,
      "甜": 3567,
      "生": 3568,
      "產": 3569,
      "産": 3570,
      "用": 3571,
      "甫": 3572,
      "田": 3573,
      "由": 3574,
      "甲": 3575,
      "申": 3576,
      "男": 3577,
      "町": 3578,
      "画": 3579,
      "甽": 3580,
      "界": 3581,
      "畑": 3582,
      "留": 3583,
      "畜": 3584,
      "畢": 3585,
      "略": 3586,
      "番": 3587,
      "畫": 3588,
      "異": 3589,
      "疾": 3590,
      "病": 3591,
      "症": 3592,
      "痘": 3593,
      "痛": 3594,
      "痴": 3595,
      "瘡": 3596,
      "瘤": 3597,
      "発": 3598,
      "登": 3599,
      "發": 3600,
      "白": 3601,
      "百": 3602,
      "的": 3603,
      "皇": 3604,
      "皙": 3605,
      "皮": 3606,
      "皿": 3607,
      "盆": 3608,
      "盈": 3609,
      "益": 3610,
      "盏": 3611,
      "盐": 3612,
      "监": 3613,
      "盒": 3614,
      "盗": 3615,
      "盘": 3616,
      "盛": 3617,
      "盟": 3618,
      "監": 3619,
      "盤": 3620,
      "盧": 3621,
      "目": 3622,
      "直": 3623,
      "相": 3624,
      "盼": 3625,
      "省": 3626,
      "看": 3627,
      "県": 3628,
      "眞": 3629,
      "真": 3630,
      "眼": 3631,
      "着": 3632,
      "督": 3633,
      "瞬": 3634,
      "瞳": 3635,
      "矢": 3636,
      "知": 3637,
      "矩": 3638,
      "短": 3639,
      "矮": 3640,
      "矯": 3641,
      "石": 3642,
      "砂": 3643,
      "砍": 3644,
      "研": 3645,
      "砖": 3646,
      "砲": 3647,
      "破": 3648,
      "硕": 3649,
      "硝": 3650,
      "硨": 3651,
      "碍": 3652,
      "碗": 3653,
      "碩": 3654,
      "確": 3655,
      "碼": 3656,
      "磁": 3657,
      "磅": 3658,
      "磐": 3659,
      "磨": 3660,
      "磯": 3661,
      "磲": 3662,
      "礁": 3663,
      "礎": 3664,
      "礮": 3665,
      "示": 3666,
      "礼": 3667,
      "社": 3668,
      "祀": 3669,
      "祈": 3670,
      "祐": 3671,
      "祖": 3672,
      "祚": 3673,
      "神": 3674,
      "祠": 3675,
      "祥": 3676,
      "票": 3677,
      "祭": 3678,
      "祺": 3679,
      "祿": 3680,
      "禁": 3681,
      "禄": 3682,
      "禎": 3683,
      "福": 3684,
      "禦": 3685,
      "禮": 3686,
      "禰": 3687,
      "禺": 3688,
      "禾": 3689,
      "秀": 3690,
      "私": 3691,
      "秋": 3692,
      "科": 3693,
      "秒": 3694,
      "秘": 3695,
      "租": 3696,
      "秤": 3697,
      "秦": 3698,
      "移": 3699,
      "程": 3700,
      "稔": 3701,
      "稚": 3702,
      "種": 3703,
      "稲": 3704,
      "稷": 3705,
      "穂": 3706,
      "穌": 3707,
      "積": 3708,
      "穎": 3709,
      "穗": 3710,
      "穢": 3711,
      "究": 3712,
      "空": 3713,
      "突": 3714,
      "窓": 3715,
      "窗": 3716,
      "窟": 3717,
      "竇": 3718,
      "立": 3719,
      "站": 3720,
      "竜": 3721,
      "章": 3722,
      "童": 3723,
      "端": 3724,
      "竹": 3725,
      "竺": 3726,
      "笑": 3727,
      "笔": 3728,
      "笛": 3729,
      "笠": 3730,
      "符": 3731,
      "笨": 3732,
      "第": 3733,
      "笹": 3734,
      "筆": 3735,
      "等": 3736,
      "筋": 3737,
      "筍": 3738,
      "筐": 3739,
      "筑": 3740,
      "答": 3741,
      "策": 3742,
      "筹": 3743,
      "箇": 3744,
      "算": 3745,
      "管": 3746,
      "箪": 3747,
      "箭": 3748,
      "箱": 3749,
      "節": 3750,
      "範": 3751,
      "篇": 3752,
      "篋": 3753,
      "篚": 3754,
      "篤": 3755,
      "簡": 3756,
      "簿": 3757,
      "籃": 3758,
      "籌": 3759,
      "籍": 3760,
      "籠": 3761,
      "米": 3762,
      "籵": 3763,
      "粁": 3764,
      "粉": 3765,
      "粍": 3766,
      "粟": 3767,
      "粥": 3768,
      "粨": 3769,
      "精": 3770,
      "糊": 3771,
      "糎": 3772,
      "糖": 3773,
      "糸": 3774,
      "系": 3775,
      "紀": 3776,
      "約": 3777,
      "紅": 3778,
      "紋": 3779,
      "納": 3780,
      "純": 3781,
      "紘": 3782,
      "紙": 3783,
      "級": 3784,
      "素": 3785,
      "紡": 3786,
      "紫": 3787,
      "細": 3788,
      "紹": 3789,
      "紺": 3790,
      "終": 3791,
      "組": 3792,
      "絆": 3793,
      "経": 3794,
      "結": 3795,
      "絡": 3796,
      "給": 3797,
      "統": 3798,
      "絵": 3799,
      "絶": 3800,
      "綁": 3801,
      "經": 3802,
      "継": 3803,
      "続": 3804,
      "綜": 3805,
      "綠": 3806,
      "維": 3807,
      "綯": 3808,
      "綱": 3809,
      "網": 3810,
      "綸": 3811,
      "綺": 3812,
      "綾": 3813,
      "緋": 3814,
      "総": 3815,
      "緑": 3816,
      "緒": 3817,
      "線": 3818,
      "締": 3819,
      "編": 3820,
      "緩": 3821,
      "緯": 3822,
      "縄": 3823,
      "縊": 3824,
      "縣": 3825,
      "總": 3826,
      "繋": 3827,
      "織": 3828,
      "繼": 3829,
      "續": 3830,
      "红": 3831,
      "级": 3832,
      "纪": 3833,
      "纯": 3834,
      "纲": 3835,
      "纵": 3836,
      "线": 3837,
      "组": 3838,
      "绅": 3839,
      "细": 3840,
      "终": 3841,
      "绍": 3842,
      "经": 3843,
      "给": 3844,
      "统": 3845,
      "继": 3846,
      "绮": 3847,
      "维": 3848,
      "综": 3849,
      "缽": 3850,
      "网": 3851,
      "罗": 3852,
      "罠": 3853,
      "罪": 3854,
      "置": 3855,
      "罰": 3856,
      "罸": 3857,
      "羅": 3858,
      "羊": 3859,
      "美": 3860,
      "群": 3861,
      "義": 3862,
      "羽": 3863,
      "翁": 3864,
      "習": 3865,
      "翔": 3866,
      "翘": 3867,
      "翠": 3868,
      "翡": 3869,
      "翱": 3870,
      "翹": 3871,
      "翻": 3872,
      "翼": 3873,
      "老": 3874,
      "考": 3875,
      "者": 3876,
      "耆": 3877,
      "而": 3878,
      "耕": 3879,
      "耳": 3880,
      "耶": 3881,
      "耿": 3882,
      "聃": 3883,
      "联": 3884,
      "聖": 3885,
      "聘": 3886,
      "聚": 3887,
      "聞": 3888,
      "聡": 3889,
      "聯": 3890,
      "聰": 3891,
      "聲": 3892,
      "職": 3893,
      "肃": 3894,
      "肉": 3895,
      "肖": 3896,
      "肚": 3897,
      "股": 3898,
      "肥": 3899,
      "肩": 3900,
      "育": 3901,
      "胞": 3902,
      "胠": 3903,
      "胡": 3904,
      "胤": 3905,
      "胴": 3906,
      "胸": 3907,
      "能": 3908,
      "脂": 3909,
      "脇": 3910,
      "脈": 3911,
      "脉": 3912,
      "脚": 3913,
      "脩": 3914,
      "脱": 3915,
      "脳": 3916,
      "腎": 3917,
      "腐": 3918,
      "腰": 3919,
      "腹": 3920,
      "腿": 3921,
      "膀": 3922,
      "膺": 3923,
      "臂": 3924,
      "臘": 3925,
      "臚": 3926,
      "臣": 3927,
      "臨": 3928,
      "自": 3929,
      "臭": 3930,
      "至": 3931,
      "致": 3932,
      "臺": 3933,
      "與": 3934,
      "興": 3935,
      "舍": 3936,
      "舎": 3937,
      "舞": 3938,
      "舟": 3939,
      "航": 3940,
      "船": 3941,
      "艦": 3942,
      "良": 3943,
      "色": 3944,
      "艳": 3945,
      "艶": 3946,
      "艺": 3947,
      "节": 3948,
      "芒": 3949,
      "芙": 3950,
      "芝": 3951,
      "芦": 3952,
      "芬": 3953,
      "芭": 3954,
      "芮": 3955,
      "芯": 3956,
      "花": 3957,
      "芳": 3958,
      "芸": 3959,
      "芹": 3960,
      "芽": 3961,
      "苏": 3962,
      "苑": 3963,
      "苗": 3964,
      "苣": 3965,
      "若": 3966,
      "英": 3967,
      "苺": 3968,
      "茂": 3969,
      "范": 3970,
      "茅": 3971,
      "茜": 3972,
      "茶": 3973,
      "茸": 3974,
      "草": 3975,
      "荊": 3976,
      "荒": 3977,
      "荔": 3978,
      "荘": 3979,
      "荥": 3980,
      "荪": 3981,
      "荫": 3982,
      "药": 3983,
      "荷": 3984,
      "荻": 3985,
      "荼": 3986,
      "莉": 3987,
      "莊": 3988,
      "莎": 3989,
      "莘": 3990,
      "莞": 3991,
      "莫": 3992,
      "莱": 3993,
      "莲": 3994,
      "莴": 3995,
      "菇": 3996,
      "菉": 3997,
      "菊": 3998,
      "菜": 3999,
      "華": 4000,
      "菱": 4001,
      "菲": 4002,
      "萌": 4003,
      "萍": 4004,
      "萝": 4005,
      "营": 4006,
      "萧": 4007,
      "萨": 4008,
      "萬": 4009,
      "落": 4010,
      "葆": 4011,
      "葉": 4012,
      "著": 4013,
      "葛": 4014,
      "董": 4015,
      "葦": 4016,
      "葫": 4017,
      "葵": 4018,
      "蒙": 4019,
      "蒭": 4020,
      "蒲": 4021,
      "蒼": 4022,
      "蒿": 4023,
      "蓀": 4024,
      "蓑": 4025,
      "蓝": 4026,
      "蓮": 4027,
      "蔡": 4028,
      "蔭": 4029,
      "蔵": 4030,
      "蕃": 4031,
      "蕉": 4032,
      "蕨": 4033,
      "蕩": 4034,
      "蕭": 4035,
      "薇": 4036,
      "薊": 4037,
      "薔": 4038,
      "薙": 4039,
      "薛": 4040,
      "薩": 4041,
      "薫": 4042,
      "薯": 4043,
      "藍": 4044,
      "藏": 4045,
      "藕": 4046,
      "藝": 4047,
      "藤": 4048,
      "藥": 4049,
      "藩": 4050,
      "藻": 4051,
      "蘄": 4052,
      "蘅": 4053,
      "蘇": 4054,
      "蘑": 4055,
      "蘭": 4056,
      "虎": 4057,
      "虐": 4058,
      "虔": 4059,
      "處": 4060,
      "虚": 4061,
      "虛": 4062,
      "號": 4063,
      "虫": 4064,
      "虹": 4065,
      "蛇": 4066,
      "蛍": 4067,
      "蛙": 4068,
      "蛭": 4069,
      "蜃": 4070,
      "蜡": 4071,
      "蝉": 4072,
      "蝕": 4073,
      "蝶": 4074,
      "融": 4075,
      "螺": 4076,
      "蟲": 4077,
      "蠕": 4078,
      "蠻": 4079,
      "血": 4080,
      "衆": 4081,
      "行": 4082,
      "術": 4083,
      "街": 4084,
      "衙": 4085,
      "衛": 4086,
      "衝": 4087,
      "衡": 4088,
      "衢": 4089,
      "衣": 4090,
      "补": 4091,
      "表": 4092,
      "袁": 4093,
      "袈": 4094,
      "袖": 4095,
      "被": 4096,
      "裁": 4097,
      "裂": 4098,
      "装": 4099,
      "裏": 4100,
      "裔": 4101,
      "裕": 4102,
      "補": 4103,
      "裟": 4104,
      "裳": 4105,
      "裸": 4106,
      "製": 4107,
      "褒": 4108,
      "襄": 4109,
      "襟": 4110,
      "襲": 4111,
      "西": 4112,
      "要": 4113,
      "覇": 4114,
      "見": 4115,
      "規": 4116,
      "視": 4117,
      "覚": 4118,
      "親": 4119,
      "観": 4120,
      "覺": 4121,
      "觀": 4122,
      "观": 4123,
      "角": 4124,
      "解": 4125,
      "触": 4126,
      "觳": 4127,
      "言": 4128,
      "計": 4129,
      "記": 4130,
      "設": 4131,
      "許": 4132,
      "訳": 4133,
      "証": 4134,
      "詔": 4135,
      "詞": 4136,
      "詠": 4137,
      "試": 4138,
      "詩": 4139,
      "話": 4140,
      "誌": 4141,
      "誐": 4142,
      "誒": 4143,
      "誓": 4144,
      "誕": 4145,
      "誘": 4146,
      "語": 4147,
      "誠": 4148,
      "誡": 4149,
      "誦": 4150,
      "說": 4151,
      "説": 4152,
      "読": 4153,
      "誰": 4154,
      "課": 4155,
      "調": 4156,
      "談": 4157,
      "論": 4158,
      "諭": 4159,
      "諷": 4160,
      "諸": 4161,
      "謀": 4162,
      "謁": 4163,
      "謎": 4164,
      "謙": 4165,
      "講": 4166,
      "謝": 4167,
      "謡": 4168,
      "識": 4169,
      "譚": 4170,
      "譜": 4171,
      "警": 4172,
      "議": 4173,
      "護": 4174,
      "讀": 4175,
      "變": 4176,
      "讐": 4177,
      "讓": 4178,
      "计": 4179,
      "让": 4180,
      "议": 4181,
      "许": 4182,
      "论": 4183,
      "讼": 4184,
      "诉": 4185,
      "词": 4186,
      "诗": 4187,
      "诚": 4188,
      "话": 4189,
      "语": 4190,
      "诶": 4191,
      "请": 4192,
      "诺": 4193,
      "读": 4194,
      "课": 4195,
      "谁": 4196,
      "谦": 4197,
      "谭": 4198,
      "谷": 4199,
      "豆": 4200,
      "豊": 4201,
      "豌": 4202,
      "豐": 4203,
      "豚": 4204,
      "象": 4205,
      "豪": 4206,
      "豫": 4207,
      "豬": 4208,
      "豹": 4209,
      "貓": 4210,
      "貝": 4211,
      "貞": 4212,
      "負": 4213,
      "財": 4214,
      "貫": 4215,
      "貴": 4216,
      "費": 4217,
      "賀": 4218,
      "資": 4219,
      "賈": 4220,
      "賊": 4221,
      "賓": 4222,
      "賞": 4223,
      "賢": 4224,
      "賦": 4225,
      "質": 4226,
      "購": 4227,
      "贝": 4228,
      "贞": 4229,
      "财": 4230,
      "贤": 4231,
      "质": 4232,
      "贵": 4233,
      "贺": 4234,
      "贼": 4235,
      "资": 4236,
      "赤": 4237,
      "赭": 4238,
      "走": 4239,
      "赵": 4240,
      "起": 4241,
      "超": 4242,
      "越": 4243,
      "趙": 4244,
      "足": 4245,
      "跆": 4246,
      "跑": 4247,
      "跖": 4248,
      "跟": 4249,
      "跡": 4250,
      "路": 4251,
      "跳": 4252,
      "踊": 4253,
      "踏": 4254,
      "踢": 4255,
      "蹴": 4256,
      "身": 4257,
      "車": 4258,
      "軌": 4259,
      "軍": 4260,
      "軒": 4261,
      "転": 4262,
      "軽": 4263,
      "載": 4264,
      "輔": 4265,
      "輛": 4266,
      "輝": 4267,
      "輪": 4268,
      "輿": 4269,
      "轉": 4270,
      "车": 4271,
      "轩": 4272,
      "转": 4273,
      "辆": 4274,
      "辉": 4275,
      "辛": 4276,
      "辣": 4277,
      "辭": 4278,
      "辯": 4279,
      "辰": 4280,
      "農": 4281,
      "边": 4282,
      "辺": 4283,
      "辽": 4284,
      "达": 4285,
      "辿": 4286,
      "迄": 4287,
      "迅": 4288,
      "过": 4289,
      "迈": 4290,
      "运": 4291,
      "近": 4292,
      "返": 4293,
      "这": 4294,
      "进": 4295,
      "远": 4296,
      "迦": 4297,
      "迪": 4298,
      "述": 4299,
      "迷": 4300,
      "追": 4301,
      "送": 4302,
      "适": 4303,
      "逆": 4304,
      "选": 4305,
      "這": 4306,
      "通": 4307,
      "造": 4308,
      "逢": 4309,
      "連": 4310,
      "逯": 4311,
      "週": 4312,
      "進": 4313,
      "遁": 4314,
      "遇": 4315,
      "遊": 4316,
      "運": 4317,
      "遍": 4318,
      "過": 4319,
      "道": 4320,
      "達": 4321,
      "遗": 4322,
      "遙": 4323,
      "遜": 4324,
      "遠": 4325,
      "遥": 4326,
      "遮": 4327,
      "選": 4328,
      "遺": 4329,
      "遼": 4330,
      "避": 4331,
      "邁": 4332,
      "還": 4333,
      "邊": 4334,
      "邑": 4335,
      "邓": 4336,
      "那": 4337,
      "邦": 4338,
      "邪": 4339,
      "邱": 4340,
      "郁": 4341,
      "郊": 4342,
      "郎": 4343,
      "郑": 4344,
      "郛": 4345,
      "郝": 4346,
      "郡": 4347,
      "部": 4348,
      "郭": 4349,
      "郷": 4350,
      "都": 4351,
      "鄧": 4352,
      "鄭": 4353,
      "酈": 4354,
      "酉": 4355,
      "酒": 4356,
      "酔": 4357,
      "酥": 4358,
      "酱": 4359,
      "酷": 4360,
      "酸": 4361,
      "醋": 4362,
      "醒": 4363,
      "醫": 4364,
      "采": 4365,
      "釈": 4366,
      "釋": 4367,
      "里": 4368,
      "重": 4369,
      "野": 4370,
      "量": 4371,
      "金": 4372,
      "釗": 4373,
      "釣": 4374,
      "鈍": 4375,
      "鈴": 4376,
      "鉄": 4377,
      "鉢": 4378,
      "鉦": 4379,
      "鉱": 4380,
      "鉴": 4381,
      "銀": 4382,
      "銃": 4383,
      "銅": 4384,
      "銓": 4385,
      "銖": 4386,
      "銘": 4387,
      "銳": 4388,
      "鋒": 4389,
      "鋪": 4390,
      "鋼": 4391,
      "錄": 4392,
      "錡": 4393,
      "錦": 4394,
      "錬": 4395,
      "録": 4396,
      "鍋": 4397,
      "鍵": 4398,
      "鎖": 4399,
      "鎧": 4400,
      "鎮": 4401,
      "鏡": 4402,
      "鐘": 4403,
      "鐵": 4404,
      "鐸": 4405,
      "鑒": 4406,
      "钊": 4407,
      "钢": 4408,
      "钦": 4409,
      "钱": 4410,
      "铁": 4411,
      "铎": 4412,
      "铜": 4413,
      "铭": 4414,
      "铺": 4415,
      "锡": 4416,
      "键": 4417,
      "镇": 4418,
      "镗": 4419,
      "镜": 4420,
      "長": 4421,
      "长": 4422,
      "門": 4423,
      "閃": 4424,
      "開": 4425,
      "閏": 4426,
      "閒": 4427,
      "間": 4428,
      "関": 4429,
      "閣": 4430,
      "閨": 4431,
      "闇": 4432,
      "闍": 4433,
      "闕": 4434,
      "闘": 4435,
      "關": 4436,
      "门": 4437,
      "问": 4438,
      "闯": 4439,
      "阁": 4440,
      "阪": 4441,
      "防": 4442,
      "阳": 4443,
      "阿": 4444,
      "陀": 4445,
      "附": 4446,
      "际": 4447,
      "陈": 4448,
      "降": 4449,
      "限": 4450,
      "陛": 4451,
      "院": 4452,
      "陣": 4453,
      "除": 4454,
      "陪": 4455,
      "陳": 4456,
      "陵": 4457,
      "陶": 4458,
      "陸": 4459,
      "険": 4460,
      "陽": 4461,
      "隆": 4462,
      "隊": 4463,
      "階": 4464,
      "隔": 4465,
      "隗": 4466,
      "隠": 4467,
      "隣": 4468,
      "隱": 4469,
      "隴": 4470,
      "隸": 4471,
      "隻": 4472,
      "隼": 4473,
      "雀": 4474,
      "雁": 4475,
      "雄": 4476,
      "雅": 4477,
      "集": 4478,
      "雇": 4479,
      "雉": 4480,
      "雎": 4481,
      "雕": 4482,
      "雙": 4483,
      "雛": 4484,
      "雜": 4485,
      "雞": 4486,
      "離": 4487,
      "難": 4488,
      "雨": 4489,
      "雪": 4490,
      "雲": 4491,
      "雳": 4492,
      "零": 4493,
      "雷": 4494,
      "電": 4495,
      "雾": 4496,
      "需": 4497,
      "霆": 4498,
      "震": 4499,
      "霊": 4500,
      "霍": 4501,
      "霖": 4502,
      "霜": 4503,
      "霞": 4504,
      "霧": 4505,
      "霰": 4506,
      "露": 4507,
      "霸": 4508,
      "霹": 4509,
      "靂": 4510,
      "靈": 4511,
      "青": 4512,
      "靖": 4513,
      "静": 4514,
      "非": 4515,
      "靠": 4516,
      "面": 4517,
      "革": 4518,
      "靴": 4519,
      "靼": 4520,
      "鞋": 4521,
      "鞍": 4522,
      "鞠": 4523,
      "韃": 4524,
      "韋": 4525,
      "韓": 4526,
      "韦": 4527,
      "韩": 4528,
      "韭": 4529,
      "音": 4530,
      "韶": 4531,
      "響": 4532,
      "頃": 4533,
      "項": 4534,
      "順": 4535,
      "須": 4536,
      "頌": 4537,
      "領": 4538,
      "頭": 4539,
      "顆": 4540,
      "題": 4541,
      "額": 4542,
      "顏": 4543,
      "顔": 4544,
      "願": 4545,
      "顯": 4546,
      "项": 4547,
      "顾": 4548,
      "颂": 4549,
      "颊": 4550,
      "颖": 4551,
      "颗": 4552,
      "颜": 4553,
      "風": 4554,
      "颪": 4555,
      "颱": 4556,
      "飄": 4557,
      "风": 4558,
      "飛": 4559,
      "飞": 4560,
      "食": 4561,
      "飯": 4562,
      "飾": 4563,
      "餅": 4564,
      "養": 4565,
      "餓": 4566,
      "館": 4567,
      "饼": 4568,
      "馆": 4569,
      "馒": 4570,
      "首": 4571,
      "香": 4572,
      "馬": 4573,
      "馮": 4574,
      "駆": 4575,
      "駐": 4576,
      "駒": 4577,
      "駙": 4578,
      "駢": 4579,
      "駿": 4580,
      "騎": 4581,
      "騒": 4582,
      "験": 4583,
      "騭": 4584,
      "騰": 4585,
      "騷": 4586,
      "驁": 4587,
      "驚": 4588,
      "驤": 4589,
      "马": 4590,
      "驰": 4591,
      "骨": 4592,
      "骸": 4593,
      "髀": 4594,
      "高": 4595,
      "髪": 4596,
      "鬘": 4597,
      "鬥": 4598,
      "鬪": 4599,
      "鬼": 4600,
      "魂": 4601,
      "魄": 4602,
      "魔": 4603,
      "魚": 4604,
      "魯": 4605,
      "鮑": 4606,
      "鮫": 4607,
      "鮮": 4608,
      "鯖": 4609,
      "鯵": 4610,
      "鰐": 4611,
      "鱀": 4612,
      "鱼": 4613,
      "鲁": 4614,
      "鲤": 4615,
      "鳥": 4616,
      "鳩": 4617,
      "鳳": 4618,
      "鳴": 4619,
      "鳶": 4620,
      "鴉": 4621,
      "鴣": 4622,
      "鴨": 4623,
      "鴻": 4624,
      "鵡": 4625,
      "鵩": 4626,
      "鵬": 4627,
      "鶍": 4628,
      "鶴": 4629,
      "鷓": 4630,
      "鷹": 4631,
      "鷺": 4632,
      "鸚": 4633,
      "鸟": 4634,
      "鸡": 4635,
      "鸭": 4636,
      "鸿": 4637,
      "鹅": 4638,
      "鹹": 4639,
      "鹼": 4640,
      "鹽": 4641,
      "鹿": 4642,
      "麗": 4643,
      "麥": 4644,
      "麵": 4645,
      "麻": 4646,
      "麼": 4647,
      "麾": 4648,
      "黃": 4649,
      "黄": 4650,
      "黎": 4651,
      "黑": 4652,
      "黒": 4653,
      "黙": 4654,
      "黛": 4655,
      "黨": 4656,
      "鼉": 4657,
      "鼎": 4658,
      "鼓": 4659,
      "鼠": 4660,
      "鼻": 4661,
      "齉": 4662,
      "齊": 4663,
      "齋": 4664,
      "齐": 4665,
      "龍": 4666,
      "龙": 4667,
      "ꜛ": 4668,
      "ꜜ": 4669,
      "ꜣ": 4670,
      "ꜩ": 4671,
      "ꜫ": 4672,
      "ꜭ": 4673,
      "ꞅ": 4674,
      "ꞎ": 4675,
      "Ʞ": 4676,
      "ꞵ": 4677,
      "ꦂ": 4678,
      "ꦠ": 4679,
      "ꦯ": 4680,
      "ꦲ": 4681,
      "ꦸ": 4682,
      "ꭓ": 4683,
      "가": 4684,
      "간": 4685,
      "강": 4686,
      "개": 4687,
      "거": 4688,
      "건": 4689,
      "경": 4690,
      "계": 4691,
      "고": 4692,
      "공": 4693,
      "관": 4694,
      "광": 4695,
      "구": 4696,
      "국": 4697,
      "권": 4698,
      "귀": 4699,
      "그": 4700,
      "극": 4701,
      "근": 4702,
      "글": 4703,
      "금": 4704,
      "급": 4705,
      "기": 4706,
      "김": 4707,
      "꺼": 4708,
      "껐": 4709,
      "나": 4710,
      "날": 4711,
      "남": 4712,
      "났": 4713,
      "내": 4714,
      "너": 4715,
      "네": 4716,
      "념": 4717,
      "노": 4718,
      "놔": 4719,
      "눈": 4720,
      "늬": 4721,
      "다": 4722,
      "단": 4723,
      "대": 4724,
      "더": 4725,
      "도": 4726,
      "독": 4727,
      "돌": 4728,
      "동": 4729,
      "디": 4730,
      "딱": 4731,
      "라": 4732,
      "람": 4733,
      "래": 4734,
      "런": 4735,
      "렌": 4736,
      "려": 4737,
      "렬": 4738,
      "로": 4739,
      "록": 4740,
      "론": 4741,
      "루": 4742,
      "류": 4743,
      "르": 4744,
      "를": 4745,
      "리": 4746,
      "립": 4747,
      "마": 4748,
      "막": 4749,
      "만": 4750,
      "말": 4751,
      "명": 4752,
      "목": 4753,
      "무": 4754,
      "문": 4755,
      "물": 4756,
      "미": 4757,
      "민": 4758,
      "믿": 4759,
      "바": 4760,
      "박": 4761,
      "방": 4762,
      "백": 4763,
      "뱅": 4764,
      "버": 4765,
      "범": 4766,
      "법": 4767,
      "별": 4768,
      "병": 4769,
      "보": 4770,
      "복": 4771,
      "봐": 4772,
      "부": 4773,
      "불": 4774,
      "붉": 4775,
      "빅": 4776,
      "빙": 4777,
      "빤": 4778,
      "뿐": 4779,
      "사": 4780,
      "산": 4781,
      "살": 4782,
      "삼": 4783,
      "삿": 4784,
      "상": 4785,
      "새": 4786,
      "색": 4787,
      "서": 4788,
      "성": 4789,
      "센": 4790,
      "소": 4791,
      "쇼": 4792,
      "수": 4793,
      "순": 4794,
      "술": 4795,
      "숫": 4796,
      "스": 4797,
      "시": 4798,
      "식": 4799,
      "신": 4800,
      "실": 4801,
      "쌤": 4802,
      "아": 4803,
      "안": 4804,
      "알": 4805,
      "암": 4806,
      "앙": 4807,
      "애": 4808,
      "앤": 4809,
      "야": 4810,
      "양": 4811,
      "어": 4812,
      "에": 4813,
      "엔": 4814,
      "연": 4815,
      "영": 4816,
      "예": 4817,
      "오": 4818,
      "온": 4819,
      "왜": 4820,
      "용": 4821,
      "운": 4822,
      "울": 4823,
      "원": 4824,
      "위": 4825,
      "유": 4826,
      "은": 4827,
      "을": 4828,
      "음": 4829,
      "의": 4830,
      "이": 4831,
      "인": 4832,
      "일": 4833,
      "자": 4834,
      "장": 4835,
      "재": 4836,
      "적": 4837,
      "전": 4838,
      "점": 4839,
      "정": 4840,
      "제": 4841,
      "조": 4842,
      "종": 4843,
      "좋": 4844,
      "주": 4845,
      "줄": 4846,
      "중": 4847,
      "지": 4848,
      "진": 4849,
      "집": 4850,
      "짓": 4851,
      "징": 4852,
      "차": 4853,
      "천": 4854,
      "청": 4855,
      "체": 4856,
      "쳐": 4857,
      "초": 4858,
      "춘": 4859,
      "충": 4860,
      "치": 4861,
      "커": 4862,
      "코": 4863,
      "킨": 4864,
      "타": 4865,
      "태": 4866,
      "터": 4867,
      "퇴": 4868,
      "투": 4869,
      "트": 4870,
      "특": 4871,
      "파": 4872,
      "판": 4873,
      "퍼": 4874,
      "평": 4875,
      "표": 4876,
      "풍": 4877,
      "피": 4878,
      "하": 4879,
      "학": 4880,
      "한": 4881,
      "합": 4882,
      "해": 4883,
      "행": 4884,
      "향": 4885,
      "허": 4886,
      "헬": 4887,
      "호": 4888,
      "혹": 4889,
      "홀": 4890,
      "화": 4891,
      "회": 4892,
      "후": 4893,
      "희": 4894,
      "ﬀ": 4895,
      "ﬁ": 4896,
      "ﬂ": 4897,
      "ﮭ": 4898,
      "ﮮ": 4899,
      "ﷲ": 4900,
      "ﷺ": 4901,
      "️": 4902,
      "︠": 4903,
      "︡": 4904,
      "ﺒ": 4905,
      "ﻉ": 4906,
      "ﻋ": 4907,
      "ﻔ": 4908,
      "ﻴ": 4909,
      "！": 4910,
      "％": 4911,
      "＆": 4912,
      "（": 4913,
      "）": 4914,
      "，": 4915,
      "－": 4916,
      "／": 4917,
      "１": 4918,
      "２": 4919,
      "３": 4920,
      "４": 4921,
      "６": 4922,
      "：": 4923,
      "＜": 4924,
      "＝": 4925,
      "＞": 4926,
      "？": 4927,
      "Ａ": 4928,
      "Ｃ": 4929,
      "Ｄ": 4930,
      "Ｇ": 4931,
      "Ｉ": 4932,
      "Ｊ": 4933,
      "Ｌ": 4934,
      "Ｍ": 4935,
      "Ｐ": 4936,
      "Ｒ": 4937,
      "Ｘ": 4938,
      "［": 4939,
      "］": 4940,
      "｜": 4941,
      "～": 4942,
      "｢": 4943,
      "｣": 4944,
      "･": 4945,
      "ｰ": 4946,
      "￥": 4947,
      "𐀁": 4948,
      "𐀈": 4949,
      "𐀫": 4950,
      "𐎠": 4951,
      "𐎢": 4952,
      "𐎭": 4953,
      "𐎰": 4954,
      "𐎹": 4955,
      "𐎺": 4956,
      "𐎼": 4957,
      "𐏁": 4958,
      "𐭃": 4959,
      "𐭉": 4960,
      "𐭓": 4961,
      "𐭕": 4962,
      "𒀯": 4963,
      "𒀳": 4964,
      "𝕄": 4965,
      "𝕡": 4966,
      "🖕": 4967,
      "##t": 4968,
      "##o": 4969,
      "##p": 4970,
      "##C": 4971,
      "##r": 4972,
      "##e": 4973,
      "##a": 4974,
      "##i": 4975,
      "##n": 4976,
      "##g": 4977,
      "##N": 4978,
      "##c": 4979,
      "##l": 4980,
      "##s": 4981,
      "##A": 4982,
      "##m": 4983,
      "##x": 4984,
      "##y": 4985,
      "##u": 4986,
      "##G": 4987,
      "##M": 4988,
      "##d": 4989,
      "##b": 4990,
      "##ل": 4991,
      "##ر": 4992,
      "##ؤ": 4993,
      "##و": 4994,
      "##ف": 4995,
      "##3": 4996,
      "##2": 4997,
      "##0": 4998,
      "##h": 4999,
      "##f": 5000,
      "##w": 5001,
      "##4": 5002,
      "##7": 5003,
      "##5": 5004,
      "##v": 5005,
      "##k": 5006,
      "##ー": 5007,
      "##ニ": 5008,
      "##ン": 5009,
      "##グ": 5010,
      "##サ": 5011,
      "##ダ": 5012,
      "##ʏ": 5013,
      "##ì": 5014,
      "##z": 5015,
      "##S": 5016,
      "##H": 5017,
      "##L": 5018,
      "##j": 5019,
      "##æ": 5020,
      "##1": 5021,
      "##O": 5022,
      "##W": 5023,
      "##P": 5024,
      "##R": 5025,
      "##T": 5026,
      "##セ": 5027,
      "##ス": 5028,
      "##ト": 5029,
      "##K": 5030,
      "##I": 5031,
      "##B": 5032,
      "##ä": 5033,
      "##è": 5034,
      "##8": 5035,
      "##9": 5036,
      "##ō": 5037,
      "##ˈ": 5038,
      "##ɫ": 5039,
      "##ο": 5040,
      "##λ": 5041,
      "##υ": 5042,
      "##E": 5043,
      "##š": 5044,
      "##ṇ": 5045,
      "##đ": 5046,
      "##í": 5047,
      "##н": 5048,
      "##а": 5049,
      "##с": 5050,
      "##т": 5051,
      "##ț": 5052,
      "##6": 5053,
      "##ą": 5054,
      "##ɔ": 5055,
      "##ː": 5056,
      "##ú": 5057,
      "##á": 5058,
      "##č": 5059,
      "##ə": 5060,
      "##о": 5061,
      "##п": 5062,
      "##д": 5063,
      "##е": 5064,
      "##D": 5065,
      "##º": 5066,
      "##ü": 5067,
      "##ᠣ": 5068,
      "##ᠯ": 5069,
      "##ᡳ": 5070,
      "##é": 5071,
      "##q": 5072,
      "##ا": 5073,
      "##ھ": 5074,
      "##F": 5075,
      "##V": 5076,
      "##Q": 5077,
      "##ó": 5078,
      "##б": 5079,
      "##ォ": 5080,
      "##チ": 5081,
      "##ュ": 5082,
      "##リ": 5083,
      "##オ": 5084,
      "##ো": 5085,
      "##ল": 5086,
      "##ন": 5087,
      "##U": 5088,
      "##ʒ": 5089,
      "##ɜ": 5090,
      "##и": 5091,
      "##ح": 5092,
      "##ص": 5093,
      "##ن": 5094,
      "##к": 5095,
      "##з": 5096,
      "##ʰ": 5097,
      "##ρ": 5098,
      "##ι": 5099,
      "##σ": 5100,
      "##τ": 5101,
      "##ύ": 5102,
      "##ɛ": 5103,
      "##ʊ": 5104,
      "##μ": 5105,
      "##ć": 5106,
      "##ł": 5107,
      "##ă": 5108,
      "##X": 5109,
      "##ル": 5110,
      "##ミ": 5111,
      "##ド": 5112,
      "##ի": 5113,
      "##ա": 5114,
      "##ց": 5115,
      "##յ": 5116,
      "##լ": 5117,
      "##ā": 5118,
      "##ī": 5119,
      "##Y": 5120,
      "##в": 5121,
      "##л": 5122,
      "##ŋ": 5123,
      "##ɪ": 5124,
      "##ʃ": 5125,
      "##ा": 5126,
      "##र": 5127,
      "##ं": 5128,
      "##ग": 5129,
      "##ी": 5130,
      "##ń": 5131,
      "##ö": 5132,
      "##J": 5133,
      "##π": 5134,
      "##φ": 5135,
      "##ά": 5136,
      "##у": 5137,
      "##ж": 5138,
      "##þ": 5139,
      "##κ": 5140,
      "##ῆ": 5141,
      "##ς": 5142,
      "##ç": 5143,
      "##ś": 5144,
      "##α": 5145,
      "##δ": 5146,
      "##ε": 5147,
      "##レ": 5148,
      "##ム": 5149,
      "##ナ": 5150,
      "##た": 5151,
      "##め": 5152,
      "##の": 5153,
      "##ز": 5154,
      "##ب": 5155,
      "##ל": 5156,
      "##ה": 5157,
      "##א": 5158,
      "##ʻ": 5159,
      "##ű": 5160,
      "##Z": 5161,
      "##ý": 5162,
      "##І": 5163,
      "##Л": 5164,
      "##Ы": 5165,
      "##ί": 5166,
      "##å": 5167,
      "##à": 5168,
      "##р": 5169,
      "##щ": 5170,
      "##ù": 5171,
      "##â": 5172,
      "##ø": 5173,
      "##ū": 5174,
      "##ṣ": 5175,
      "##ṭ": 5176,
      "##ω": 5177,
      "##ц": 5178,
      "##я": 5179,
      "##θ": 5180,
      "##ễ": 5181,
      "##ş": 5182,
      "##ﮭ": 5183,
      "##ﻔ": 5184,
      "##ط": 5185,
      "##ž": 5186,
      "##ɐ": 5187,
      "##ʲ": 5188,
      "##ч": 5189,
      "##ή": 5190,
      "##ɑ": 5191,
      "##ɒ": 5192,
      "##ه": 5193,
      "##ك": 5194,
      "##ة": 5195,
      "##ы": 5196,
      "##م": 5197,
      "##د": 5198,
      "##ي": 5199,
      "##η": 5200,
      "##ν": 5201,
      "##ḥ": 5202,
      "##ம": 5203,
      "##ت": 5204,
      "##ǒ": 5205,
      "##ネ": 5206,
      "##シ": 5207,
      "##ß": 5208,
      "##ʈ": 5209,
      "##ę": 5210,
      "##γ": 5211,
      "##Ĕ": 5212,
      "##ハ": 5213,
      "##イ": 5214,
      "##パ": 5215,
      "##ό": 5216,
      "##ð": 5217,
      "##ĩ": 5218,
      "##ë": 5219,
      "##ô": 5220,
      "##ǔ": 5221,
      "##ु": 5222,
      "##ध": 5223,
      "##に": 5224,
      "##せ": 5225,
      "##て": 5226,
      "##デ": 5227,
      "##ア": 5228,
      "##э": 5229,
      "##і": 5230,
      "##س": 5231,
      "##ह": 5232,
      "##õ": 5233,
      "##ǐ": 5234,
      "##ï": 5235,
      "##ِ": 5236,
      "##َ": 5237,
      "##ئ": 5238,
      "##ῦ": 5239,
      "##î": 5240,
      "##ร": 5241,
      "##ง": 5242,
      "##ก": 5243,
      "##ษ": 5244,
      "##า": 5245,
      "##ป": 5246,
      "##ณ": 5247,
      "##ɡ": 5248,
      "##ブ": 5249,
      "##ひ": 5250,
      "##な": 5251,
      "##ნ": 5252,
      "##ħ": 5253,
      "##อ": 5254,
      "##ว": 5255,
      "##ี": 5256,
      "##ラ": 5257,
      "##ш": 5258,
      "##ћ": 5259,
      "##ὸ": 5260,
      "##ě": 5261,
      "##ɾ": 5262,
      "##ṳ": 5263,
      "##ż": 5264,
      "##ʾ": 5265,
      "##β": 5266,
      "##ァ": 5267,
      "##フ": 5268,
      "##タ": 5269,
      "##ジ": 5270,
      "##バ": 5271,
      "##ș": 5272,
      "##ْ": 5273,
      "##ع": 5274,
      "##ř": 5275,
      "##ェ": 5276,
      "##ク": 5277,
      "##ビ": 5278,
      "##ッ": 5279,
      "##ガ": 5280,
      "##ê": 5281,
      "##ⁿ": 5282,
      "##ȳ": 5283,
      "##г": 5284,
      "##ŭ": 5285,
      "##ช": 5286,
      "##บ": 5287,
      "##ั": 5288,
      "##ล": 5289,
      "##ँ": 5290,
      "##Δ": 5291,
      "##Χ": 5292,
      "##ィ": 5293,
      "##گ": 5294,
      "##भ": 5295,
      "##स": 5296,
      "##ţ": 5297,
      "##ま": 5298,
      "##り": 5299,
      "##ạ": 5300,
      "##м": 5301,
      "##Ａ": 5302,
      "##Ｌ": 5303,
      "##ʌ": 5304,
      "##ギ": 5305,
      "##ē": 5306,
      "##ǫ": 5307,
      "##ˠ": 5308,
      "##έ": 5309,
      "##ח": 5310,
      "##ב": 5311,
      "##ʔ": 5312,
      "##ь": 5313,
      "##ѡ": 5314,
      "##カ": 5315,
      "##ゴ": 5316,
      "##エ": 5317,
      "##ứ": 5318,
      "##х": 5319,
      "##ṁ": 5320,
      "##ъ": 5321,
      "##ı": 5322,
      "##त": 5323,
      "##ृ": 5324,
      "##ɮ": 5325,
      "##ė": 5326,
      "##テ": 5327,
      "##ウ": 5328,
      "##ῖ": 5329,
      "##ら": 5330,
      "##い": 5331,
      "##ม": 5332,
      "##น": 5333,
      "##ต": 5334,
      "##ค": 5335,
      "##ロ": 5336,
      "##ј": 5337,
      "##χ": 5338,
      "##ゆ": 5339,
      "##ण": 5340,
      "##म": 5341,
      "##ừ": 5342,
      "##ि": 5343,
      "##े": 5344,
      "##ऽ": 5345,
      "##प": 5346,
      "##ケ": 5347,
      "##モ": 5348,
      "##ョ": 5349,
      "##ф": 5350,
      "##የ": 5351,
      "##ደ": 5352,
      "##አ": 5353,
      "##킨": 5354,
      "##ɣ": 5355,
      "##ฏ": 5356,
      "##ิ": 5357,
      "##ญ": 5358,
      "##ฟ": 5359,
      "##แ": 5360,
      "##ด": 5361,
      "##ṝ": 5362,
      "##ᵻ": 5363,
      "##ġ": 5364,
      "##ʀ": 5365,
      "##क": 5366,
      "##უ": 5367,
      "##ც": 5368,
      "##რ": 5369,
      "##ი": 5370,
      "##ệ": 5371,
      "##ী": 5372,
      "##র": 5373,
      "##ভ": 5374,
      "##ূ": 5375,
      "##ম": 5376,
      "##ò": 5377,
      "##ǎ": 5378,
      "##ἵ": 5379,
      "##コ": 5380,
      "##ャ": 5381,
      "##ズ": 5382,
      "##й": 5383,
      "##ņ": 5384,
      "##ち": 5385,
      "##ђ": 5386,
      "##ų": 5387,
      "##י": 5388,
      "##ַ": 5389,
      "##ס": 5390,
      "##ט": 5391,
      "##ָ": 5392,
      "##ק": 5393,
      "##न": 5394,
      "##ñ": 5395,
      "##ʁ": 5396,
      "##る": 5397,
      "##ပ": 5398,
      "##ြ": 5399,
      "##င": 5400,
      "##ザ": 5401,
      "##ẽ": 5402,
      "##お": 5403,
      "##ζ": 5404,
      "##ğ": 5405,
      "##ʋ": 5406,
      "##ʑ": 5407,
      "##ɕ": 5408,
      "##ゼ": 5409,
      "##ὐ": 5410,
      "##ọ": 5411,
      "##Յ": 5412,
      "##Դ": 5413,
      "##ן": 5414,
      "##ヘ": 5415,
      "##ώ": 5416,
      "##ض": 5417,
      "##れ": 5418,
      "##う": 5419,
      "##ی": 5420,
      "##خ": 5421,
      "##キ": 5422,
      "##Ｐ": 5423,
      "##２": 5424,
      "##ج": 5425,
      "##Я": 5426,
      "##ノ": 5427,
      "##ユ": 5428,
      "##ば": 5429,
      "##ん": 5430,
      "##プ": 5431,
      "##ã": 5432,
      "##ゃ": 5433,
      "##ဟ": 5434,
      "##ာ": 5435,
      "##ိ": 5436,
      "##န": 5437,
      "##ু": 5438,
      "##マ": 5439,
      "##ʱ": 5440,
      "##ペ": 5441,
      "##ภ": 5442,
      "##ท": 5443,
      "##ฐ": 5444,
      "##ủ": 5445,
      "##노": 5446,
      "##삼": 5447,
      "##성": 5448,
      "##자": 5449,
      "##ṛ": 5450,
      "##ὰ": 5451,
      "##ψ": 5452,
      "##み": 5453,
      "##ם": 5454,
      "##เ": 5455,
      "##ย": 5456,
      "##ห": 5457,
      "##ர": 5458,
      "##ச": 5459,
      "##ு": 5460,
      "##ボ": 5461,
      "##と": 5462,
      "##գ": 5463,
      "##վ": 5464,
      "##ո": 5465,
      "##ր": 5466,
      "##ត": 5467,
      "##ន": 5468,
      "##គ": 5469,
      "##ិ": 5470,
      "##រ": 5471,
      "##ី": 5472,
      "##ս": 5473,
      "##û": 5474,
      "##ɨ": 5475,
      "##ʷ": 5476,
      "##ˌ": 5477,
      "##ソ": 5478,
      "##ň": 5479,
      "##ల": 5480,
      "##ส": 5481,
      "##시": 5482,
      "##아": 5483,
      "##ಾ": 5484,
      "##ಸ": 5485,
      "##さ": 5486,
      "##や": 5487,
      "##か": 5488,
      "##は": 5489,
      "##じ": 5490,
      "##ʼ": 5491,
      "##ҷ": 5492,
      "##ӣ": 5493,
      "##ד": 5494,
      "##ו": 5495,
      "##נ": 5496,
      "##А": 5497,
      "##Б": 5498,
      "##Г": 5499,
      "##О": 5500,
      "##В": 5501,
      "##ツ": 5502,
      "##メ": 5503,
      "##च": 5504,
      "##ּ": 5505,
      "##ע": 5506,
      "##ֳ": 5507,
      "##ֹ": 5508,
      "##ư": 5509,
      "##ठ": 5510,
      "##つ": 5511,
      "##ゅ": 5512,
      "##も": 5513,
      "##ज": 5514,
      "##ो": 5515,
      "##य": 5516,
      "##ׁ": 5517,
      "##ֲ": 5518,
      "##ר": 5519,
      "##ֵ": 5520,
      "##ɬ": 5521,
      "##ワ": 5522,
      "##ő": 5523,
      "##ず": 5524,
      "##ỹ": 5525,
      "##ξ": 5526,
      "##Λ": 5527,
      "##Η": 5528,
      "##Ν": 5529,
      "##ش": 5530,
      "##ḷ": 5531,
      "##ṉ": 5532,
      "##ះ": 5533,
      "##ក": 5534,
      "##ុ": 5535,
      "##ណ": 5536,
      "##ា": 5537,
      "##ព": 5538,
      "##ɖ": 5539,
      "##ʐ": 5540,
      "##Φ": 5541,
      "##Ζ": 5542,
      "##հ": 5543,
      "##ւ": 5544,
      "##դ": 5545,
      "##ն": 5546,
      "##ե": 5547,
      "##ḍ": 5548,
      "##ホ": 5549,
      "##を": 5550,
      "##œ": 5551,
      "##ị": 5552,
      "##أ": 5553,
      "##こ": 5554,
      "##そ": 5555,
      "##ピ": 5556,
      "##ヨ": 5557,
      "##へ": 5558,
      "##Š": 5559,
      "##ÿ": 5560,
      "##ざ": 5561,
      "##し": 5562,
      "##ṅ": 5563,
      "##ִ": 5564,
      "##ש": 5565,
      "##ְ": 5566,
      "##ׂ": 5567,
      "##ת": 5568,
      "##あ": 5569,
      "##っ": 5570,
      "##ẩ": 5571,
      "##ג": 5572,
      "##ˑ": 5573,
      "##Ā": 5574,
      "##보": 5575,
      "##ŷ": 5576,
      "##ق": 5577,
      "##آ": 5578,
      "##ู": 5579,
      "##ุ": 5580,
      "##ธ": 5581,
      "##ศ": 5582,
      "##ἴ": 5583,
      "##ằ": 5584,
      "##פ": 5585,
      "##ゥ": 5586,
      "##Σ": 5587,
      "##द": 5588,
      "##Ú": 5589,
      "##Κ": 5590,
      "##Γ": 5591,
      "##ĭ": 5592,
      "##ি": 5593,
      "##ব": 5594,
      "##ঙ": 5595,
      "##ल": 5596,
      "##ड": 5597,
      "##ष": 5598,
      "##わ": 5599,
      "##び": 5600,
      "##व": 5601,
      "##Ø": 5602,
      "##إ": 5603,
      "##ई": 5604,
      "##ฤ": 5605,
      "##ả": 5606,
      "##ث": 5607,
      "##У": 5608,
      "##Ј": 5609,
      "##ौ": 5610,
      "##ﬂ": 5611,
      "##ᵝ": 5612,
      "##점": 5613,
      "##Ε": 5614,
      "##ా": 5615,
      "##వ": 5616,
      "##ు": 5617,
      "##ర": 5618,
      "##ి": 5619,
      "##ˣ": 5620,
      "##ぴ": 5621,
      "##ぐ": 5622,
      "##Τ": 5623,
      "##ˤ": 5624,
      "##մ": 5625,
      "##で": 5626,
      "##よ": 5627,
      "##պ": 5628,
      "##տ": 5629,
      "##թ": 5630,
      "##ё": 5631,
      "##ᾶ": 5632,
      "##ご": 5633,
      "##ḫ": 5634,
      "##ľ": 5635,
      "##ᶷ": 5636,
      "##남": 5637,
      "##집": 5638,
      "##Ē": 5639,
      "##ヅ": 5640,
      "##จ": 5641,
      "##ǣ": 5642,
      "##Α": 5643,
      "##Ψ": 5644,
      "##ى": 5645,
      "##ю": 5646,
      "##き": 5647,
      "##ů": 5648,
      "##ῶ": 5649,
      "##ヴ": 5650,
      "##מ": 5651,
      "##ょ": 5652,
      "##ः": 5653,
      "##ῷ": 5654,
      "##Ρ": 5655,
      "##ʿ": 5656,
      "##Υ": 5657,
      "##Ι": 5658,
      "##투": 5659,
      "##ङ": 5660,
      "##ዕ": 5661,
      "##ቆ": 5662,
      "##ብ": 5663,
      "##ậ": 5664,
      "##េ": 5665,
      "##ច": 5666,
      "##া": 5667,
      "##গ": 5668,
      "##כ": 5669,
      "##ך": 5670,
      "##غ": 5671,
      "##ổ": 5672,
      "##Ö": 5673,
      "##쳐": 5674,
      "##서": 5675,
      "##ץ": 5676,
      "##ɟ": 5677,
      "##ắ": 5678,
      "##ĕ": 5679,
      "##į": 5680,
      "##ெ": 5681,
      "##ட": 5682,
      "##צ": 5683,
      "##ᡝ": 5684,
      "##ᠴ": 5685,
      "##ᡵ": 5686,
      "##え": 5687,
      "##ɤ": 5688,
      "##ˀ": 5689,
      "##ế": 5690,
      "##ể": 5691,
      "##ܒ": 5692,
      "##ⴻ": 5693,
      "##ⵙ": 5694,
      "##ⴼ": 5695,
      "##ⴽ": 5696,
      "##ข": 5697,
      "##ใ": 5698,
      "##ா": 5699,
      "##ஸ": 5700,
      "##ُ": 5701,
      "##ّ": 5702,
      "##ਲ": 5703,
      "##ਸ": 5704,
      "##ਾ": 5705,
      "##ذ": 5706,
      "##ಡ": 5707,
      "##Ω": 5708,
      "##ヒ": 5709,
      "##ू": 5710,
      "##재": 5711,
      "##범": 5712,
      "##Θ": 5713,
      "##Ο": 5714,
      "##ੇ": 5715,
      "##ਵ": 5716,
      "##ោ": 5717,
      "##Ü": 5718,
      "##İ": 5719,
      "##ɘ": 5720,
      "##ờ": 5721,
      "##พ": 5722,
      "##ะ": 5723,
      "##ấ": 5724,
      "##ǝ": 5725,
      "##ὶ": 5726,
      "##ք": 5727,
      "##բ": 5728,
      "##ぷ": 5729,
      "##โ": 5730,
      "##ฬ": 5731,
      "##ĉ": 5732,
      "##ে": 5733,
      "##ক": 5734,
      "##կ": 5735,
      "##ベ": 5736,
      "##ὴ": 5737,
      "##Ó": 5738,
      "##ջ": 5739,
      "##ծ": 5740,
      "##ಲ": 5741,
      "##ở": 5742,
      "##ṃ": 5743,
      "##խ": 5744,
      "##ſ": 5745,
      "##ำ": 5746,
      "##ึ": 5747,
      "##ฎ": 5748,
      "##ֶ": 5749,
      "##극": 5750,
      "##장": 5751,
      "##ộ": 5752,
      "##ձ": 5753,
      "##Ë": 5754,
      "##љ": 5755,
      "##ז": 5756,
      "##ɸ": 5757,
      "##ɯ": 5758,
      "##ポ": 5759,
      "##ผ": 5760,
      "##Π": 5761,
      "##ܘ": 5762,
      "##ܼ": 5763,
      "##ܪ": 5764,
      "##Ц": 5765,
      "##ා": 5766,
      "##ජ": 5767,
      "##ධ": 5768,
      "##න": 5769,
      "##ි": 5770,
      "##ය": 5771,
      "##श": 5772,
      "##ბ": 5773,
      "##ა": 5774,
      "##ზ": 5775,
      "##ろ": 5776,
      "##ɽ": 5777,
      "##ទ": 5778,
      "##ܚ": 5779,
      "##줄": 5780,
      "##ぽ": 5781,
      "##け": 5782,
      "##Ċ": 5783,
      "##ˁ": 5784,
      "##ს": 5785,
      "##ტ": 5786,
      "##ე": 5787,
      "##ぃ": 5788,
      "##ϊ": 5789,
      "##হ": 5790,
      "##ķ": 5791,
      "##ʝ": 5792,
      "##ब": 5793,
      "##ྱ": 5794,
      "##ི": 5795,
      "##ḳ": 5796,
      "##ṯ": 5797,
      "##ং": 5798,
      "##Β": 5799,
      "##ầ": 5800,
      "##ឪ": 5801,
      "##µ": 5802,
      "##Ξ": 5803,
      "##ು": 5804,
      "##ಕ": 5805,
      "##ស": 5806,
      "##ៅ": 5807,
      "##យ": 5808,
      "##វ": 5809,
      "##ி": 5810,
      "##க": 5811,
      "##ள": 5812,
      "##ظ": 5813,
      "##Ă": 5814,
      "##ṓ": 5815,
      "##ơ": 5816,
      "##く": 5817,
      "##ៃ": 5818,
      "##ৰ": 5819,
      "##ণ": 5820,
      "##ɳ": 5821,
      "##す": 5822,
      "##だ": 5823,
      "##С": 5824,
      "##И": 5825,
      "##이": 5826,
      "##리": 5827,
      "##스": 5828,
      "##지": 5829,
      "##ხ": 5830,
      "##ჳ": 5831,
      "##ʂ": 5832,
      "##ᾷ": 5833,
      "##ॊ": 5834,
      "##ŗ": 5835,
      "##फ": 5836,
      "##є": 5837,
      "##Ş": 5838,
      "##ڠ": 5839,
      "##Ѡ": 5840,
      "##Н": 5841,
      "##Ъ": 5842,
      "##ĵ": 5843,
      "##용": 5844,
      "##ા": 5845,
      "##ર": 5846,
      "##ો": 5847,
      "##ખ": 5848,
      "##が": 5849,
      "##ḻ": 5850,
      "##물": 5851,
      "##뿐": 5852,
      "##인": 5853,
      "##ぎ": 5854,
      "##ื": 5855,
      "##가": 5856,
      "##쇼": 5857,
      "##ữ": 5858,
      "##È": 5859,
      "##ゲ": 5860,
      "##ṟ": 5861,
      "##ཛ": 5862,
      "##ན": 5863,
      "##ἶ": 5864,
      "##զ": 5865,
      "##ը": 5866,
      "##ო": 5867,
      "##ჯ": 5868,
      "##მ": 5869,
      "##Ī": 5870,
      "##ぱ": 5871,
      "##ჲ": 5872,
      "##փ": 5873,
      "##ɲ": 5874,
      "##ไ": 5875,
      "##ਹ": 5876,
      "##ੁ": 5877,
      "##ാ": 5878,
      "##സ": 5879,
      "##ぼ": 5880,
      "##뱅": 5881,
      "##ռ": 5882,
      "##Р": 5883,
      "##ử": 5884,
      "##ⴰ": 5885,
      "##ⵎ": 5886,
      "##ⵣ": 5887,
      "##ⵉ": 5888,
      "##ⵖ": 5889,
      "##ⵜ": 5890,
      "##ố": 5891,
      "##ヤ": 5892,
      "##Ħ": 5893,
      "##ɚ": 5894,
      "##해": 5895,
      "##ୁ": 5896,
      "##ର": 5897,
      "##ୀ": 5898,
      "##ூ": 5899,
      "##센": 5900,
      "##터": 5901,
      "##ැ": 5902,
      "##ឫ": 5903,
      "##ヌ": 5904,
      "##շ": 5905,
      "##ῇ": 5906,
      "##ὑ": 5907,
      "##घ": 5908,
      "##१": 5909,
      "##ེ": 5910,
      "##ங": 5911,
      "##ᡨ": 5912,
      "##ᡥ": 5913,
      "##ἰ": 5914,
      "##ە": 5915,
      "##ɭ": 5916,
      "##ʕ": 5917,
      "##ꜜ": 5918,
      "##ಿ": 5919,
      "##ಠ": 5920,
      "##ლ": 5921,
      "##ქ": 5922,
      "##დ": 5923,
      "##ண": 5924,
      "##ំ": 5925,
      "##ប": 5926,
      "##수": 5927,
      "##진": 5928,
      "##로": 5929,
      "##파": 5930,
      "##Æ": 5931,
      "##প": 5932,
      "##വ": 5933,
      "##ി": 5934,
      "##ശ": 5935,
      "##ļ": 5936,
      "##ź": 5937,
      "##Μ": 5938,
      "##상": 5939,
      "##ᾳ": 5940,
      "##ふ": 5941,
      "##ὲ": 5942,
      "##ῠ": 5943,
      "##ʳ": 5944,
      "##ぶ": 5945,
      "##ǧ": 5946,
      "##ǵ": 5947,
      "##ө": 5948,
      "##ὡ": 5949,
      "##ƀ": 5950,
      "##ཙ": 5951,
      "##ུ": 5952,
      "##ག": 5953,
      "##ⵓ": 5954,
      "##ⵔ": 5955,
      "##ខ": 5956,
      "##პ": 5957,
      "##ង": 5958,
      "##ய": 5959,
      "##ŏ": 5960,
      "##ᶴ": 5961,
      "##வ": 5962,
      "##ု": 5963,
      "##လ": 5964,
      "##း": 5965,
      "##ူ": 5966,
      "##မ": 5967,
      "##ျ": 5968,
      "##ኢ": 5969,
      "##ት": 5970,
      "##ዮ": 5971,
      "##ጵ": 5972,
      "##ያ": 5973,
      "##ہ": 5974,
      "##ں": 5975,
      "##ฑ": 5976,
      "##ƒ": 5977,
      "##기": 5978,
      "##천": 5979,
      "##ত": 5980,
      "##ট": 5981,
      "##ự": 5982,
      "##য": 5983,
      "##ċ": 5984,
      "##წ": 5985,
      "##ფ": 5986,
      "##ៀ": 5987,
      "##ភ": 5988,
      "##ថ": 5989,
      "##ʙ": 5990,
      "##ܲ": 5991,
      "##ܠ": 5992,
      "##ܵ": 5993,
      "##ܗ": 5994,
      "##ܐ": 5995,
      "##ﬁ": 5996,
      "##주": 5997,
      "##ũ": 5998,
      "##ぞ": 5999,
      "##थ": 6000,
      "##ழ": 6001,
      "##ѝ": 6002,
      "##ὺ": 6003,
      "##ɻ": 6004,
      "##ぜ": 6005,
      "##ね": 6006,
      "##ཁ": 6007,
      "##འ": 6008,
      "##목": 6009,
      "##적": 6010,
      "##법": 6011,
      "##Д": 6012,
      "##З": 6013,
      "##М": 6014,
      "##ॆ": 6015,
      "##む": 6016,
      "##ை": 6017,
      "##ன": 6018,
      "##ŵ": 6019,
      "##ἱ": 6020,
      "##ΐ": 6021,
      "##ў": 6022,
      "##소": 6023,
      "##행": 6024,
      "##қ": 6025,
      "##늬": 6026,
      "##오": 6027,
      "##징": 6028,
      "##어": 6029,
      "##ợ": 6030,
      "##Ě": 6031,
      "##ť": 6032,
      "##ོ": 6033,
      "##ီ": 6034,
      "##ရ": 6035,
      "##ḑ": 6036,
      "##ồ": 6037,
      "##ᵿ": 6038,
      "##پ": 6039,
      "##ਂ": 6040,
      "##ਝ": 6041,
      "##ղ": 6042,
      "##ோ": 6043,
      "##ȯ": 6044,
      "##유": 6045,
      "##짓": 6046,
      "##말": 6047,
      "##ᛁ": 6048,
      "##ម": 6049,
      "##ូ": 6050,
      "##ʉ": 6051,
      "##라": 6052,
      "##ḵ": 6053,
      "##ै": 6054,
      "##ɵ": 6055,
      "##ど": 6056,
      "##백": 6057,
      "##Ѣ": 6058,
      "##ძ": 6059,
      "##Ś": 6060,
      "##Ḥ": 6061,
      "##ḹ": 6062,
      "##ʎ": 6063,
      "##ⵡ": 6064,
      "##ख": 6065,
      "##호": 6066,
      "##ḕ": 6067,
      "##ụ": 6068,
      "##렌": 6069,
      "##태": 6070,
      "##권": 6071,
      "##도": 6072,
      "##ྲ": 6073,
      "##П": 6074,
      "##२": 6075,
      "##Á": 6076,
      "##ǚ": 6077,
      "##ដ": 6078,
      "##ὗ": 6079,
      "##ṙ": 6080,
      "##ञ": 6081,
      "##ἳ": 6082,
      "##ѥ": 6083,
      "##ం": 6084,
      "##జ": 6085,
      "##Ꮝ": 6086,
      "##Ꭶ": 6087,
      "##Ꮿ": 6088,
      "##Т": 6089,
      "##다": 6090,
      "##ḱ": 6091,
      "##Ｒ": 6092,
      "##Ｇ": 6093,
      "##ɺ": 6094,
      "##ੱ": 6095,
      "##ਜ": 6096,
      "##ಂ": 6097,
      "##ರ": 6098,
      "##ಗ": 6099,
      "##ˢ": 6100,
      "##ף": 6101,
      "##ሰ": 6102,
      "##ɞ": 6103,
      "##ἷ": 6104,
      "##К": 6105,
      "##문": 6106,
      "##𐎰": 6107,
      "##𐎢": 6108,
      "##𐎼": 6109,
      "##𐎠": 6110,
      "##ỵ": 6111,
      "##ᾰ": 6112,
      "##ฮ": 6113,
      "##इ": 6114,
      "##ѧ": 6115,
      "##ಮ": 6116,
      "##ვ": 6117,
      "##ហ": 6118,
      "##É": 6119,
      "##퍼": 6120,
      "##런": 6121,
      "##თ": 6122,
      "##ែ": 6123,
      "##ៈ": 6124,
      "##ള": 6125,
      "##ఠ": 6126,
      "##ỗ": 6127,
      "##산": 6128,
      "##전": 6129,
      "##ḗ": 6130,
      "##ẹ": 6131,
      "##ट": 6132,
      "##њ": 6133,
      "##ⵛ": 6134,
      "##భ": 6135,
      "##గ": 6136,
      "##మ": 6137,
      "##ీ": 6138,
      "##న": 6139,
      "##ぇ": 6140,
      "##স": 6141,
      "##দ": 6142,
      "##ჱ": 6143,
      "##ء": 6144,
      "##స": 6145,
      "##신": 6146,
      "##양": 6147,
      "##광": 6148,
      "##ถ": 6149,
      "##ȟ": 6150,
      "##화": 6151,
      "##ǰ": 6152,
      "##ớ": 6153,
      "##글": 6154,
      "##빙": 6155,
      "##ٔ": 6156,
      "##ک": 6157,
      "##ֱ": 6158,
      "##Ꮃ": 6159,
      "##Ꮀ": 6160,
      "##Ꮉ": 6161,
      "##타": 6162,
      "##일": 6163,
      "##ぉ": 6164,
      "##ḩ": 6165,
      "##Î": 6166,
      "##네": 6167,
      "##త": 6168,
      "##ฉ": 6169,
      "##한": 6170,
      "##엔": 6171,
      "##념": 6172,
      "##공": 6173,
      "##원": 6174,
      "##ほ": 6175,
      "##և": 6176,
      "##ॉ": 6177,
      "##ʹ": 6178,
      "##ǂ": 6179,
      "##ⵏ": 6180,
      "##ǜ": 6181,
      "##ྡ": 6182,
      "##མ": 6183,
      "##향": 6184,
      "##ۍ": 6185,
      "##ᛠ": 6186,
      "##Є": 6187,
      "##Ѯ": 6188,
      "##ϑ": 6189,
      "##٧": 6190,
      "##예": 6191,
      "##술": 6192,
      "##론": 6193,
      "##է": 6194,
      "##த": 6195,
      "##𒀳": 6196,
      "##Ս": 6197,
      "##Հ": 6198,
      "##정": 6199,
      "##げ": 6200,
      "##ῐ": 6201,
      "##ყ": 6202,
      "##ṵ": 6203,
      "##ḭ": 6204,
      "##ས": 6205,
      "##စ": 6206,
      "##ڬ": 6207,
      "##ḏ": 6208,
      "##ೇ": 6209,
      "##ಶ": 6210,
      "##ሐ": 6211,
      "##ዘ": 6212,
      "##በ": 6213,
      "##ഹ": 6214,
      "##ሀ": 6215,
      "##ገ": 6216,
      "##ረ": 6217,
      "##ٰ": 6218,
      "##ဲ": 6219,
      "##օ": 6220,
      "##미": 6221,
      "##ከ": 6222,
      "##ነ": 6223,
      "##방": 6224,
      "##울": 6225,
      "##ぺ": 6226,
      "##Ь": 6227,
      "##래": 6228,
      "##ề": 6229,
      "##ї": 6230,
      "##ᚷ": 6231,
      "##ᚾ": 6232,
      "##ᚩ": 6233,
      "##ᚦ": 6234,
      "##শ": 6235,
      "##લ": 6236,
      "##સ": 6237,
      "##გ": 6238,
      "##ල": 6239,
      "##ን": 6240,
      "##ድ": 6241,
      "##Ｉ": 6242,
      "##청": 6243,
      "##Е": 6244,
      "##ỉ": 6245,
      "##ὼ": 6246,
      "##내": 6247,
      "##앤": 6248,
      "##커": 6249,
      "##Ｘ": 6250,
      "##Č": 6251,
      "##만": 6252,
      "##바": 6253,
      "##봐": 6254,
      "##ⵍ": 6255,
      "##ར": 6256,
      "##ɹ": 6257,
      "##བ": 6258,
      "##ತ": 6259,
      "##고": 6260,
      "##려": 6261,
      "##ష": 6262,
      "##չ": 6263,
      "##ỏ": 6264,
      "##ẓ": 6265,
      "##경": 6266,
      "##관": 6267,
      "##ヶ": 6268,
      "##Х": 6269,
      "##ර": 6270,
      "##ම": 6271,
      "##나": 6272,
      "##ヂ": 6273,
      "##식": 6274,
      "##회": 6275,
      "##사": 6276,
      "##ｰ": 6277,
      "##ぅ": 6278,
      "##희": 6279,
      "##ᵊ": 6280,
      "##종": 6281,
      "##합": 6282,
      "##운": 6283,
      "##동": 6284,
      "##ď": 6285,
      "##ѹ": 6286,
      "##ជ": 6287,
      "##ឯ": 6288,
      "##ֿ": 6289,
      "##빤": 6290,
      "##ὣ": 6291,
      "##Ꭸ": 6292,
      "##Ᏹ": 6293,
      "##ே": 6294,
      "##හ": 6295,
      "##ȝ": 6296,
      "##ǹ": 6297,
      "##డ": 6298,
      "##ో": 6299,
      "##బ": 6300,
      "##థ": 6301,
      "##Đ": 6302,
      "##ீ": 6303,
      "##국": 6304,
      "##Ǝ": 6305,
      "##ϕ": 6306,
      "##ሥ": 6307,
      "##ሓ": 6308,
      "##ẻ": 6309,
      "##Ž": 6310,
      "##ٌ": 6311,
      "##연": 6312,
      "##ὖ": 6313,
      "##থ": 6314,
      "##ನ": 6315,
      "##چ": 6316,
      "##ᵀ": 6317,
      "##ር": 6318,
      "##ﬀ": 6319,
      "##づ": 6320,
      "##Ḣ": 6321,
      "##შ": 6322,
      "##Ф": 6323,
      "##은": 6324,
      "##을": 6325,
      "##ப": 6326,
      "##를": 6327,
      "##명": 6328,
      "##ⴳ": 6329,
      "##ᛞ": 6330,
      "##ᛚ": 6331,
      "##ᛗ": 6332,
      "##ẖ": 6333,
      "##ฝ": 6334,
      "##ے": 6335,
      "##ῑ": 6336,
      "##ֽ": 6337,
      "##ܣ": 6338,
      "##ܡ": 6339,
      "##𐎹": 6340,
      "##𐏁": 6341,
      "##ɦ": 6342,
      "##ƿ": 6343,
      "##에": 6344,
      "##렬": 6345,
      "##허": 6346,
      "##그": 6347,
      "##ಟ": 6348,
      "##ꦸ": 6349,
      "##ꦲ": 6350,
      "##ꦂ": 6351,
      "##ꦠ": 6352,
      "##ྣ": 6353,
      "##표": 6354,
      "##록": 6355,
      "##ɰ": 6356,
      "##ﮮ": 6357,
      "##Ｃ": 6358,
      "##Ｄ": 6359,
      "##ɥ": 6360,
      "##근": 6361,
      "##순": 6362,
      "##ժ": 6363,
      "##ゾ": 6364,
      "##ই": 6365,
      "##ළ": 6366,
      "##３": 6367,
      "##루": 6368,
      "##하": 6369,
      "##ܕ": 6370,
      "##ܝ": 6371,
      "##ܢ": 6372,
      "##ܬ": 6373,
      "##ῳ": 6374,
      "##색": 6375,
      "##ⵃ": 6376,
      "##ⵕ": 6377,
      "##ល": 6378,
      "##ួ": 6379,
      "##음": 6380,
      "##ѣ": 6381,
      "##ṽ": 6382,
      "##ྟ": 6383,
      "##ὕ": 6384,
      "##ྤ": 6385,
      "##ᡴ": 6386,
      "##ᠪ": 6387,
      "##ᡠ": 6388,
      "##ᠠ": 6389,
      "##６": 6390,
      "##ซ": 6391,
      "##Â": 6392,
      "##ல": 6393,
      "##Ш": 6394,
      "##ү": 6395,
      "##𐀁": 6396,
      "##𐀫": 6397,
      "##실": 6398,
      "##야": 6399,
      "##छ": 6400,
      "##ឹ": 6401,
      "##ང": 6402,
      "##Œ": 6403,
      "##살": 6404,
      "##계": 6405,
      "##ദ": 6406,
      "##ಭ": 6407,
      "##ճ": 6408,
      "##ɓ": 6409,
      "##초": 6410,
      "##ದ": 6411,
      "##날": 6412,
      "##ᠨ": 6413,
      "##ᠵ": 6414,
      "##ᠰ": 6415,
      "##ᒡ": 6416,
      "##ᓘ": 6417,
      "##ᑲ": 6418,
      "##ធ": 6419,
      "##ⲩ": 6420,
      "##ⲥ": 6421,
      "##ⲧ": 6422,
      "##ⲁ": 6423,
      "##ⲱ": 6424,
      "##ⲛ": 6425,
      "##ந": 6426,
      "##ⵇ": 6427,
      "##ሕ": 6428,
      "##ዛ": 6429,
      "##ු": 6430,
      "##풍": 6431,
      "##학": 6432,
      "##복": 6433,
      "##퇴": 6434,
      "##ǭ": 6435,
      "##ষ": 6436,
      "##ܔ": 6437,
      "##버": 6438,
      "##Ô": 6439,
      "##ɴ": 6440,
      "##ـ": 6441,
      "##ὔ": 6442,
      "##ප": 6443,
      "##Э": 6444,
      "##독": 6445,
      "##립": 6446,
      "##병": 6447,
      "##대": 6448,
      "##ً": 6449,
      "##ⵢ": 6450,
      "##ֻ": 6451,
      "##건": 6452,
      "##ᛟ": 6453,
      "##ᚨ": 6454,
      "##ᚱ": 6455,
      "##부": 6456,
      "##ဘ": 6457,
      "##က": 6458,
      "##ฆ": 6459,
      "##ⴷ": 6460,
      "##Ō": 6461,
      "##간": 6462,
      "##막": 6463,
      "##ʽ": 6464,
      "##앙": 6465,
      "##구": 6466,
      "##코": 6467,
      "##삿": 6468,
      "##평": 6469,
      "##Å": 6470,
      "##Í": 6471,
      "##람": 6472,
      "##났": 6473,
      "##ĺ": 6474,
      "##ལ": 6475,
      "##개": 6476,
      "##의": 6477,
      "##ይ": 6478,
      "##ኲ": 6479,
      "##ෝ": 6480,
      "##ව": 6481,
      "##ặ": 6482,
      "##ᶦ": 6483,
      "##ྥ": 6484,
      "##돌": 6485,
      "##위": 6486,
      "##단": 6487,
      "##ἥ": 6488,
      "##무": 6489,
      "##트": 6490,
      "##홀": 6491,
      "##ぬ": 6492,
      "##ై": 6493,
      "##እ": 6494,
      "##ስ": 6495,
      "##Ї": 6496,
      "##ና": 6497,
      "##민": 6498,
      "##ǽ": 6499,
      "##ဝ": 6500,
      "##ယ": 6501,
      "##ద": 6502,
      "##ታ": 6503,
      "##ቲ": 6504,
      "##ኖ": 6505,
      "##ẵ": 6506,
      "##ἲ": 6507,
      "##ማ": 6508,
      "##너": 6509,
      "##피": 6510,
      "##ȷ": 6511,
      "##ᛇ": 6512,
      "##ᛋ": 6513,
      "##ᚻ": 6514,
      "##𐎺": 6515,
      "##ϟ": 6516,
      "##ɢ": 6517,
      "##Ά": 6518,
      "##ለ": 6519,
      "##Й": 6520,
      "##ᚢ": 6521,
      "##ᛏ": 6522,
      "##ᚹ": 6523,
      "##ģ": 6524,
      "##차": 6525,
      "##혹": 6526,
      "##ೋ": 6527,
      "##ಬ": 6528,
      "##놔": 6529,
      "##ཡ": 6530,
      "##𐭉": 6531,
      "##𐭓": 6532,
      "##𐭃": 6533,
      "##𐭕": 6534,
      "##체": 6535,
      "##불": 6536,
      "##ര": 6537,
      "##ങ": 6538,
      "##ỳ": 6539,
      "##ٍ": 6540,
      "##ਿ": 6541,
      "##ੰ": 6542,
      "##ਘ": 6543,
      "##ẫ": 6544,
      "##კ": 6545,
      "##Ä": 6546,
      "##ৈ": 6547,
      "##খ": 6548,
      "##판": 6549,
      "##ේ": 6550,
      "##ශ": 6551,
      "##Ⅱ": 6552,
      "##ှ": 6553,
      "##he": 6554,
      "the": 6555,
      "##er": 6556,
      "##in": 6557,
      "##on": 6558,
      "##ed": 6559,
      "##nd": 6560,
      "##or": 6561,
      "##at": 6562,
      "##es": 6563,
      "##ar": 6564,
      "##en": 6565,
      "of": 6566,
      "##an": 6567,
      "##al": 6568,
      "in": 6569,
      "##ing": 6570,
      "##it": 6571,
      "##as": 6572,
      "##is": 6573,
      "and": 6574,
      "to": 6575,
      "##ic": 6576,
      "##ou": 6577,
      "##ion": 6578,
      "##re": 6579,
      "##om": 6580,
      "##il": 6581,
      "##el": 6582,
      "##ec": 6583,
      "##ent": 6584,
      "th": 6585,
      "##st": 6586,
      "##am": 6587,
      "##et": 6588,
      "##ro": 6589,
      "##ad": 6590,
      "##ac": 6591,
      "was": 6592,
      "##ur": 6593,
      "##ol": 6594,
      "on": 6595,
      "The": 6596,
      "##le": 6597,
      "##ly": 6598,
      "##ir": 6599,
      "for": 6600,
      "##id": 6601,
      "##ter": 6602,
      "##iv": 6603,
      "##ig": 6604,
      "##ot": 6605,
      "as": 6606,
      "##ut": 6607,
      "##ow": 6608,
      "##im": 6609,
      "##ith": 6610,
      "##ay": 6611,
      "##em": 6612,
      "st": 6613,
      "##ation": 6614,
      "with": 6615,
      "be": 6616,
      "that": 6617,
      "##ers": 6618,
      "wh": 6619,
      "re": 6620,
      "##ts": 6621,
      "##us": 6622,
      "by": 6623,
      "##ch": 6624,
      "##ce": 6625,
      "##th": 6626,
      "al": 6627,
      "##ver": 6628,
      "is": 6629,
      "con": 6630,
      "##ul": 6631,
      "at": 6632,
      "##os": 6633,
      "##and": 6634,
      "##ain": 6635,
      "19": 6636,
      "an": 6637,
      "##her": 6638,
      "fr": 6639,
      "##ag": 6640,
      "##av": 6641,
      "##um": 6642,
      "##est": 6643,
      "his": 6644,
      "##od": 6645,
      "##ess": 6646,
      "##ct": 6647,
      "he": 6648,
      "from": 6649,
      "##ri": 6650,
      "com": 6651,
      "##un": 6652,
      "20": 6653,
      "##ap": 6654,
      "pro": 6655,
      "##op": 6656,
      "##ere": 6657,
      "##ill": 6658,
      "##ew": 6659,
      "##ist": 6660,
      "su": 6661,
      "##igh": 6662,
      "In": 6663,
      "##ear": 6664,
      "##ies": 6665,
      "##ect": 6666,
      "##ber": 6667,
      "##ld": 6668,
      "##ard": 6669,
      "de": 6670,
      "##if": 6671,
      "##all": 6672,
      "##ak": 6673,
      "##ich": 6674,
      "were": 6675,
      "##oc": 6676,
      "##ate": 6677,
      "##ab": 6678,
      "##pp": 6679,
      "it": 6680,
      "se": 6681,
      "ex": 6682,
      "##ong": 6683,
      "##art": 6684,
      "##ud": 6685,
      "##ort": 6686,
      "ch": 6687,
      "or": 6688,
      "##gh": 6689,
      "##ated": 6690,
      "pl": 6691,
      "sh": 6692,
      "##ity": 6693,
      "##se": 6694,
      "##ive": 6695,
      "##ame": 6696,
      "##ore": 6697,
      "##ant": 6698,
      "had": 6699,
      "##our": 6700,
      "##ack": 6701,
      "St": 6702,
      "##rou": 6703,
      "##ip": 6704,
      "which": 6705,
      "##ast": 6706,
      "##ge": 6707,
      "##ov": 6708,
      "##ian": 6709,
      "pr": 6710,
      "are": 6711,
      "##ment": 6712,
      "##ell": 6713,
      "##ial": 6714,
      "not": 6715,
      "##ost": 6716,
      "sp": 6717,
      "##nt": 6718,
      "tr": 6719,
      "##qu": 6720,
      "##ia": 6721,
      "##ord": 6722,
      "##ust": 6723,
      "##ary": 6724,
      "##pt": 6725,
      "##ther": 6726,
      "##ine": 6727,
      "##rit": 6728,
      "le": 6729,
      "##ical": 6730,
      "##ave": 6731,
      "rec": 6732,
      "Ch": 6733,
      "##ight": 6734,
      "##pl": 6735,
      "##ie": 6736,
      "200": 6737,
      "##out": 6738,
      "##cc": 6739,
      "inc": 6740,
      "##fter": 6741,
      "##ould": 6742,
      "but": 6743,
      "fir": 6744,
      "##ish": 6745,
      "##ous": 6746,
      "##ions": 6747,
      "##ff": 6748,
      "int": 6749,
      "cont": 6750,
      "ar": 6751,
      "whe": 6752,
      "##so": 6753,
      "##ure": 6754,
      "her": 6755,
      "##og": 6756,
      "##ue": 6757,
      "first": 6758,
      "##ub": 6759,
      "cl": 6760,
      "##wo": 6761,
      "##per": 6762,
      "its": 6763,
      "##ass": 6764,
      "their": 6765,
      "##ign": 6766,
      "##ok": 6767,
      "##ork": 6768,
      "##orm": 6769,
      "res": 6770,
      "##ru": 6771,
      "##ra": 6772,
      "##oll": 6773,
      "##ome": 6774,
      "##ater": 6775,
      "en": 6776,
      "also": 6777,
      "ab": 6778,
      "##00": 6779,
      "##ond": 6780,
      "ad": 6781,
      "##age": 6782,
      "##ide": 6783,
      "##ry": 6784,
      "He": 6785,
      "##mer": 6786,
      "##hed": 6787,
      "##ire": 6788,
      "rel": 6789,
      "##ans": 6790,
      "##ime": 6791,
      "per": 6792,
      "un": 6793,
      "Th": 6794,
      "one": 6795,
      "have": 6796,
      "sc": 6797,
      "##du": 6798,
      "##end": 6799,
      "##ally": 6800,
      "##ence": 6801,
      "##own": 6802,
      "##ound": 6803,
      "18": 6804,
      "##ile": 6805,
      "##ance": 6806,
      "two": 6807,
      "##ition": 6808,
      "##ough": 6809,
      "who": 6810,
      "##iz": 6811,
      "##ree": 6812,
      "##uring": 6813,
      "Al": 6814,
      "been": 6815,
      "bec": 6816,
      "has": 6817,
      "ag": 6818,
      "##ely": 6819,
      "app": 6820,
      "##pr": 6821,
      "201": 6822,
      "all": 6823,
      "dis": 6824,
      "##act": 6825,
      "ser": 6826,
      "this": 6827,
      "##lud": 6828,
      "##ory": 6829,
      "##ey": 6830,
      "##ice": 6831,
      "year": 6832,
      "##ations": 6833,
      "##ember": 6834,
      "##ach": 6835,
      "off": 6836,
      "##ark": 6837,
      "after": 6838,
      "part": 6839,
      "comp": 6840,
      "It": 6841,
      "play": 6842,
      "des": 6843,
      "over": 6844,
      "##ace": 6845,
      "##land": 6846,
      "out": 6847,
      "they": 6848,
      "att": 6849,
      "##ade": 6850,
      "##ik": 6851,
      "##eas": 6852,
      "##ric": 6853,
      "other": 6854,
      "##ib": 6855,
      "man": 6856,
      "##ult": 6857,
      "##ens": 6858,
      "im": 6859,
      "includ": 6860,
      "##over": 6861,
      "##ail": 6862,
      "##ced": 6863,
      "##ee": 6864,
      "##urn": 6865,
      "##wn": 6866,
      "would": 6867,
      "us": 6868,
      "up": 6869,
      "##ind": 6870,
      "##ang": 6871,
      "time": 6872,
      "##man": 6873,
      "into": 6874,
      "pre": 6875,
      "##ount": 6876,
      "##oin": 6877,
      "##ward": 6878,
      "him": 6879,
      "##ite": 6880,
      "##oy": 6881,
      "On": 6882,
      "Un": 6883,
      "##ates": 6884,
      "she": 6885,
      "##een": 6886,
      "ev": 6887,
      "##ng": 6888,
      "##ilm": 6889,
      "##able": 6890,
      "##ited": 6891,
      "##nder": 6892,
      "##amp": 6893,
      "##ever": 6894,
      "##ied": 6895,
      "##ction": 6896,
      "comm": 6897,
      "##ors": 6898,
      "inter": 6899,
      "##ose": 6900,
      "##ents": 6901,
      "##ons": 6902,
      "##rough": 6903,
      "##les": 6904,
      "##ood": 6905,
      "##aw": 6906,
      "##ces": 6907,
      "more": 6908,
      "work": 6909,
      "Ar": 6910,
      "##old": 6911,
      "##ock": 6912,
      "Fr": 6913,
      "##form": 6914,
      "##ings": 6915,
      "##one": 6916,
      "##vel": 6917,
      "##ick": 6918,
      "##etw": 6919,
      "##ild": 6920,
      "new": 6921,
      "##eat": 6922,
      "sec": 6923,
      "##ft": 6924,
      "when": 6925,
      "##inal": 6926,
      "film": 6927,
      "cons": 6928,
      "##fer": 6929,
      "##ious": 6930,
      "##way": 6931,
      "##ake": 6932,
      "Mar": 6933,
      "##iss": 6934,
      "##aus": 6935,
      "##att": 6936,
      "##reat": 6937,
      "##round": 6938,
      "##eg": 6939,
      "##rop": 6940,
      "rem": 6941,
      "##ict": 6942,
      "##rib": 6943,
      "##ved": 6944,
      "##ob": 6945,
      "##ss": 6946,
      "dec": 6947,
      "car": 6948,
      "##gan": 6949,
      "te": 6950,
      "##ual": 6951,
      "during": 6952,
      "##orth": 6953,
      "again": 6954,
      "##port": 6955,
      "##ubl": 6956,
      "most": 6957,
      "game": 6958,
      "fl": 6959,
      "char": 6960,
      "##eld": 6961,
      "##oth": 6962,
      "them": 6963,
      "199": 6964,
      "##hip": 6965,
      "only": 6966,
      "##ason": 6967,
      "##ix": 6968,
      "ear": 6969,
      "##etween": 6970,
      "##ollow": 6971,
      "than": 6972,
      "##ered": 6973,
      "##ep": 6974,
      "##ational": 6975,
      "##ev": 6976,
      "New": 6977,
      "about": 6978,
      "produ": 6979,
      "cent": 6980,
      "##tern": 6981,
      "ret": 6982,
      "kn": 6983,
      "##ug": 6984,
      "song": 6985,
      "can": 6986,
      "##fore": 6987,
      "##outh": 6988,
      "between": 6989,
      "later": 6990,
      "##ted": 6991,
      "under": 6992,
      "##orn": 6993,
      "##ters": 6994,
      "##eb": 6995,
      "three": 6996,
      "##hn": 6997,
      "##ank": 6998,
      "##ook": 6999,
      "##iew": 7000,
      "##aid": 7001,
      "##ath": 7002,
      "through": 7003,
      "##orld": 7004,
      "releas": 7005,
      "num": 7006,
      "acc": 7007,
      "while": 7008,
      "end": 7009,
      "##meric": 7010,
      "Americ": 7011,
      "act": 7012,
      "##ral": 7013,
      "pos": 7014,
      "##ex": 7015,
      "sub": 7016,
      "##ph": 7017,
      "so": 7018,
      "##ular": 7019,
      "ass": 7020,
      "where": 7021,
      "bu": 7022,
      "day": 7023,
      "reg": 7024,
      "form": 7025,
      "second": 7026,
      "##ener": 7027,
      "Com": 7028,
      "##oun": 7029,
      "made": 7030,
      "##ames": 7031,
      "##ision": 7032,
      "##ived": 7033,
      "##te": 7034,
      "##ve": 7035,
      "record": 7036,
      "def": 7037,
      "ac": 7038,
      "##red": 7039,
      "000": 7040,
      "##bum": 7041,
      "four": 7042,
      "##als": 7043,
      "follow": 7044,
      "##ton": 7045,
      "##ating": 7046,
      "season": 7047,
      "##ool": 7048,
      "bas": 7049,
      "ep": 7050,
      "am": 7051,
      "##son": 7052,
      "some": 7053,
      "such": 7054,
      "ind": 7055,
      "pe": 7056,
      "##ished": 7057,
      "mov": 7058,
      "##ept": 7059,
      "before": 7060,
      "##ained": 7061,
      "##hes": 7062,
      "mus": 7063,
      "there": 7064,
      "writ": 7065,
      "mon": 7066,
      "As": 7067,
      "##ics": 7068,
      "Jo": 7069,
      "spec": 7070,
      "10": 7071,
      "##io": 7072,
      "sy": 7073,
      "years": 7074,
      "team": 7075,
      "##ode": 7076,
      "##ike": 7077,
      "At": 7078,
      "##ont": 7079,
      "This": 7080,
      "Sh": 7081,
      "lar": 7082,
      "##ning": 7083,
      "gr": 7084,
      "album": 7085,
      "##ected": 7086,
      "Sp": 7087,
      "Pr": 7088,
      "##ily": 7089,
      "##owever": 7090,
      "bl": 7091,
      "el": 7092,
      "used": 7093,
      "call": 7094,
      "supp": 7095,
      "sur": 7096,
      "##ific": 7097,
      "##ery": 7098,
      "##hen": 7099,
      "high": 7100,
      "##ury": 7101,
      "publ": 7102,
      "##ection": 7103,
      "being": 7104,
      "epis": 7105,
      "##anc": 7106,
      "##ll": 7107,
      "then": 7108,
      "##aj": 7109,
      "##air": 7110,
      "An": 7111,
      "##velop": 7112,
      "inv": 7113,
      "do": 7114,
      "me": 7115,
      "loc": 7116,
      "br": 7117,
      "17": 7118,
      "against": 7119,
      "##other": 7120,
      "##ement": 7121,
      "qu": 7122,
      "##au": 7123,
      "##ten": 7124,
      "##ife": 7125,
      "pres": 7126,
      "##ower": 7127,
      "number": 7128,
      "After": 7129,
      "charac": 7130,
      "sever": 7131,
      "show": 7132,
      "co": 7133,
      "add": 7134,
      "set": 7135,
      "##ane": 7136,
      "##ince": 7137,
      "became": 7138,
      "we": 7139,
      "air": 7140,
      "Brit": 7141,
      "##ause": 7142,
      "lead": 7143,
      "perform": 7144,
      "no": 7145,
      "including": 7146,
      "sing": 7147,
      "##ron": 7148,
      "##ines": 7149,
      "found": 7150,
      "United": 7151,
      "##erm": 7152,
      "well": 7153,
      "Sc": 7154,
      "back": 7155,
      "##gr": 7156,
      "##ale": 7157,
      "##ised": 7158,
      "both": 7159,
      "pol": 7160,
      "15": 7161,
      "cap": 7162,
      "198": 7163,
      "series": 7164,
      "12": 7165,
      "##ier": 7166,
      "str": 7167,
      "rev": 7168,
      "##ise": 7169,
      "##ober": 7170,
      "war": 7171,
      "##uc": 7172,
      "##its": 7173,
      "Br": 7174,
      "Wh": 7175,
      "##pen": 7176,
      "##ures": 7177,
      "##itt": 7178,
      "She": 7179,
      "appear": 7180,
      "##fl": 7181,
      "##ivers": 7182,
      "main": 7183,
      "##are": 7184,
      "194": 7185,
      "min": 7186,
      "##iet": 7187,
      "dr": 7188,
      "##overn": 7189,
      "did": 7190,
      "##oad": 7191,
      "##ann": 7192,
      "##ole": 7193,
      "##az": 7194,
      "##led": 7195,
      "go": 7196,
      "##olog": 7197,
      "War": 7198,
      "develop": 7199,
      "Le": 7200,
      "##roup": 7201,
      "met": 7202,
      "##elf": 7203,
      "##ities": 7204,
      "Eng": 7205,
      "##ert": 7206,
      "long": 7207,
      "##any": 7208,
      "##ross": 7209,
      "em": 7210,
      "##ird": 7211,
      "mill": 7212,
      "John": 7213,
      "##ful": 7214,
      "ship": 7215,
      "episode": 7216,
      "##ley": 7217,
      "mat": 7218,
      "##ield": 7219,
      "dire": 7220,
      "ext": 7221,
      "said": 7222,
      "stud": 7223,
      "cre": 7224,
      "##uch": 7225,
      "Cl": 7226,
      "many": 7227,
      "bro": 7228,
      "##ative": 7229,
      "16": 7230,
      "rece": 7231,
      "could": 7232,
      "##ash": 7233,
      "orig": 7234,
      "contin": 7235,
      "several": 7236,
      "American": 7237,
      "##iver": 7238,
      "##though": 7239,
      "Ind": 7240,
      "dif": 7241,
      "##ase": 7242,
      "##eng": 7243,
      "##ah": 7244,
      "##ather": 7245,
      "inst": 7246,
      "##ouse": 7247,
      "pop": 7248,
      "##emb": 7249,
      "##sp": 7250,
      "##oot": 7251,
      "known": 7252,
      "197": 7253,
      "##der": 7254,
      "##ins": 7255,
      "11": 7256,
      "##ually": 7257,
      "196": 7258,
      "Aust": 7259,
      "conc": 7260,
      "par": 7261,
      "##eed": 7262,
      "##up": 7263,
      "feat": 7264,
      "##iam": 7265,
      "##ident": 7266,
      "##erson": 7267,
      "##ks": 7268,
      "ob": 7269,
      "##ued": 7270,
      "sm": 7271,
      "return": 7272,
      "any": 7273,
      "began": 7274,
      "##hy": 7275,
      "##row": 7276,
      "prov": 7277,
      "design": 7278,
      "unt": 7279,
      "near": 7280,
      "compl": 7281,
      "desc": 7282,
      "sign": 7283,
      "Bl": 7284,
      "##chool": 7285,
      "##ism": 7286,
      "##ople": 7287,
      "est": 7288,
      "##ange": 7289,
      "##aking": 7290,
      "exp": 7291,
      "trans": 7292,
      "##0s": 7293,
      "##ccess": 7294,
      "##my": 7295,
      "##ty": 7296,
      "##ern": 7297,
      "run": 7298,
      "early": 7299,
      "##ets": 7300,
      "art": 7301,
      "##enn": 7302,
      "##ized": 7303,
      "dist": 7304,
      "music": 7305,
      "own": 7306,
      "you": 7307,
      "released": 7308,
      "##ided": 7309,
      "until": 7310,
      "called": 7311,
      "eff": 7312,
      "##imes": 7313,
      "##rap": 7314,
      "US": 7315,
      "##ull": 7316,
      "Con": 7317,
      "bel": 7318,
      "##els": 7319,
      "##ists": 7320,
      "resp": 7321,
      "pass": 7322,
      "##stem": 7323,
      "##ured": 7324,
      "For": 7325,
      "##ars": 7326,
      "fin": 7327,
      "##une": 7328,
      "##ially": 7329,
      "May": 7330,
      "##ution": 7331,
      "prev": 7332,
      "disc": 7333,
      "crit": 7334,
      "col": 7335,
      "##osed": 7336,
      "gener": 7337,
      "##ium": 7338,
      "direct": 7339,
      "sl": 7340,
      "along": 7341,
      "Car": 7342,
      "million": 7343,
      "Ger": 7344,
      "##ax": 7345,
      "British": 7346,
      "Tr": 7347,
      "offic": 7348,
      "group": 7349,
      "13": 7350,
      "fam": 7351,
      "##ession": 7352,
      "##ajor": 7353,
      "these": 7354,
      "mod": 7355,
      "imp": 7356,
      "may": 7357,
      "##und": 7358,
      "Ad": 7359,
      "open": 7360,
      "mil": 7361,
      "poin": 7362,
      "##ains": 7363,
      "land": 7364,
      "count": 7365,
      "sim": 7366,
      "hist": 7367,
      "##ments": 7368,
      "##ently": 7369,
      "Aug": 7370,
      "govern": 7371,
      "Sept": 7372,
      "success": 7373,
      "September": 7374,
      "August": 7375,
      "##amed": 7376,
      "##ues": 7377,
      "World": 7378,
      "States": 7379,
      "##ible": 7380,
      "oper": 7381,
      "down": 7382,
      "attack": 7383,
      "use": 7384,
      "same": 7385,
      "##wards": 7386,
      "describ": 7387,
      "All": 7388,
      "people": 7389,
      "batt": 7390,
      "##aced": 7391,
      "character": 7392,
      "because": 7393,
      "##yp": 7394,
      "serv": 7395,
      "##aining": 7396,
      "14": 7397,
      "##cept": 7398,
      "like": 7399,
      "##ired": 7400,
      "arr": 7401,
      "Ju": 7402,
      "##ven": 7403,
      "Is": 7404,
      "##ended": 7405,
      "Col": 7406,
      "Pl": 7407,
      "##ner": 7408,
      "around": 7409,
      "dep": 7410,
      "though": 7411,
      "##aving": 7412,
      "195": 7413,
      "win": 7414,
      "gu": 7415,
      "km": 7416,
      "const": 7417,
      "took": 7418,
      "occ": 7419,
      "##erv": 7420,
      "##ting": 7421,
      "Austral": 7422,
      "Oct": 7423,
      "##por": 7424,
      "German": 7425,
      "ann": 7426,
      "Gr": 7427,
      "##ruct": 7428,
      "id": 7429,
      "Nov": 7430,
      "wee": 7431,
      "##ove": 7432,
      "following": 7433,
      "six": 7434,
      "north": 7435,
      "193": 7436,
      "However": 7437,
      "system": 7438,
      "Pro": 7439,
      "##uss": 7440,
      "##gg": 7441,
      "adv": 7442,
      "final": 7443,
      "class": 7444,
      "received": 7445,
      "October": 7446,
      "##ects": 7447,
      "head": 7448,
      "##ives": 7449,
      "prom": 7450,
      "consid": 7451,
      "##ility": 7452,
      "complet": 7453,
      "##ically": 7454,
      "support": 7455,
      "Dec": 7456,
      "191": 7457,
      "ever": 7458,
      "state": 7459,
      "##ink": 7460,
      "each": 7461,
      "##ison": 7462,
      "##res": 7463,
      "##ret": 7464,
      "##raft": 7465,
      "five": 7466,
      "aut": 7467,
      "build": 7468,
      "York": 7469,
      "century": 7470,
      "var": 7471,
      "will": 7472,
      "area": 7473,
      "They": 7474,
      "##ina": 7475,
      "##ately": 7476,
      "##ox": 7477,
      "small": 7478,
      "##oss": 7479,
      "partic": 7480,
      "North": 7481,
      "##iving": 7482,
      "##ored": 7483,
      "start": 7484,
      "By": 7485,
      "##ject": 7486,
      "June": 7487,
      "##ians": 7488,
      "##ording": 7489,
      "Chr": 7490,
      "life": 7491,
      "mar": 7492,
      "Har": 7493,
      "Jan": 7494,
      "##inc": 7495,
      "city": 7496,
      "##sc": 7497,
      "##ene": 7498,
      "contro": 7499,
      "major": 7500,
      "King": 7501,
      "public": 7502,
      "July": 7503,
      "##ission": 7504,
      "band": 7505,
      "vers": 7506,
      "November": 7507,
      "coll": 7508,
      "##med": 7509,
      "##omet": 7510,
      "Can": 7511,
      "##urch": 7512,
      "Comm": 7513,
      "##ble": 7514,
      "Will": 7515,
      "##cl": 7516,
      "##ute": 7517,
      "ent": 7518,
      "world": 7519,
      "med": 7520,
      "since": 7521,
      "##ean": 7522,
      "single": 7523,
      "Apr": 7524,
      "rest": 7525,
      "##oard": 7526,
      "April": 7527,
      "Mc": 7528,
      "det": 7529,
      "##lish": 7530,
      "fe": 7531,
      "March": 7532,
      "##uary": 7533,
      "just": 7534,
      "result": 7535,
      "red": 7536,
      "##enc": 7537,
      "##ural": 7538,
      "##hest": 7539,
      "Ed": 7540,
      "##ried": 7541,
      "##aim": 7542,
      "##gin": 7543,
      "##ively": 7544,
      "differ": 7545,
      "hel": 7546,
      "30": 7547,
      "allow": 7548,
      "##ilt": 7549,
      "##ants": 7550,
      "Or": 7551,
      "turn": 7552,
      "##ext": 7553,
      "last": 7554,
      "##idge": 7555,
      "left": 7556,
      "##ague": 7557,
      "##get": 7558,
      "large": 7559,
      "line": 7560,
      "##ales": 7561,
      "South": 7562,
      "south": 7563,
      "Bro": 7564,
      "Ge": 7565,
      "During": 7566,
      "##ified": 7567,
      "##ke": 7568,
      "book": 7569,
      "school": 7570,
      "##avy": 7571,
      "25": 7572,
      "December": 7573,
      "third": 7574,
      "Ph": 7575,
      "incre": 7576,
      "##par": 7577,
      "month": 7578,
      "##ined": 7579,
      "due": 7580,
      "appro": 7581,
      "Re": 7582,
      "played": 7583,
      "much": 7584,
      "event": 7585,
      "if": 7586,
      "##rote": 7587,
      "another": 7588,
      "care": 7589,
      "192": 7590,
      "##ention": 7591,
      "January": 7592,
      "included": 7593,
      "##ench": 7594,
      "what": 7595,
      "##by": 7596,
      "##ograp": 7597,
      "based": 7598,
      "place": 7599,
      "II": 7600,
      "##aged": 7601,
      "##ient": 7602,
      "##ony": 7603,
      "##ped": 7604,
      "ph": 7605,
      "Eu": 7606,
      "expl": 7607,
      "government": 7608,
      "##side": 7609,
      "person": 7610,
      "##ling": 7611,
      "wrote": 7612,
      "Fl": 7613,
      "When": 7614,
      "track": 7615,
      "cr": 7616,
      "##apan": 7617,
      "camp": 7618,
      "tit": 7619,
      "old": 7620,
      "bre": 7621,
      "##alf": 7622,
      "##ott": 7623,
      "name": 7624,
      "##ages": 7625,
      "death": 7626,
      "prot": 7627,
      "report": 7628,
      "short": 7629,
      "##ience": 7630,
      "Japan": 7631,
      "won": 7632,
      "child": 7633,
      "larg": 7634,
      "kill": 7635,
      "story": 7636,
      "##ideo": 7637,
      "power": 7638,
      "##ody": 7639,
      "##oman": 7640,
      "review": 7641,
      "vis": 7642,
      "##ital": 7643,
      "home": 7644,
      "conv": 7645,
      "##ats": 7646,
      "led": 7647,
      "Be": 7648,
      "##ps": 7649,
      "described": 7650,
      "requ": 7651,
      "previous": 7652,
      "##ides": 7653,
      "cour": 7654,
      "family": 7655,
      "gun": 7656,
      "El": 7657,
      "progr": 7658,
      "De": 7659,
      "##tain": 7660,
      "way": 7661,
      "eng": 7662,
      "##urr": 7663,
      "named": 7664,
      "##urther": 7665,
      "Mus": 7666,
      "now": 7667,
      "dem": 7668,
      "##ister": 7669,
      "del": 7670,
      "Gu": 7671,
      "rep": 7672,
      "##iven": 7673,
      "##ilar": 7674,
      "men": 7675,
      "even": 7676,
      "make": 7677,
      "##omin": 7678,
      "##embers": 7679,
      "##reen": 7680,
      "##ress": 7681,
      "port": 7682,
      "##iod": 7683,
      "##iversity": 7684,
      "attem": 7685,
      "##oute": 7686,
      "##aff": 7687,
      "##ested": 7688,
      "100": 7689,
      "##ior": 7690,
      "##itions": 7691,
      "repl": 7692,
      "##ivision": 7693,
      "opp": 7694,
      "leg": 7695,
      "games": 7696,
      "##ached": 7697,
      "term": 7698,
      "command": 7699,
      "hand": 7700,
      "##ival": 7701,
      "poss": 7702,
      "And": 7703,
      "belie": 7704,
      "dam": 7705,
      "very": 7706,
      "##ren": 7707,
      "His": 7708,
      "##ne": 7709,
      "those": 7710,
      "best": 7711,
      "Par": 7712,
      "##ged": 7713,
      "Feb": 7714,
      "Europ": 7715,
      "##ract": 7716,
      "##mp": 7717,
      "ele": 7718,
      "Febru": 7719,
      "February": 7720,
      "iss": 7721,
      "organ": 7722,
      "still": 7723,
      "po": 7724,
      "top": 7725,
      "next": 7726,
      "species": 7727,
      "Christ": 7728,
      "sk": 7729,
      "##ences": 7730,
      "view": 7731,
      "##hor": 7732,
      "There": 7733,
      "##ances": 7734,
      "##aken": 7735,
      "National": 7736,
      "##akes": 7737,
      "##oci": 7738,
      "original": 7739,
      "ed": 7740,
      "Bar": 7741,
      "##oyal": 7742,
      "water": 7743,
      "addition": 7744,
      "join": 7745,
      "##ness": 7746,
      "Man": 7747,
      "infl": 7748,
      "list": 7749,
      "##ature": 7750,
      "##sh": 7751,
      "period": 7752,
      "within": 7753,
      "##rew": 7754,
      "Am": 7755,
      "##ented": 7756,
      "members": 7757,
      "mark": 7758,
      "ref": 7759,
      "deb": 7760,
      "held": 7761,
      "built": 7762,
      "French": 7763,
      "exper": 7764,
      "release": 7765,
      "##yl": 7766,
      "##ched": 7767,
      "##augh": 7768,
      "Char": 7769,
      "late": 7770,
      "although": 7771,
      "former": 7772,
      "##oon": 7773,
      "match": 7774,
      "great": 7775,
      "##ney": 7776,
      "dest": 7777,
      "sold": 7778,
      "2010": 7779,
      "##ech": 7780,
      "21": 7781,
      "conf": 7782,
      "##ared": 7783,
      "av": 7784,
      "video": 7785,
      "caus": 7786,
      "##ights": 7787,
      "storm": 7788,
      "West": 7789,
      "##af": 7790,
      "##omb": 7791,
      "init": 7792,
      "role": 7793,
      "##ropical": 7794,
      "tri": 7795,
      "William": 7796,
      "##ipp": 7797,
      "##hel": 7798,
      "##eal": 7799,
      "came": 7800,
      "estab": 7801,
      "tw": 7802,
      "days": 7803,
      "mid": 7804,
      "##ulation": 7805,
      "Her": 7806,
      "stand": 7807,
      "Air": 7808,
      "real": 7809,
      "polit": 7810,
      "##uted": 7811,
      "##ham": 7812,
      "##ple": 7813,
      "##ead": 7814,
      "my": 7815,
      "however": 7816,
      "Min": 7817,
      "##itary": 7818,
      "##aster": 7819,
      "2008": 7820,
      "24": 7821,
      "##ices": 7822,
      "prop": 7823,
      "##line": 7824,
      "2009": 7825,
      "##ased": 7826,
      "##atic": 7827,
      "few": 7828,
      "town": 7829,
      "wind": 7830,
      "Geor": 7831,
      "##ung": 7832,
      "side": 7833,
      "##ball": 7834,
      "continued": 7835,
      "often": 7836,
      "equ": 7837,
      "post": 7838,
      "Des": 7839,
      "Ear": 7840,
      "tel": 7841,
      "local": 7842,
      "##eter": 7843,
      "2011": 7844,
      "##ator": 7845,
      "repr": 7846,
      "among": 7847,
      "say": 7848,
      "similar": 7849,
      "##ruction": 7850,
      "Mich": 7851,
      "sw": 7852,
      "hum": 7853,
      "##omen": 7854,
      "claim": 7855,
      "##urs": 7856,
      "##estern": 7857,
      "No": 7858,
      "##alk": 7859,
      "##pite": 7860,
      "##elt": 7861,
      "England": 7862,
      "##ying": 7863,
      "##orts": 7864,
      "##gy": 7865,
      "##read": 7866,
      "##reet": 7867,
      "different": 7868,
      "further": 7869,
      "22": 7870,
      "##ense": 7871,
      "##ops": 7872,
      "Rec": 7873,
      "beh": 7874,
      "##ology": 7875,
      "##ese": 7876,
      "typ": 7877,
      "sent": 7878,
      "Dav": 7879,
      "level": 7880,
      "fre": 7881,
      "##na": 7882,
      "considered": 7883,
      "take": 7884,
      "law": 7885,
      "One": 7886,
      "tot": 7887,
      "2007": 7888,
      "career": 7889,
      "##app": 7890,
      "week": 7891,
      "production": 7892,
      "Ex": 7893,
      "##press": 7894,
      "##lex": 7895,
      "ant": 7896,
      "cover": 7897,
      "##ards": 7898,
      "Park": 7899,
      "half": 7900,
      "##ler": 7901,
      "City": 7902,
      "having": 7903,
      "##ampions": 7904,
      "##ves": 7905,
      "##arm": 7906,
      "##con": 7907,
      "Acc": 7908,
      "Ang": 7909,
      "English": 7910,
      "##ea": 7911,
      "mag": 7912,
      "cor": 7913,
      "road": 7914,
      "east": 7915,
      "moved": 7916,
      "##ittle": 7917,
      "enter": 7918,
      "every": 7919,
      "without": 7920,
      "west": 7921,
      "Although": 7922,
      "##rodu": 7923,
      "Cal": 7924,
      "Cent": 7925,
      "plan": 7926,
      "player": 7927,
      "2012": 7928,
      "position": 7929,
      "become": 7930,
      "##ones": 7931,
      "history": 7932,
      "version": 7933,
      "##ford": 7934,
      "23": 7935,
      "##ondon": 7936,
      "see": 7937,
      "Count": 7938,
      "elect": 7939,
      "influ": 7940,
      "arm": 7941,
      "##ize": 7942,
      "London": 7943,
      "house": 7944,
      "star": 7945,
      "sound": 7946,
      "Su": 7947,
      "##yle": 7948,
      "commun": 7949,
      "Batt": 7950,
      "##ck": 7951,
      "club": 7952,
      "sugg": 7953,
      "##ests": 7954,
      "cast": 7955,
      "##atter": 7956,
      "strong": 7957,
      "invol": 7958,
      "Sw": 7959,
      "##self": 7960,
      "##uck": 7961,
      "##eder": 7962,
      "written": 7963,
      "attempt": 7964,
      "tem": 7965,
      "190": 7966,
      "With": 7967,
      "You": 7968,
      "stat": 7969,
      "less": 7970,
      "##etter": 7971,
      "announ": 7972,
      "##me": 7973,
      "River": 7974,
      "##ai": 7975,
      "foot": 7976,
      "##ington": 7977,
      "##iqu": 7978,
      "##irc": 7979,
      "##ising": 7980,
      "order": 7981,
      "##ript": 7982,
      "refer": 7983,
      "##ape": 7984,
      "##isc": 7985,
      "##iety": 7986,
      "##ald": 7987,
      "##craft": 7988,
      "Canad": 7989,
      "aff": 7990,
      "prof": 7991,
      "point": 7992,
      "##sequ": 7993,
      "produc": 7994,
      "given": 7995,
      "rad": 7996,
      "low": 7997,
      "trad": 7998,
      "##int": 7999,
      "hig": 8000,
      "##aul": 8001,
      "want": 8002,
      "Gener": 8003,
      "University": 8004,
      "gave": 8005,
      "Pol": 8006,
      "##iend": 8007,
      "pat": 8008,
      "never": 8009,
      "While": 8010,
      "##ailed": 8011,
      "chang": 8012,
      "##ories": 8013,
      "returned": 8014,
      "soc": 8015,
      "##ration": 8016,
      "Dr": 8017,
      "##aly": 8018,
      "##ett": 8019,
      "comb": 8020,
      "repres": 8021,
      "##urric": 8022,
      "vict": 8023,
      "total": 8024,
      "##ches": 8025,
      "fact": 8026,
      "##ots": 8027,
      "High": 8028,
      "good": 8029,
      "##roy": 8030,
      "En": 8031,
      "##aun": 8032,
      "control": 8033,
      "##amb": 8034,
      "company": 8035,
      "country": 8036,
      "went": 8037,
      "capt": 8038,
      "friend": 8039,
      "##ours": 8040,
      "fire": 8041,
      "import": 8042,
      "##ges": 8043,
      "published": 8044,
      "##evision": 8045,
      "Ab": 8046,
      "Sm": 8047,
      "produced": 8048,
      "##ably": 8049,
      "find": 8050,
      "sol": 8051,
      "reported": 8052,
      "origin": 8053,
      "young": 8054,
      "2006": 8055,
      "lost": 8056,
      "stated": 8057,
      "##aign": 8058,
      "common": 8059,
      "program": 8060,
      "particular": 8061,
      "ord": 8062,
      "Co": 8063,
      "##echn": 8064,
      "Sy": 8065,
      "##aur": 8066,
      "adm": 8067,
      "##ency": 8068,
      "include": 8069,
      "According": 8070,
      "##oom": 8071,
      "##hing": 8072,
      "##aised": 8073,
      "compet": 8074,
      "recorded": 8075,
      "##eth": 8076,
      "##iter": 8077,
      "##ief": 8078,
      "##ama": 8079,
      "building": 8080,
      "press": 8081,
      "##vers": 8082,
      "27": 8083,
      "need": 8084,
      "bus": 8085,
      "forces": 8086,
      "28": 8087,
      "##raw": 8088,
      "##cess": 8089,
      "nort": 8090,
      "ships": 8091,
      "should": 8092,
      "50": 8093,
      "using": 8094,
      "##used": 8095,
      "eight": 8096,
      "gl": 8097,
      "performance": 8098,
      "##iment": 8099,
      "##iness": 8100,
      "popular": 8101,
      "service": 8102,
      "##ength": 8103,
      "father": 8104,
      "##ploy": 8105,
      "These": 8106,
      "times": 8107,
      "##ef": 8108,
      "making": 8109,
      "##ned": 8110,
      "ten": 8111,
      "aircraft": 8112,
      "himself": 8113,
      "fun": 8114,
      "##osp": 8115,
      "2013": 8116,
      "author": 8117,
      "##atch": 8118,
      "military": 8119,
      "##lear": 8120,
      "Australia": 8121,
      "right": 8122,
      "Sec": 8123,
      "##earch": 8124,
      "anim": 8125,
      "Ass": 8126,
      "##let": 8127,
      "##ampionship": 8128,
      "Jack": 8129,
      "lim": 8130,
      "##ae": 8131,
      "songs": 8132,
      "somet": 8133,
      "read": 8134,
      "##outher": 8135,
      "##ither": 8136,
      "Pres": 8137,
      "##play": 8138,
      "critic": 8139,
      "##ensive": 8140,
      "##ords": 8141,
      "surv": 8142,
      "development": 8143,
      "##ional": 8144,
      "26": 8145,
      "how": 8146,
      "Af": 8147,
      "General": 8148,
      "Cor": 8149,
      "40": 8150,
      "##itive": 8151,
      "inf": 8152,
      "##quad": 8153,
      "State": 8154,
      "cross": 8155,
      "##outhern": 8156,
      "James": 8157,
      "189": 8158,
      "ground": 8159,
      "##acy": 8160,
      "ins": 8161,
      "ft": 8162,
      "light": 8163,
      "Gl": 8164,
      "remained": 8165,
      "##astern": 8166,
      "characters": 8167,
      "Army": 8168,
      "national": 8169,
      "months": 8170,
      "suff": 8171,
      "present": 8172,
      "get": 8173,
      "gen": 8174,
      "ne": 8175,
      "died": 8176,
      "##oo": 8177,
      "##ries": 8178,
      "ter": 8179,
      "##ublic": 8180,
      "developed": 8181,
      "title": 8182,
      "sum": 8183,
      "bar": 8184,
      "##fic": 8185,
      "##ille": 8186,
      "##ument": 8187,
      "campaign": 8188,
      "##ream": 8189,
      "##urricane": 8190,
      "##ering": 8191,
      "force": 8192,
      "##utes": 8193,
      "League": 8194,
      "##ael": 8195,
      "##alt": 8196,
      "children": 8197,
      "field": 8198,
      "introdu": 8199,
      "trav": 8200,
      "tour": 8201,
      "##itted": 8202,
      "##isted": 8203,
      "##field": 8204,
      "son": 8205,
      "##lands": 8206,
      "signific": 8207,
      "##eep": 8208,
      "across": 8209,
      "Mor": 8210,
      "away": 8211,
      "##hern": 8212,
      "relations": 8213,
      "Reg": 8214,
      "##dom": 8215,
      "histor": 8216,
      "##yn": 8217,
      "official": 8218,
      "Division": 8219,
      "We": 8220,
      "fav": 8221,
      "felt": 8222,
      "effect": 8223,
      "America": 8224,
      "##ope": 8225,
      "Comp": 8226,
      "##lege": 8227,
      "Sim": 8228,
      "noted": 8229,
      "fac": 8230,
      "##rick": 8231,
      "announced": 8232,
      "reached": 8233,
      "Russ": 8234,
      "intern": 8235,
      "promot": 8236,
      "Mad": 8237,
      "che": 8238,
      "created": 8239,
      "County": 8240,
      "areas": 8241,
      "destroy": 8242,
      "battle": 8243,
      "##ows": 8244,
      "television": 8245,
      "2005": 8246,
      "Road": 8247,
      "Japanese": 8248,
      "Em": 8249,
      "sit": 8250,
      "station": 8251,
      "successful": 8252,
      "rock": 8253,
      "29": 8254,
      "##imately": 8255,
      "val": 8256,
      "super": 8257,
      "various": 8258,
      "political": 8259,
      "Street": 8260,
      "seen": 8261,
      "followed": 8262,
      "##ements": 8263,
      "##iber": 8264,
      "##duc": 8265,
      "Mon": 8266,
      "##iting": 8267,
      "too": 8268,
      "enc": 8269,
      "rank": 8270,
      "aver": 8271,
      "performed": 8272,
      "front": 8273,
      "Rober": 8274,
      "cult": 8275,
      "##ization": 8276,
      "East": 8277,
      "##most": 8278,
      "served": 8279,
      "2014": 8280,
      "players": 8281,
      "George": 8282,
      "cond": 8283,
      "full": 8284,
      "##reg": 8285,
      "prim": 8286,
      "decl": 8287,
      "##elling": 8288,
      "black": 8289,
      "##ination": 8290,
      "begin": 8291,
      "put": 8292,
      "Ser": 8293,
      "earl": 8294,
      "obs": 8295,
      "##olution": 8296,
      "Per": 8297,
      "##abor": 8298,
      "##ays": 8299,
      "cost": 8300,
      "##idence": 8301,
      "Phil": 8302,
      "Hen": 8303,
      "style": 8304,
      "non": 8305,
      "bo": 8306,
      "cy": 8307,
      "div": 8308,
      "look": 8309,
      "circ": 8310,
      "vol": 8311,
      "seven": 8312,
      "aud": 8313,
      "##ana": 8314,
      "killed": 8315,
      "sel": 8316,
      "help": 8317,
      "##lished": 8318,
      "night": 8319,
      "Bill": 8320,
      "throughout": 8321,
      "coun": 8322,
      "taken": 8323,
      "##urg": 8324,
      "tropical": 8325,
      "able": 8326,
      "##enth": 8327,
      "agre": 8328,
      "##ecut": 8329,
      "little": 8330,
      "becom": 8331,
      "fem": 8332,
      "age": 8333,
      "significant": 8334,
      "meet": 8335,
      "Sch": 8336,
      "Thom": 8337,
      "ident": 8338,
      "##irl": 8339,
      "##ways": 8340,
      "techn": 8341,
      "special": 8342,
      "cop": 8343,
      "##ius": 8344,
      "##oice": 8345,
      "writing": 8346,
      "struct": 8347,
      "##leet": 8348,
      "thought": 8349,
      "established": 8350,
      "broad": 8351,
      "body": 8352,
      "##enced": 8353,
      "mm": 8354,
      "David": 8355,
      "##aval": 8356,
      "appeared": 8357,
      "process": 8358,
      "does": 8359,
      "ball": 8360,
      "entire": 8361,
      "Australian": 8362,
      "##epend": 8363,
      "##rict": 8364,
      "points": 8365,
      "miles": 8366,
      "award": 8367,
      "##ought": 8368,
      "impro": 8369,
      "Rich": 8370,
      "route": 8371,
      "member": 8372,
      "##odes": 8373,
      "Med": 8374,
      "##ask": 8375,
      "tro": 8376,
      "##umb": 8377,
      "women": 8378,
      "activ": 8379,
      "range": 8380,
      "##blem": 8381,
      "##ivil": 8382,
      "Qu": 8383,
      "caused": 8384,
      "##hys": 8385,
      "##iers": 8386,
      "started": 8387,
      "decided": 8388,
      "features": 8389,
      "general": 8390,
      "My": 8391,
      "Afric": 8392,
      "##day": 8393,
      "pain": 8394,
      "Part": 8395,
      "##aves": 8396,
      "##idd": 8397,
      "eventually": 8398,
      "##ators": 8399,
      "##ament": 8400,
      "##iec": 8401,
      "##cil": 8402,
      "##conom": 8403,
      "##ground": 8404,
      "##cent": 8405,
      "##ogn": 8406,
      "##eated": 8407,
      "Royal": 8408,
      "arch": 8409,
      "race": 8410,
      "##emy": 8411,
      "##itar": 8412,
      "coast": 8413,
      "Act": 8414,
      "To": 8415,
      "grow": 8416,
      "##here": 8417,
      "manag": 8418,
      "feet": 8419,
      "ve": 8420,
      "Hist": 8421,
      "##board": 8422,
      "toget": 8423,
      "together": 8424,
      "added": 8425,
      "House": 8426,
      "tre": 8427,
      "##alth": 8428,
      "cut": 8429,
      "##bert": 8430,
      "hold": 8431,
      "nov": 8432,
      "188": 8433,
      "##ivid": 8434,
      "##arr": 8435,
      "31": 8436,
      "white": 8437,
      "once": 8438,
      "##ample": 8439,
      "arg": 8440,
      "formed": 8441,
      "##men": 8442,
      "located": 8443,
      "stri": 8444,
      "##reek": 8445,
      "conn": 8446,
      "modern": 8447,
      "curr": 8448,
      "Black": 8449,
      "##ades": 8450,
      "##off": 8451,
      "instead": 8452,
      "##ush": 8453,
      "spe": 8454,
      "##head": 8455,
      "fight": 8456,
      "##rought": 8457,
      "##omm": 8458,
      "cert": 8459,
      "##aces": 8460,
      "round": 8461,
      "esc": 8462,
      "Hol": 8463,
      "mix": 8464,
      "##hic": 8465,
      "Intern": 8466,
      "Rep": 8467,
      "important": 8468,
      "pri": 8469,
      "##uk": 8470,
      "crew": 8471,
      "saw": 8472,
      "##less": 8473,
      "##ani": 8474,
      "action": 8475,
      "completed": 8476,
      "##eam": 8477,
      "playing": 8478,
      "Cr": 8479,
      "Indian": 8480,
      "##ells": 8481,
      "Other": 8482,
      "##ara": 8483,
      "##ata": 8484,
      "2004": 8485,
      "hon": 8486,
      "##ring": 8487,
      "inj": 8488,
      "insp": 8489,
      "##pression": 8490,
      "mater": 8491,
      "population": 8492,
      "mot": 8493,
      "Michael": 8494,
      "voc": 8495,
      "ask": 8496,
      "rather": 8497,
      "opened": 8498,
      "stage": 8499,
      "##aps": 8500,
      "behind": 8501,
      "others": 8502,
      "186": 8503,
      "fall": 8504,
      "cas": 8505,
      "guns": 8506,
      "##ceed": 8507,
      "brother": 8508,
      "##ger": 8509,
      "##igned": 8510,
      "comment": 8511,
      "lik": 8512,
      "##wood": 8513,
      "born": 8514,
      "##stit": 8515,
      "##lin": 8516,
      "fif": 8517,
      "2015": 8518,
      "site": 8519,
      "live": 8520,
      "works": 8521,
      "##rated": 8522,
      "bomb": 8523,
      "loss": 8524,
      "France": 8525,
      "worked": 8526,
      "##ficult": 8527,
      "heavy": 8528,
      "hit": 8529,
      "miss": 8530,
      "pred": 8531,
      "School": 8532,
      "qual": 8533,
      "##ster": 8534,
      "discover": 8535,
      "subsequ": 8536,
      "lack": 8537,
      "party": 8538,
      "problem": 8539,
      "##medi": 8540,
      "difficult": 8541,
      "close": 8542,
      "Nor": 8543,
      "##iol": 8544,
      "Wash": 8545,
      "construction": 8546,
      "Some": 8547,
      "##ending": 8548,
      "##anch": 8549,
      "relationship": 8550,
      "##istic": 8551,
      "host": 8552,
      "weeks": 8553,
      "project": 8554,
      "far": 8555,
      "originally": 8556,
      "separ": 8557,
      "##ky": 8558,
      "reb": 8559,
      "associ": 8560,
      "upon": 8561,
      "pract": 8562,
      "Fir": 8563,
      "##ica": 8564,
      "Henry": 8565,
      "##uel": 8566,
      "leading": 8567,
      "appoin": 8568,
      "vill": 8569,
      "almost": 8570,
      "San": 8571,
      "mer": 8572,
      "Port": 8573,
      "Robert": 8574,
      "##duct": 8575,
      "peak": 8576,
      "damage": 8577,
      "##ming": 8578,
      "Europe": 8579,
      "scored": 8580,
      "chart": 8581,
      "fourth": 8582,
      "##osition": 8583,
      "inform": 8584,
      "sett": 8585,
      "provided": 8586,
      "##ividual": 8587,
      "reve": 8588,
      "Vir": 8589,
      "##yr": 8590,
      "Best": 8591,
      "case": 8592,
      "clos": 8593,
      "Music": 8594,
      "interv": 8595,
      "engine": 8596,
      "creat": 8597,
      "Red": 8598,
      "500": 8599,
      "dev": 8600,
      "mi": 8601,
      "invest": 8602,
      "Paul": 8603,
      "scene": 8604,
      "##oring": 8605,
      "human": 8606,
      "##angu": 8607,
      "##ological": 8608,
      "brought": 8609,
      "##ino": 8610,
      "free": 8611,
      "187": 8612,
      "fell": 8613,
      "Battle": 8614,
      "mother": 8615,
      "featured": 8616,
      "vot": 8617,
      "Ag": 8618,
      "##ential": 8619,
      "President": 8620,
      "king": 8621,
      "##ula": 8622,
      "least": 8623,
      "working": 8624,
      "allowed": 8625,
      "laun": 8626,
      "##ened": 8627,
      "##aut": 8628,
      "##lement": 8629,
      "average": 8630,
      "Cap": 8631,
      "mult": 8632,
      "towards": 8633,
      "wanted": 8634,
      "Cour": 8635,
      "indust": 8636,
      "Mil": 8637,
      "##unk": 8638,
      "tradition": 8639,
      "region": 8640,
      "business": 8641,
      "Washington": 8642,
      "Que": 8643,
      "##azine": 8644,
      "quick": 8645,
      "troops": 8646,
      "placed": 8647,
      "either": 8648,
      "##ids": 8649,
      "redu": 8650,
      "respect": 8651,
      "Res": 8652,
      "office": 8653,
      "critics": 8654,
      "Play": 8655,
      "avail": 8656,
      "##cast": 8657,
      "Bel": 8658,
      "##antic": 8659,
      "reach": 8660,
      "example": 8661,
      "material": 8662,
      "runs": 8663,
      "econom": 8664,
      "recogn": 8665,
      "##enes": 8666,
      "Angel": 8667,
      "sex": 8668,
      "wife": 8669,
      "sour": 8670,
      "##chie": 8671,
      "neg": 8672,
      "##rey": 8673,
      "estim": 8674,
      "army": 8675,
      "foc": 8676,
      "##ule": 8677,
      "##iction": 8678,
      "Hall": 8679,
      "Despite": 8680,
      "2003": 8681,
      "Rev": 8682,
      "Pe": 8683,
      "interest": 8684,
      "Follow": 8685,
      "##urb": 8686,
      "generally": 8687,
      "mass": 8688,
      "Hill": 8689,
      "joined": 8690,
      "dou": 8691,
      "rail": 8692,
      "##quadron": 8693,
      "proper": 8694,
      "35": 8695,
      "accept": 8696,
      "##omp": 8697,
      "bill": 8698,
      "individual": 8699,
      "##lt": 8700,
      "##iff": 8701,
      "Mal": 8702,
      "##ourn": 8703,
      "##iding": 8704,
      "##ena": 8705,
      "represent": 8706,
      "events": 8707,
      "believed": 8708,
      "Ham": 8709,
      "Game": 8710,
      "##itch": 8711,
      "particip": 8712,
      "Cup": 8713,
      "fig": 8714,
      "Following": 8715,
      "First": 8716,
      "Mary": 8717,
      "##inn": 8718,
      "wid": 8719,
      "Cro": 8720,
      "##spec": 8721,
      "##oor": 8722,
      "Don": 8723,
      "know": 8724,
      "victory": 8725,
      "replaced": 8726,
      "Great": 8727,
      "Lou": 8728,
      "##artment": 8729,
      "##emor": 8730,
      "designed": 8731,
      "mph": 8732,
      "rul": 8733,
      "mount": 8734,
      "soon": 8735,
      "nomin": 8736,
      "##asing": 8737,
      "island": 8738,
      "fund": 8739,
      "##erous": 8740,
      "exc": 8741,
      "##ving": 8742,
      "hours": 8743,
      "Two": 8744,
      "European": 8745,
      "employ": 8746,
      "president": 8747,
      "room": 8748,
      "##ification": 8749,
      "involved": 8750,
      "##aper": 8751,
      "ren": 8752,
      "surf": 8753,
      "finished": 8754,
      "##merc": 8755,
      "Ev": 8756,
      "stru": 8757,
      "Ant": 8758,
      "Championship": 8759,
      "##ki": 8760,
      "##inist": 8761,
      "##asion": 8762,
      "##fall": 8763,
      "Mart": 8764,
      "##west": 8765,
      "break": 8766,
      "dro": 8767,
      "##ico": 8768,
      "Star": 8769,
      "hor": 8770,
      "##ago": 8771,
      "saying": 8772,
      "Roman": 8773,
      "unc": 8774,
      "court": 8775,
      "shot": 8776,
      "threat": 8777,
      "##ander": 8778,
      "opening": 8779,
      "regular": 8780,
      "Ir": 8781,
      "##cher": 8782,
      "##icated": 8783,
      "Met": 8784,
      "##BC": 8785,
      "director": 8786,
      "Me": 8787,
      "length": 8788,
      "2000": 8789,
      "Mac": 8790,
      "ill": 8791,
      "Scott": 8792,
      "occur": 8793,
      "largest": 8794,
      "hom": 8795,
      "contrib": 8796,
      "possible": 8797,
      "##ecutive": 8798,
      "minutes": 8799,
      "highway": 8800,
      "Route": 8801,
      "southern": 8802,
      "##ishing": 8803,
      "Ber": 8804,
      "hy": 8805,
      "highest": 8806,
      "remov": 8807,
      "2001": 8808,
      "earlier": 8809,
      "Rock": 8810,
      "Atl": 8811,
      "Sl": 8812,
      "test": 8813,
      "initially": 8814,
      "Sing": 8815,
      "personal": 8816,
      "available": 8817,
      "particularly": 8818,
      "percent": 8819,
      "hard": 8820,
      "##antry": 8821,
      "##anned": 8822,
      "##to": 8823,
      "sequ": 8824,
      "training": 8825,
      "Republic": 8826,
      "##for": 8827,
      "forced": 8828,
      "must": 8829,
      "exist": 8830,
      "Wil": 8831,
      "Mag": 8832,
      "grad": 8833,
      "##hib": 8834,
      "Val": 8835,
      "conduct": 8836,
      "##co": 8837,
      "##pts": 8838,
      "Kingdom": 8839,
      "Charles": 8840,
      "Navy": 8841,
      "##ography": 8842,
      "##uit": 8843,
      "park": 8844,
      "wall": 8845,
      "##uff": 8846,
      "##ems": 8847,
      "##ateg": 8848,
      "From": 8849,
      "quar": 8850,
      "##anish": 8851,
      "respons": 8852,
      "ended": 8853,
      "##go": 8854,
      "##rian": 8855,
      "McC": 8856,
      "Bo": 8857,
      "Off": 8858,
      "##now": 8859,
      "Thomas": 8860,
      "##ises": 8861,
      "turned": 8862,
      "social": 8863,
      "International": 8864,
      "##ayed": 8865,
      "##rupt": 8866,
      "##mb": 8867,
      "##uture": 8868,
      "But": 8869,
      "##ios": 8870,
      "studio": 8871,
      "##rest": 8872,
      "goal": 8873,
      "Pal": 8874,
      "Ac": 8875,
      "##iforn": 8876,
      "contract": 8877,
      "change": 8878,
      "langu": 8879,
      "##ocr": 8880,
      "Virgin": 8881,
      "praised": 8882,
      "passed": 8883,
      "priv": 8884,
      "##atural": 8885,
      "piec": 8886,
      "increased": 8887,
      "Brown": 8888,
      "educ": 8889,
      "hurricane": 8890,
      "regard": 8891,
      "##ze": 8892,
      "northern": 8893,
      "##ude": 8894,
      "##iation": 8895,
      "##heast": 8896,
      "##asy": 8897,
      "2002": 8898,
      "phys": 8899,
      "White": 8900,
      "central": 8901,
      "novel": 8902,
      "##itor": 8903,
      "Church": 8904,
      "##bor": 8905,
      "relig": 8906,
      "Sen": 8907,
      "Canada": 8908,
      "speed": 8909,
      "appearance": 8910,
      "Californ": 8911,
      "units": 8912,
      "##ership": 8913,
      "past": 8914,
      "##anks": 8915,
      "Bay": 8916,
      "##rem": 8917,
      "##ections": 8918,
      "stop": 8919,
      "church": 8920,
      "immedi": 8921,
      "##ston": 8922,
      "##sel": 8923,
      "##ship": 8924,
      "Smith": 8925,
      "disp": 8926,
      "##ctor": 8927,
      "meas": 8928,
      "##aker": 8929,
      "ordered": 8930,
      "##aughter": 8931,
      "##ville": 8932,
      "##ilities": 8933,
      "treat": 8934,
      "prob": 8935,
      "taking": 8936,
      "Sam": 8937,
      "##ference": 8938,
      "Richard": 8939,
      "##apt": 8940,
      "##ittee": 8941,
      "independ": 8942,
      "Alex": 8943,
      "##eption": 8944,
      "love": 8945,
      "signed": 8946,
      "##anding": 8947,
      "move": 8948,
      "##den": 8949,
      "##agon": 8950,
      "##oul": 8951,
      "##ique": 8952,
      "California": 8953,
      "achie": 8954,
      "##oph": 8955,
      "Mer": 8956,
      "##etwork": 8957,
      "better": 8958,
      "##pped": 8959,
      "pers": 8960,
      "Union": 8961,
      "##itz": 8962,
      "Mill": 8963,
      "##pper": 8964,
      "God": 8965,
      "lear": 8966,
      "Govern": 8967,
      "##ecess": 8968,
      "##arily": 8969,
      "winds": 8970,
      "Island": 8971,
      "commerc": 8972,
      "Flor": 8973,
      "enough": 8974,
      "wat": 8975,
      "##hem": 8976,
      "positive": 8977,
      "##nel": 8978,
      "##ears": 8979,
      "Court": 8980,
      "inn": 8981,
      "according": 8982,
      "hous": 8983,
      "spent": 8984,
      "going": 8985,
      "pot": 8986,
      "Mo": 8987,
      "reveal": 8988,
      "above": 8989,
      "outside": 8990,
      "##ida": 8991,
      "##essional": 8992,
      "films": 8993,
      "defeat": 8994,
      "Vict": 8995,
      "feel": 8996,
      "Cong": 8997,
      "clear": 8998,
      "45": 8999,
      "##uter": 9000,
      "told": 9001,
      "football": 9002,
      "Award": 9003,
      "ap": 9004,
      "previously": 9005,
      "##uation": 9006,
      "states": 9007,
      "quest": 9008,
      "recording": 9009,
      "##elled": 9010,
      "pur": 9011,
      "mean": 9012,
      "##berg": 9013,
      "Associ": 9014,
      "Art": 9015,
      "nine": 9016,
      "##mar": 9017,
      "##ume": 9018,
      "##het": 9019,
      "##usion": 9020,
      "failed": 9021,
      "##ands": 9022,
      "##atin": 9023,
      "assist": 9024,
      "contr": 9025,
      "come": 9026,
      "Ne": 9027,
      "Company": 9028,
      "required": 9029,
      "##osing": 9030,
      "elements": 9031,
      "ey": 9032,
      "##quare": 9033,
      "##isl": 9034,
      "viol": 9035,
      "cru": 9036,
      "Stud": 9037,
      "India": 9038,
      "Mark": 9039,
      "Germany": 9040,
      "lower": 9041,
      "##alion": 9042,
      "Mount": 9043,
      "reviews": 9044,
      "interview": 9045,
      "phot": 9046,
      "parts": 9047,
      "Tom": 9048,
      "Peter": 9049,
      "Gold": 9050,
      "pay": 9051,
      "itself": 9052,
      "Christian": 9053,
      "##eck": 9054,
      "sil": 9055,
      "directed": 9056,
      "base": 9057,
      "60": 9058,
      "express": 9059,
      "ur": 9060,
      "##ibility": 9061,
      "despite": 9062,
      "cred": 9063,
      "185": 9064,
      "NY": 9065,
      "That": 9066,
      "rain": 9067,
      "debut": 9068,
      "abs": 9069,
      "Times": 9070,
      "Pat": 9071,
      "##oke": 9072,
      "##erved": 9073,
      "##ready": 9074,
      "##jects": 9075,
      "Up": 9076,
      "##aint": 9077,
      "Cast": 9078,
      "keep": 9079,
      "beginning": 9080,
      "##ams": 9081,
      "##ability": 9082,
      "##ris": 9083,
      "groups": 9084,
      "College": 9085,
      "##nes": 9086,
      "##amer": 9087,
      "cycl": 9088,
      "##onna": 9089,
      "Sov": 9090,
      "section": 9091,
      "UK": 9092,
      "##oid": 9093,
      "##hester": 9094,
      "poor": 9095,
      "whose": 9096,
      "##airs": 9097,
      "##ma": 9098,
      "claimed": 9099,
      "ly": 9100,
      "rap": 9101,
      "Western": 9102,
      "international": 9103,
      "cou": 9104,
      "Mex": 9105,
      "asked": 9106,
      "lines": 9107,
      "transfer": 9108,
      "Dem": 9109,
      "Soviet": 9110,
      "screen": 9111,
      "give": 9112,
      "##onse": 9113,
      "##rief": 9114,
      "##ania": 9115,
      "Frank": 9116,
      "key": 9117,
      "32": 9118,
      "additional": 9119,
      "Film": 9120,
      "future": 9121,
      "league": 9122,
      "bi": 9123,
      "whom": 9124,
      "##edy": 9125,
      "Hot": 9126,
      "beg": 9127,
      "op": 9128,
      "fort": 9129,
      "La": 9130,
      "gold": 9131,
      "##igan": 9132,
      "Awards": 9133,
      "##oles": 9134,
      "Grand": 9135,
      "introduced": 9136,
      "travel": 9137,
      "don": 9138,
      "##ully": 9139,
      "evidence": 9140,
      "##val": 9141,
      "prem": 9142,
      "##gar": 9143,
      "##ites": 9144,
      "##urt": 9145,
      "idea": 9146,
      "quickly": 9147,
      "##vir": 9148,
      "sea": 9149,
      "emb": 9150,
      "##onst": 9151,
      "##ump": 9152,
      "Im": 9153,
      "##atory": 9154,
      "already": 9155,
      "Soc": 9156,
      "center": 9157,
      "Mont": 9158,
      "cal": 9159,
      "bridge": 9160,
      "frequ": 9161,
      "Day": 9162,
      "Force": 9163,
      "##usp": 9164,
      "Most": 9165,
      "##unt": 9166,
      "election": 9167,
      "occup": 9168,
      "pil": 9169,
      "except": 9170,
      "Coun": 9171,
      "##eum": 9172,
      "deal": 9173,
      "##ores": 9174,
      "##anded": 9175,
      "bur": 9176,
      "usually": 9177,
      "musical": 9178,
      "##specially": 9179,
      "western": 9180,
      "arrived": 9181,
      "Rob": 9182,
      "block": 9183,
      "##back": 9184,
      "score": 9185,
      "radio": 9186,
      "##ift": 9187,
      "##asons": 9188,
      "Britain": 9189,
      "civil": 9190,
      "##liam": 9191,
      "##aring": 9192,
      "appl": 9193,
      "##ults": 9194,
      "money": 9195,
      "female": 9196,
      "sometimes": 9197,
      "##lying": 9198,
      "study": 9199,
      "food": 9200,
      "response": 9201,
      "decision": 9202,
      "Pac": 9203,
      "magazine": 9204,
      "especially": 9205,
      "access": 9206,
      "issue": 9207,
      "Du": 9208,
      "Later": 9209,
      "prepar": 9210,
      "##liament": 9211,
      "Victor": 9212,
      "lab": 9213,
      "Franc": 9214,
      "surface": 9215,
      "liter": 9216,
      "flood": 9217,
      "might": 9218,
      "guitar": 9219,
      "carried": 9220,
      "shows": 9221,
      "community": 9222,
      "estimated": 9223,
      "##ective": 9224,
      "##tr": 9225,
      "Ben": 9226,
      "remain": 9227,
      "think": 9228,
      "Cont": 9229,
      "##aries": 9230,
      "1999": 9231,
      "remaining": 9232,
      "eastern": 9233,
      "minor": 9234,
      "36": 9235,
      "defeated": 9236,
      "determ": 9237,
      "Super": 9238,
      "##ha": 9239,
      "##gen": 9240,
      "Early": 9241,
      "Virginia": 9242,
      "approx": 9243,
      "larger": 9244,
      "becoming": 9245,
      "##ulf": 9246,
      "Over": 9247,
      "wood": 9248,
      "construct": 9249,
      "complete": 9250,
      "##ror": 9251,
      "slow": 9252,
      "##irth": 9253,
      "tar": 9254,
      "police": 9255,
      "suggested": 9256,
      "##porary": 9257,
      "media": 9258,
      "pressure": 9259,
      "entered": 9260,
      "Chic": 9261,
      "##erve": 9262,
      "Los": 9263,
      "teams": 9264,
      "##asc": 9265,
      "##han": 9266,
      "Just": 9267,
      "commercial": 9268,
      "pen": 9269,
      "doc": 9270,
      "##sy": 9271,
      "latter": 9272,
      "lyric": 9273,
      "##NA": 9274,
      "market": 9275,
      "consider": 9276,
      "students": 9277,
      "surround": 9278,
      "investig": 9279,
      "##inent": 9280,
      "brief": 9281,
      "##bs": 9282,
      "concern": 9283,
      "Second": 9284,
      "##irt": 9285,
      "##enty": 9286,
      "If": 9287,
      "prison": 9288,
      "acqu": 9289,
      "discuss": 9290,
      "Tex": 9291,
      "Jackson": 9292,
      "effects": 9293,
      "hop": 9294,
      "certain": 9295,
      "appointed": 9296,
      "##igg": 9297,
      "##alled": 9298,
      "der": 9299,
      "summer": 9300,
      "episodes": 9301,
      "prior": 9302,
      "##ederal": 9303,
      "##incip": 9304,
      "##acing": 9305,
      "sat": 9306,
      "##change": 9307,
      "emer": 9308,
      "staff": 9309,
      "Oly": 9310,
      "size": 9311,
      "##ecting": 9312,
      "Louis": 9313,
      "changes": 9314,
      "##ulated": 9315,
      "commission": 9316,
      "##ridge": 9317,
      "##imate": 9318,
      "winning": 9319,
      "limited": 9320,
      "scenes": 9321,
      "Olymp": 9322,
      "75": 9323,
      "river": 9324,
      "leaving": 9325,
      "destroyed": 9326,
      "fleet": 9327,
      "##ector": 9328,
      "draw": 9329,
      "##viron": 9330,
      "Club": 9331,
      "Dep": 9332,
      "den": 9333,
      "##iser": 9334,
      "board": 9335,
      "Spanish": 9336,
      "300": 9337,
      "##oes": 9338,
      "##iles": 9339,
      "##ties": 9340,
      "rights": 9341,
      "##ournal": 9342,
      "lo": 9343,
      "provide": 9344,
      "writer": 9345,
      "##igade": 9346,
      "Green": 9347,
      "polic": 9348,
      "##idents": 9349,
      "fail": 9350,
      "##II": 9351,
      "ste": 9352,
      "##ension": 9353,
      "date": 9354,
      "trib": 9355,
      "territ": 9356,
      "Stev": 9357,
      "girl": 9358,
      "proposed": 9359,
      "##eleb": 9360,
      "influence": 9361,
      "Party": 9362,
      "##ein": 9363,
      "184": 9364,
      "overall": 9365,
      "diss": 9366,
      "tax": 9367,
      "##inct": 9368,
      "arrang": 9369,
      "kil": 9370,
      "structure": 9371,
      "react": 9372,
      "Ter": 9373,
      "di": 9374,
      "division": 9375,
      "self": 9376,
      "##ication": 9377,
      "##inese": 9378,
      "Association": 9379,
      "##iral": 9380,
      "80": 9381,
      "##ronic": 9382,
      "anti": 9383,
      "agreed": 9384,
      "type": 9385,
      "intended": 9386,
      "jud": 9387,
      "##rd": 9388,
      "bow": 9389,
      "Edward": 9390,
      "running": 9391,
      "##ease": 9392,
      "Pri": 9393,
      "Chicago": 9394,
      "daughter": 9395,
      "wide": 9396,
      "Ital": 9397,
      "purch": 9398,
      "nearly": 9399,
      "supported": 9400,
      "Many": 9401,
      "deep": 9402,
      "##che": 9403,
      "##atives": 9404,
      "##AF": 9405,
      "Adm": 9406,
      "##tained": 9407,
      "research": 9408,
      "##omer": 9409,
      "##imum": 9410,
      "establish": 9411,
      "helped": 9412,
      "married": 9413,
      "1998": 9414,
      "movement": 9415,
      "Chinese": 9416,
      "awarded": 9417,
      "##aded": 9418,
      "multip": 9419,
      "Song": 9420,
      "lay": 9421,
      "Council": 9422,
      "Oper": 9423,
      "##ys": 9424,
      "##atively": 9425,
      "create": 9426,
      "favor": 9427,
      "##que": 9428,
      "intens": 9429,
      "Do": 9430,
      "##leg": 9431,
      "display": 9432,
      "bird": 9433,
      "Enter": 9434,
      "dark": 9435,
      "susp": 9436,
      "33": 9437,
      "tex": 9438,
      "##owers": 9439,
      "##ari": 9440,
      "Sal": 9441,
      "##dle": 9442,
      "stars": 9443,
      "longer": 9444,
      "Kn": 9445,
      "language": 9446,
      "##uing": 9447,
      "higher": 9448,
      "cat": 9449,
      "##icted": 9450,
      "planned": 9451,
      "compared": 9452,
      "captured": 9453,
      "Serv": 9454,
      "increasing": 9455,
      "fans": 9456,
      "conclud": 9457,
      "course": 9458,
      "changed": 9459,
      "Johnson": 9460,
      "Ot": 9461,
      "##ounds": 9462,
      "experience": 9463,
      "approximately": 9464,
      "related": 9465,
      "##ees": 9466,
      "##selves": 9467,
      "feature": 9468,
      "fifth": 9469,
      "living": 9470,
      "themselves": 9471,
      "done": 9472,
      "##abit": 9473,
      "History": 9474,
      "producer": 9475,
      "##oms": 9476,
      "tracks": 9477,
      "##ault": 9478,
      "##bers": 9479,
      "temper": 9480,
      "mostly": 9481,
      "Pacific": 9482,
      "##isions": 9483,
      "withd": 9484,
      "ens": 9485,
      "App": 9486,
      "Billboard": 9487,
      "Inter": 9488,
      "space": 9489,
      "Back": 9490,
      "imm": 9491,
      "##ij": 9492,
      "##olic": 9493,
      "##essed": 9494,
      "Not": 9495,
      "thus": 9496,
      "Kore": 9497,
      "woman": 9498,
      "dead": 9499,
      "##umn": 9500,
      "operations": 9501,
      "Inf": 9502,
      "remains": 9503,
      "bring": 9504,
      "quarter": 9505,
      "##thing": 9506,
      "##itting": 9507,
      "natural": 9508,
      "##oint": 9509,
      "our": 9510,
      "##imin": 9511,
      "whether": 9512,
      "opt": 9513,
      "ult": 9514,
      "let": 9515,
      "##can": 9516,
      "shoot": 9517,
      "current": 9518,
      "weap": 9519,
      "##bour": 9520,
      "Final": 9521,
      "##andon": 9522,
      "Scot": 9523,
      "37": 9524,
      "probably": 9525,
      "##ergy": 9526,
      "soldiers": 9527,
      "Under": 9528,
      "##raz": 9529,
      "##hers": 9530,
      "copies": 9531,
      "Sun": 9532,
      "##ny": 9533,
      "buildings": 9534,
      "leader": 9535,
      "voice": 9536,
      "1997": 9537,
      "boy": 9538,
      "face": 9539,
      "extended": 9540,
      "Since": 9541,
      "lyrics": 9542,
      "##rown": 9543,
      "portr": 9544,
      "forward": 9545,
      "##ibr": 9546,
      "complex": 9547,
      "##gn": 9548,
      "Str": 9549,
      "Atlantic": 9550,
      "battles": 9551,
      "issued": 9552,
      "chall": 9553,
      "##riage": 9554,
      "really": 9555,
      "countries": 9556,
      "heav": 9557,
      "##ospital": 9558,
      "##uth": 9559,
      "suffered": 9560,
      "transport": 9561,
      "Lake": 9562,
      "cm": 9563,
      "##iant": 9564,
      "goals": 9565,
      "Florida": 9566,
      "Fort": 9567,
      "includes": 9568,
      "attract": 9569,
      "Sever": 9570,
      "Love": 9571,
      "immediately": 9572,
      "deg": 9573,
      "Both": 9574,
      "cur": 9575,
      "##oe": 9576,
      "70": 9577,
      "##hood": 9578,
      "breed": 9579,
      "capital": 9580,
      "manager": 9581,
      "mixed": 9582,
      "private": 9583,
      "Jim": 9584,
      "cann": 9585,
      "Jew": 9586,
      "officers": 9587,
      "broadcast": 9588,
      "likely": 9589,
      "Old": 9590,
      "##etic": 9591,
      "distrib": 9592,
      "##hold": 9593,
      "##ili": 9594,
      "mach": 9595,
      "##vert": 9596,
      "Queen": 9597,
      "##rol": 9598,
      "00": 9599,
      "removed": 9600,
      "Texas": 9601,
      "plant": 9602,
      "##mpire": 9603,
      "celeb": 9604,
      "initial": 9605,
      "##bury": 9606,
      "increase": 9607,
      "script": 9608,
      "Sea": 9609,
      "Town": 9610,
      "health": 9611,
      "Mr": 9612,
      "subsequently": 9613,
      "Dist": 9614,
      "Tor": 9615,
      "leave": 9616,
      "plans": 9617,
      "Law": 9618,
      "always": 9619,
      "focus": 9620,
      "Ol": 9621,
      "coin": 9622,
      "network": 9623,
      "##ros": 9624,
      "##ria": 9625,
      "services": 9626,
      "via": 9627,
      "status": 9628,
      "compan": 9629,
      "Trans": 9630,
      "China": 9631,
      "visit": 9632,
      "location": 9633,
      "##rial": 9634,
      "##order": 9635,
      "Another": 9636,
      "##jected": 9637,
      "##rison": 9638,
      "##ette": 9639,
      "##ka": 9640,
      "flag": 9641,
      "problems": 9642,
      "Camp": 9643,
      "Lord": 9644,
      "depart": 9645,
      "##ograph": 9646,
      "How": 9647,
      "##ously": 9648,
      "uns": 9649,
      "Earth": 9650,
      "offered": 9651,
      "instr": 9652,
      "confl": 9653,
      "canc": 9654,
      "Gre": 9655,
      "model": 9656,
      "##aily": 9657,
      "##tainment": 9658,
      "norm": 9659,
      "terms": 9660,
      "Del": 9661,
      "Const": 9662,
      "colon": 9663,
      "approach": 9664,
      "mur": 9665,
      "something": 9666,
      "village": 9667,
      "Carol": 9668,
      "administ": 9669,
      "tons": 9670,
      "##burg": 9671,
      "carry": 9672,
      "Pet": 9673,
      "Boy": 9674,
      "Wood": 9675,
      "##ills": 9676,
      "tor": 9677,
      "tow": 9678,
      "majority": 9679,
      "##vironment": 9680,
      "183": 9681,
      "professional": 9682,
      "##orning": 9683,
      "counter": 9684,
      "Je": 9685,
      "##uf": 9686,
      "Canadian": 9687,
      "Its": 9688,
      "sch": 9689,
      "##adium": 9690,
      "Rail": 9691,
      "Big": 9692,
      "Step": 9693,
      "got": 9694,
      "Sir": 9695,
      "Africa": 9696,
      "consist": 9697,
      "cause": 9698,
      "##aches": 9699,
      "##uries": 9700,
      "inters": 9701,
      "damaged": 9702,
      "##hod": 9703,
      "meeting": 9704,
      "##anced": 9705,
      "ran": 9706,
      "job": 9707,
      "##ging": 9708,
      "appears": 9709,
      "confir": 9710,
      "adop": 9711,
      "minute": 9712,
      "##rate": 9713,
      "ranked": 9714,
      "Mel": 9715,
      "Center": 9716,
      "composed": 9717,
      "revealed": 9718,
      "Squadron": 9719,
      "Highway": 9720,
      "##ify": 9721,
      "34": 9722,
      "Bur": 9723,
      "flight": 9724,
      "attacks": 9725,
      "##olk": 9726,
      "Russian": 9727,
      "##ends": 9728,
      "##itect": 9729,
      "##imb": 9730,
      "plot": 9731,
      "raised": 9732,
      "discovered": 9733,
      "Rel": 9734,
      "Rad": 9735,
      "##reak": 9736,
      "##umed": 9737,
      "##lor": 9738,
      "##esh": 9739,
      "financ": 9740,
      "respectively": 9741,
      "III": 9742,
      "makes": 9743,
      "Kent": 9744,
      "Martin": 9745,
      "contem": 9746,
      "Central": 9747,
      "38": 9748,
      "##arch": 9749,
      "numerous": 9750,
      "1995": 9751,
      "Kr": 9752,
      "Lu": 9753,
      "##aging": 9754,
      "thr": 9755,
      "associated": 9756,
      "altern": 9757,
      "takes": 9758,
      "domin": 9759,
      "Angeles": 9760,
      "inspired": 9761,
      "account": 9762,
      "rout": 9763,
      "Dis": 9764,
      "needed": 9765,
      "anc": 9766,
      "lived": 9767,
      "yet": 9768,
      "launched": 9769,
      "##ails": 9770,
      "##aught": 9771,
      "##ription": 9772,
      "cand": 9773,
      "amb": 9774,
      "nature": 9775,
      "coach": 9776,
      "occurred": 9777,
      "contains": 9778,
      "DV": 9779,
      "vehic": 9780,
      "##estival": 9781,
      "Congress": 9782,
      "shown": 9783,
      "sales": 9784,
      "attempted": 9785,
      "hour": 9786,
      "##cy": 9787,
      "attacked": 9788,
      "##uments": 9789,
      "moving": 9790,
      "Bu": 9791,
      "Year": 9792,
      "conditions": 9793,
      "##aud": 9794,
      "TV": 9795,
      "aw": 9796,
      "##ken": 9797,
      "##down": 9798,
      "##iest": 9799,
      "accomp": 9800,
      "Miss": 9801,
      "##joy": 9802,
      "Tour": 9803,
      "Group": 9804,
      "fore": 9805,
      "2016": 9806,
      "ang": 9807,
      "1996": 9808,
      "##win": 9809,
      "refl": 9810,
      "issues": 9811,
      "birth": 9812,
      "##mon": 9813,
      "whole": 9814,
      "Tur": 9815,
      "exam": 9816,
      "information": 9817,
      "##izing": 9818,
      "farm": 9819,
      "yards": 9820,
      "Empire": 9821,
      "sal": 9822,
      "slight": 9823,
      "upper": 9824,
      "Out": 9825,
      "##cean": 9826,
      "incor": 9827,
      "box": 9828,
      "subject": 9829,
      "##urity": 9830,
      "Kar": 9831,
      "mom": 9832,
      "referred": 9833,
      "critical": 9834,
      "##kin": 9835,
      "##rect": 9836,
      "prec": 9837,
      "19th": 9838,
      "##enant": 9839,
      "##reme": 9840,
      "Penn": 9841,
      "scient": 9842,
      "numbers": 9843,
      "finally": 9844,
      "smaller": 9845,
      "##ogue": 9846,
      "##eather": 9847,
      "elected": 9848,
      "resulted": 9849,
      "selected": 9850,
      "##quar": 9851,
      "##ellow": 9852,
      "Rh": 9853,
      "sen": 9854,
      "bad": 9855,
      "Gar": 9856,
      "grant": 9857,
      "experi": 9858,
      "Jose": 9859,
      "cer": 9860,
      "active": 9861,
      "##zz": 9862,
      "grand": 9863,
      "princip": 9864,
      "singer": 9865,
      "90": 9866,
      "Bow": 9867,
      "standard": 9868,
      "secret": 9869,
      "##itation": 9870,
      "##uated": 9871,
      "Italian": 9872,
      "mission": 9873,
      "##ases": 9874,
      "1994": 9875,
      "industry": 9876,
      "Tel": 9877,
      "largely": 9878,
      "##well": 9879,
      "operation": 9880,
      "##eek": 9881,
      "sem": 9882,
      "##ality": 9883,
      "##ortun": 9884,
      "assigned": 9885,
      "saf": 9886,
      "analy": 9887,
      "Arm": 9888,
      "##oud": 9889,
      "web": 9890,
      "##lo": 9891,
      "legisl": 9892,
      "earned": 9893,
      "commented": 9894,
      "Team": 9895,
      "##itude": 9896,
      "expected": 9897,
      "DVD": 9898,
      "Corps": 9899,
      "listed": 9900,
      "Cons": 9901,
      "audience": 9902,
      "suggest": 9903,
      "pair": 9904,
      "Crit": 9905,
      "artic": 9906,
      "covered": 9907,
      "purp": 9908,
      "So": 9909,
      "##ider": 9910,
      "hot": 9911,
      "unable": 9912,
      "gre": 9913,
      "sched": 9914,
      "indic": 9915,
      "traditional": 9916,
      "education": 9917,
      "underst": 9918,
      "trade": 9919,
      "artist": 9920,
      "friends": 9921,
      "Viet": 9922,
      "closed": 9923,
      "attention": 9924,
      "refused": 9925,
      "plat": 9926,
      "Er": 9927,
      "newsp": 9928,
      "method": 9929,
      "pit": 9930,
      "##ounts": 9931,
      "primary": 9932,
      "double": 9933,
      "##ighter": 9934,
      "sister": 9935,
      "kind": 9936,
      "royal": 9937,
      "prevent": 9938,
      "Michigan": 9939,
      "##aped": 9940,
      "reason": 9941,
      "letter": 9942,
      "##ipped": 9943,
      "male": 9944,
      "officer": 9945,
      "und": 9946,
      "below": 9947,
      "Wales": 9948,
      "enjoy": 9949,
      "dig": 9950,
      "##isk": 9951,
      "ability": 9952,
      "depression": 9953,
      "meant": 9954,
      "Mass": 9955,
      "49": 9956,
      "performances": 9957,
      "##ims": 9958,
      "declared": 9959,
      "Nort": 9960,
      "##anes": 9961,
      "blood": 9962,
      "##iled": 9963,
      "Cath": 9964,
      "giving": 9965,
      "repor": 9966,
      "concept": 9967,
      "word": 9968,
      "##undred": 9969,
      "180": 9970,
      "fighting": 9971,
      "commander": 9972,
      "religious": 9973,
      "books": 9974,
      "theat": 9975,
      "max": 9976,
      "middle": 9977,
      "Pre": 9978,
      "##ples": 9979,
      "rate": 9980,
      "##ady": 9981,
      "Ox": 9982,
      "Arch": 9983,
      "##thlet": 9984,
      "amount": 9985,
      "##ona": 9986,
      "##com": 9987,
      "Long": 9988,
      "records": 9989,
      "Acad": 9990,
      "Democr": 9991,
      "matches": 9992,
      "constit": 9993,
      "##aine": 9994,
      "mor": 9995,
      "names": 9996,
      "##tered": 9997,
      "Bec": 9998,
      "##oses": 9999,
      "Test": 10000,
      "impact": 10001,
      "produce": 10002,
      "question": 10003,
      "Fer": 10004,
      "recover": 10005,
      "Wal": 10006,
      "41": 10007,
      "##antasy": 10008,
      "competition": 10009,
      "unit": 10010,
      "centre": 10011,
      "##utch": 10012,
      "serious": 10013,
      "Sar": 10014,
      "##ien": 10015,
      "##odies": 10016,
      "disapp": 10017,
      "touch": 10018,
      "vocals": 10019,
      "Minister": 10020,
      "Leg": 10021,
      "Major": 10022,
      "Several": 10023,
      "Zeal": 10024,
      "mention": 10025,
      "1992": 10026,
      "##ounded": 10027,
      "##uct": 10028,
      "Midd": 10029,
      "abandon": 10030,
      "Matt": 10031,
      "##road": 10032,
      "rapid": 10033,
      "energy": 10034,
      "necess": 10035,
      "text": 10036,
      "##enge": 10037,
      "##rid": 10038,
      "Fox": 10039,
      "##overs": 10040,
      "har": 10041,
      "##ening": 10042,
      "train": 10043,
      "Se": 10044,
      "Kenn": 10045,
      "kilomet": 10046,
      "##echan": 10047,
      "dut": 10048,
      "##ervation": 10049,
      "constructed": 10050,
      "traff": 10051,
      "##ban": 10052,
      "theme": 10053,
      "##use": 10054,
      "1st": 10055,
      "##rier": 10056,
      "##ado": 10057,
      "Sum": 10058,
      "Time": 10059,
      "pick": 10060,
      "##ishop": 10061,
      "nearby": 10062,
      "highly": 10063,
      "Dar": 10064,
      "separate": 10065,
      "Zealand": 10066,
      "sev": 10067,
      "##ether": 10068,
      "continue": 10069,
      "400": 10070,
      "annual": 10071,
      "heart": 10072,
      "##be": 10073,
      "chief": 10074,
      "drum": 10075,
      "effort": 10076,
      "presented": 10077,
      "Mexico": 10078,
      "Haw": 10079,
      "##osh": 10080,
      "##ender": 10081,
      "positions": 10082,
      "combat": 10083,
      "African": 10084,
      "reduced": 10085,
      "##oper": 10086,
      "##rug": 10087,
      "##ibly": 10088,
      "controvers": 10089,
      "##ining": 10090,
      "##ansion": 10091,
      "directly": 10092,
      "55": 10093,
      "Four": 10094,
      "Tre": 10095,
      "##ieut": 10096,
      "##ingu": 10097,
      "Chris": 10098,
      "##work": 10099,
      "levels": 10100,
      "Wall": 10101,
      "means": 10102,
      "neigh": 10103,
      "object": 10104,
      "notes": 10105,
      "attended": 10106,
      "Ann": 10107,
      "practice": 10108,
      "tried": 10109,
      "compos": 10110,
      "##emorial": 10111,
      "Hung": 10112,
      "nuc": 10113,
      "edition": 10114,
      "fast": 10115,
      "##ita": 10116,
      "twenty": 10117,
      "Bob": 10118,
      "metal": 10119,
      "1993": 10120,
      "##vement": 10121,
      "##onic": 10122,
      "Madonna": 10123,
      "accepted": 10124,
      "watch": 10125,
      "architect": 10126,
      "20th": 10127,
      "stating": 10128,
      "1991": 10129,
      "movie": 10130,
      "cle": 10131,
      "##shire": 10132,
      "##ires": 10133,
      "##osen": 10134,
      "candid": 10135,
      "##isation": 10136,
      "##lled": 10137,
      "concert": 10138,
      "##track": 10139,
      "Scotland": 10140,
      "Kh": 10141,
      "##awn": 10142,
      "179": 10143,
      "##stitute": 10144,
      "Jones": 10145,
      "##aph": 10146,
      "direction": 10147,
      "##house": 10148,
      "39": 10149,
      "Tw": 10150,
      "##ersey": 10151,
      "seem": 10152,
      "lif": 10153,
      "dism": 10154,
      "Their": 10155,
      "schools": 10156,
      "legal": 10157,
      "rein": 10158,
      "##eway": 10159,
      "##ux": 10160,
      "thick": 10161,
      "Av": 10162,
      "Manc": 10163,
      "Cross": 10164,
      "##icip": 10165,
      "asp": 10166,
      "horse": 10167,
      "oil": 10168,
      "recomm": 10169,
      "marriage": 10170,
      "##illery": 10171,
      "Greek": 10172,
      "Department": 10173,
      "intell": 10174,
      "efforts": 10175,
      "managed": 10176,
      "college": 10177,
      "42": 10178,
      "##ya": 10179,
      "purs": 10180,
      "draft": 10181,
      "##eath": 10182,
      "Dou": 10183,
      "##wide": 10184,
      "wing": 10185,
      "##utions": 10186,
      "ending": 10187,
      "resulting": 10188,
      "48": 10189,
      "##irit": 10190,
      "##ieutenant": 10191,
      "Arab": 10192,
      "spl": 10193,
      "Three": 10194,
      "showed": 10195,
      "##band": 10196,
      "182": 10197,
      "dropped": 10198,
      "Go": 10199,
      "##ican": 10200,
      "responsible": 10201,
      "Post": 10202,
      "overs": 10203,
      "##MS": 10204,
      "Infantry": 10205,
      "##arian": 10206,
      "nation": 10207,
      "inside": 10208,
      "##like": 10209,
      "##illed": 10210,
      "kept": 10211,
      "##arrow": 10212,
      "cases": 10213,
      "Coll": 10214,
      "Foot": 10215,
      "cust": 10216,
      "environment": 10217,
      "Bost": 10218,
      "culture": 10219,
      "meaning": 10220,
      "dom": 10221,
      "cyclone": 10222,
      "rat": 10223,
      "incorpor": 10224,
      "##olf": 10225,
      "begins": 10226,
      "##inem": 10227,
      "variety": 10228,
      "##sw": 10229,
      "##ceeded": 10230,
      "morning": 10231,
      "##cing": 10232,
      "subst": 10233,
      "cerem": 10234,
      "houses": 10235,
      "product": 10236,
      "forms": 10237,
      "Stone": 10238,
      "championship": 10239,
      "Service": 10240,
      "words": 10241,
      "##gl": 10242,
      "vo": 10243,
      "yard": 10244,
      "schol": 10245,
      "##peror": 10246,
      "perm": 10247,
      "##aise": 10248,
      "Williams": 10249,
      "Creek": 10250,
      "Records": 10251,
      "##ini": 10252,
      "Secret": 10253,
      "marked": 10254,
      "##cend": 10255,
      "inches": 10256,
      "favour": 10257,
      "du": 10258,
      "181": 10259,
      "Hel": 10260,
      "continues": 10261,
      "science": 10262,
      "BC": 10263,
      "Che": 10264,
      "symb": 10265,
      "##ils": 10266,
      "##iated": 10267,
      "bank": 10268,
      "Parliament": 10269,
      "uses": 10270,
      "economic": 10271,
      "Sol": 10272,
      "##writ": 10273,
      "source": 10274,
      "Cle": 10275,
      "Games": 10276,
      "##cle": 10277,
      "##thel": 10278,
      "##ylv": 10279,
      "Stan": 10280,
      "Tri": 10281,
      "##sis": 10282,
      "quality": 10283,
      "##kn": 10284,
      "##gypt": 10285,
      "##ulations": 10286,
      "hundred": 10287,
      "##ols": 10288,
      "starting": 10289,
      "conducted": 10290,
      "Book": 10291,
      "##thur": 10292,
      "specific": 10293,
      "strugg": 10294,
      "allowing": 10295,
      "Egypt": 10296,
      "##light": 10297,
      "Society": 10298,
      "Ro": 10299,
      "beat": 10300,
      "1942": 10301,
      "##bed": 10302,
      "presence": 10303,
      "sides": 10304,
      "Ap": 10305,
      "Jer": 10306,
      "##ada": 10307,
      "viewers": 10308,
      "Oh": 10309,
      "##wh": 10310,
      "Sur": 10311,
      "Win": 10312,
      "dance": 10313,
      "##ait": 10314,
      "metres": 10315,
      "chap": 10316,
      "##ications": 10317,
      "##sych": 10318,
      "univers": 10319,
      "Sil": 10320,
      "suppl": 10321,
      "47": 10322,
      "exhib": 10323,
      "rule": 10324,
      "Prince": 10325,
      "Southern": 10326,
      "distinct": 10327,
      "Clark": 10328,
      "Sat": 10329,
      "transferred": 10330,
      "Stephen": 10331,
      "65": 10332,
      "raid": 10333,
      "potential": 10334,
      "Fin": 10335,
      "##teen": 10336,
      "Committee": 10337,
      "foreign": 10338,
      "Georg": 10339,
      "Beat": 10340,
      "Latin": 10341,
      "Oxford": 10342,
      "##inet": 10343,
      "##mark": 10344,
      "peaked": 10345,
      "Spec": 10346,
      "##itiz": 10347,
      "enemy": 10348,
      "ple": 10349,
      "your": 10350,
      "mel": 10351,
      "##of": 10352,
      "Hal": 10353,
      "captain": 10354,
      "becomes": 10355,
      "traffic": 10356,
      "advance": 10357,
      "owned": 10358,
      "things": 10359,
      "founded": 10360,
      "Ver": 10361,
      "greater": 10362,
      "Bas": 10363,
      "Joseph": 10364,
      "Like": 10365,
      "big": 10366,
      "vocal": 10367,
      "Admiral": 10368,
      "attend": 10369,
      "News": 10370,
      "concluded": 10371,
      "portion": 10372,
      "Brad": 10373,
      "##very": 10374,
      "scoring": 10375,
      "castle": 10376,
      "respond": 10377,
      "stories": 10378,
      "property": 10379,
      "##iance": 10380,
      "attempts": 10381,
      "Camb": 10382,
      "encoun": 10383,
      "Boston": 10384,
      "ded": 10385,
      "relatively": 10386,
      "mess": 10387,
      "Harrison": 10388,
      "Chief": 10389,
      "Manchester": 10390,
      "appar": 10391,
      "primarily": 10392,
      "demonst": 10393,
      "Jeff": 10394,
      "52": 10395,
      "federal": 10396,
      "financial": 10397,
      "Class": 10398,
      "Form": 10399,
      "##rawn": 10400,
      "##fect": 10401,
      "Because": 10402,
      "actually": 10403,
      "Before": 10404,
      "animals": 10405,
      "46": 10406,
      "Captain": 10407,
      "Swed": 10408,
      "observed": 10409,
      "Hurricane": 10410,
      "tourn": 10411,
      "collection": 10412,
      "opportun": 10413,
      "Dire": 10414,
      "multiple": 10415,
      "Vietn": 10416,
      "titled": 10417,
      "##udd": 10418,
      "##istics": 10419,
      "Tim": 10420,
      "featuring": 10421,
      "Sk": 10422,
      "writers": 10423,
      "contact": 10424,
      "Bat": 10425,
      "Dev": 10426,
      "write": 10427,
      "Pan": 10428,
      "1944": 10429,
      "ge": 10430,
      "inch": 10431,
      "journal": 10432,
      "43": 10433,
      "Bridge": 10434,
      "strength": 10435,
      "Def": 10436,
      "wor": 10437,
      "Ott": 10438,
      "##stein": 10439,
      "mechan": 10440,
      "weaken": 10441,
      "situation": 10442,
      "##umber": 10443,
      "spot": 10444,
      "paid": 10445,
      "##we": 10446,
      "distance": 10447,
      "premi": 10448,
      "parents": 10449,
      "Commission": 10450,
      "Battalion": 10451,
      "independent": 10452,
      "Ke": 10453,
      "44": 10454,
      "64": 10455,
      "passeng": 10456,
      "figure": 10457,
      "Max": 10458,
      "actor": 10459,
      "acting": 10460,
      "companies": 10461,
      "tur": 10462,
      "progress": 10463,
      "Columb": 10464,
      "divided": 10465,
      "Carl": 10466,
      "##ih": 10467,
      "Paris": 10468,
      "mind": 10469,
      "onto": 10470,
      "##mas": 10471,
      "##iced": 10472,
      "Van": 10473,
      "collabor": 10474,
      "link": 10475,
      "Luc": 10476,
      "##ental": 10477,
      "##anna": 10478,
      "target": 10479,
      "slightly": 10480,
      "function": 10481,
      "piece": 10482,
      "share": 10483,
      "Series": 10484,
      "Mod": 10485,
      "reform": 10486,
      "selling": 10487,
      "##perial": 10488,
      "##ricket": 10489,
      "powerful": 10490,
      "torped": 10491,
      "concent": 10492,
      "rating": 10493,
      "innings": 10494,
      "##chest": 10495,
      "##rel": 10496,
      "plays": 10497,
      "##eball": 10498,
      "Ma": 10499,
[...]
